{
  "version": "1.0",
  "truncation": null,
  "padding": null,
  "added_tokens": [
    {
      "id": 0,
      "content": "<|unk|>",
      "single_word": false,
      "lstrip": false,
      "rstrip": false,
      "normalized": false,
      "special": true
    },
    {
      "id": 1,
      "content": "<|user|>",
      "single_word": false,
      "lstrip": false,
      "rstrip": false,
      "normalized": false,
      "special": true
    },
    {
      "id": 2,
      "content": "<|assistant|>",
      "single_word": false,
      "lstrip": false,
      "rstrip": false,
      "normalized": false,
      "special": true
    },
    {
      "id": 3,
      "content": "<|end|>",
      "single_word": false,
      "lstrip": false,
      "rstrip": false,
      "normalized": false,
      "special": true
    }
  ],
  "normalizer": null,
  "pre_tokenizer": {
    "type": "ByteLevel",
    "add_prefix_space": false,
    "trim_offsets": true,
    "use_regex": true
  },
  "post_processor": null,
  "decoder": {
    "type": "ByteLevel",
    "add_prefix_space": true,
    "trim_offsets": true,
    "use_regex": true
  },
  "model": {
    "type": "BPE",
    "dropout": null,
    "unk_token": "<|unk|>",
    "continuing_subword_prefix": null,
    "end_of_word_suffix": null,
    "fuse_unk": false,
    "byte_fallback": false,
    "ignore_merges": false,
    "vocab": {
      "<|unk|>": 0,
      "<|user|>": 1,
      "<|assistant|>": 2,
      "<|end|>": 3,
      "!": 4,
      "\"": 5,
      "#": 6,
      "$": 7,
      "%": 8,
      "&": 9,
      "'": 10,
      "(": 11,
      ")": 12,
      "*": 13,
      "+": 14,
      ",": 15,
      "-": 16,
      ".": 17,
      "/": 18,
      "0": 19,
      "1": 20,
      "2": 21,
      "3": 22,
      "4": 23,
      "5": 24,
      "6": 25,
      "7": 26,
      "8": 27,
      "9": 28,
      ":": 29,
      ";": 30,
      "<": 31,
      "=": 32,
      ">": 33,
      "?": 34,
      "@": 35,
      "A": 36,
      "B": 37,
      "C": 38,
      "D": 39,
      "E": 40,
      "F": 41,
      "G": 42,
      "H": 43,
      "I": 44,
      "J": 45,
      "K": 46,
      "L": 47,
      "M": 48,
      "N": 49,
      "O": 50,
      "P": 51,
      "Q": 52,
      "R": 53,
      "S": 54,
      "T": 55,
      "U": 56,
      "V": 57,
      "W": 58,
      "X": 59,
      "Y": 60,
      "Z": 61,
      "[": 62,
      "\\": 63,
      "]": 64,
      "^": 65,
      "_": 66,
      "`": 67,
      "a": 68,
      "b": 69,
      "c": 70,
      "d": 71,
      "e": 72,
      "f": 73,
      "g": 74,
      "h": 75,
      "i": 76,
      "j": 77,
      "k": 78,
      "l": 79,
      "m": 80,
      "n": 81,
      "o": 82,
      "p": 83,
      "q": 84,
      "r": 85,
      "s": 86,
      "t": 87,
      "u": 88,
      "v": 89,
      "w": 90,
      "x": 91,
      "y": 92,
      "z": 93,
      "{": 94,
      "|": 95,
      "}": 96,
      "~": 97,
      "¡": 98,
      "¢": 99,
      "£": 100,
      "¤": 101,
      "¥": 102,
      "¦": 103,
      "§": 104,
      "¨": 105,
      "©": 106,
      "ª": 107,
      "«": 108,
      "¬": 109,
      "®": 110,
      "¯": 111,
      "°": 112,
      "±": 113,
      "²": 114,
      "³": 115,
      "´": 116,
      "µ": 117,
      "¶": 118,
      "·": 119,
      "¸": 120,
      "¹": 121,
      "º": 122,
      "»": 123,
      "¼": 124,
      "½": 125,
      "¾": 126,
      "¿": 127,
      "À": 128,
      "Á": 129,
      "Â": 130,
      "Ã": 131,
      "Ä": 132,
      "Å": 133,
      "Æ": 134,
      "Ç": 135,
      "È": 136,
      "É": 137,
      "Ê": 138,
      "Ë": 139,
      "Ì": 140,
      "Í": 141,
      "Î": 142,
      "Ï": 143,
      "Ð": 144,
      "Ñ": 145,
      "Ò": 146,
      "Ó": 147,
      "Ô": 148,
      "Õ": 149,
      "Ö": 150,
      "×": 151,
      "Ø": 152,
      "Ù": 153,
      "Ú": 154,
      "Û": 155,
      "Ü": 156,
      "Ý": 157,
      "Þ": 158,
      "ß": 159,
      "à": 160,
      "á": 161,
      "â": 162,
      "ã": 163,
      "ä": 164,
      "å": 165,
      "æ": 166,
      "ç": 167,
      "è": 168,
      "é": 169,
      "ê": 170,
      "ë": 171,
      "ì": 172,
      "í": 173,
      "î": 174,
      "ï": 175,
      "ð": 176,
      "ñ": 177,
      "ò": 178,
      "ó": 179,
      "ô": 180,
      "õ": 181,
      "ö": 182,
      "÷": 183,
      "ø": 184,
      "ù": 185,
      "ú": 186,
      "û": 187,
      "ü": 188,
      "ý": 189,
      "þ": 190,
      "ÿ": 191,
      "Ā": 192,
      "ā": 193,
      "Ă": 194,
      "ă": 195,
      "Ą": 196,
      "ą": 197,
      "Ć": 198,
      "ć": 199,
      "Ĉ": 200,
      "ĉ": 201,
      "Ċ": 202,
      "ċ": 203,
      "Č": 204,
      "č": 205,
      "Ď": 206,
      "ď": 207,
      "Đ": 208,
      "đ": 209,
      "Ē": 210,
      "ē": 211,
      "Ĕ": 212,
      "ĕ": 213,
      "Ė": 214,
      "ė": 215,
      "Ę": 216,
      "ę": 217,
      "Ě": 218,
      "ě": 219,
      "Ĝ": 220,
      "ĝ": 221,
      "Ğ": 222,
      "ğ": 223,
      "Ġ": 224,
      "ġ": 225,
      "Ģ": 226,
      "ģ": 227,
      "Ĥ": 228,
      "ĥ": 229,
      "Ħ": 230,
      "ħ": 231,
      "Ĩ": 232,
      "ĩ": 233,
      "Ī": 234,
      "ī": 235,
      "Ĭ": 236,
      "ĭ": 237,
      "Į": 238,
      "į": 239,
      "İ": 240,
      "ı": 241,
      "Ĳ": 242,
      "ĳ": 243,
      "Ĵ": 244,
      "ĵ": 245,
      "Ķ": 246,
      "ķ": 247,
      "ĸ": 248,
      "Ĺ": 249,
      "ĺ": 250,
      "Ļ": 251,
      "ļ": 252,
      "Ľ": 253,
      "ľ": 254,
      "Ŀ": 255,
      "ŀ": 256,
      "Ł": 257,
      "ł": 258,
      "Ń": 259,
      "Ġt": 260,
      "Ġa": 261,
      "in": 262,
      "čĊ": 263,
      "he": 264,
      "re": 265,
      "on": 266,
      "er": 267,
      "Ġthe": 268,
      "at": 269,
      "Ġs": 270,
      "Ġc": 271,
      "nd": 272,
      "or": 273,
      "is": 274,
      "an": 275,
      "ou": 276,
      "es": 277,
      "it": 278,
      "ĠĠ": 279,
      "Ġw": 280,
      "en": 281,
      "Ġp": 282,
      "ing": 283,
      "Ġf": 284,
      "Ġo": 285,
      "Ġm": 286,
      "Ġand": 287,
      "Ġb": 288,
      "al": 289,
      "Ġto": 290,
      "le": 291,
      "Ġin": 292,
      "Ġd": 293,
      "ar": 294,
      "Ġof": 295,
      "ic": 296,
      "ion": 297,
      "ed": 298,
      "as": 299,
      "ro": 300,
      "us": 301,
      "Ġh": 302,
      "Ġth": 303,
      "Ġe": 304,
      "ct": 305,
      "Ġy": 306,
      "om": 307,
      "Ġl": 308,
      "ent": 309,
      "Ġyou": 310,
      "Ġre": 311,
      "ve": 312,
      "Ġn": 313,
      "et": 314,
      "<|": 315,
      "|>": 316,
      "Ġis": 317,
      "il": 318,
      "im": 319,
      "Ġg": 320,
      "el": 321,
      "ow": 322,
      "ĠĠĠĠ": 323,
      "ist": 324,
      "am": 325,
      "st": 326,
      "ch": 327,
      "ce": 328,
      "Ġfor": 329,
      "ant": 330,
      "id": 331,
      "Ġthat": 332,
      "Ġbe": 333,
      "ol": 334,
      "ation": 335,
      "ĠT": 336,
      "ut": 337,
      "ĠI": 338,
      "ot": 339,
      "ig": 340,
      "ra": 341,
      "ly": 342,
      "Ġst": 343,
      "Ġon": 344,
      "ith": 345,
      "Ġpro": 346,
      "if": 347,
      "ay": 348,
      "Ġit": 349,
      "od": 350,
      "Ġas": 351,
      "ul": 352,
      "ver": 353,
      "Ġcon": 354,
      "Ġcan": 355,
      "un": 356,
      "ur": 357,
      "Ġan": 358,
      "Ġwith": 359,
      "Ġor": 360,
      "ĠA": 361,
      "ass": 362,
      "ge": 363,
      "Ġare": 364,
      "end": 365,
      "se": 366,
      "ir": 367,
      "ate": 368,
      "Ġus": 369,
      "um": 370,
      "Ġcom": 371,
      "ld": 372,
      "ad": 373,
      "Ġex": 374,
      "ke": 375,
      "ĠS": 376,
      "ers": 377,
      "qu": 378,
      "Ġal": 379,
      "Ġwh": 380,
      "ĠĠĠ": 381,
      "Ġhe": 382,
      "ess": 383,
      "ure": 384,
      "Ġde": 385,
      "istant": 386,
      "Ġyour": 387,
      "pe": 388,
      "ĠC": 389,
      "Ġv": 390,
      "ri": 391,
      "ab": 392,
      "ter": 393,
      "user": 394,
      "assistant": 395,
      "her": 396,
      "op": 397,
      "ere": 398,
      "Ġha": 399,
      "ore": 400,
      "pl": 401,
      "em": 402,
      "ĠThe": 403,
      "out": 404,
      "ck": 405,
      "ity": 406,
      "est": 407,
      "'s": 408,
      "ort": 409,
      "ould": 410,
      "Ġsu": 411,
      "pt": 412,
      "ment": 413,
      "ain": 414,
      "Ġne": 415,
      "ill": 416,
      "igh": 417,
      "ĠP": 418,
      "ive": 419,
      "th": 420,
      "os": 421,
      "ect": 422,
      "Ġim": 423,
      "Ġ\"": 424,
      "nt": 425,
      "Ġle": 426,
      "Ġr": 427,
      "Ġch": 428,
      "ies": 429,
      "age": 430,
      "ĠH": 431,
      "ple": 432,
      "Ġ(": 433,
      "ĠM": 434,
      "ions": 435,
      "iz": 436,
      "Ġby": 437,
      "ome": 438,
      "rom": 439,
      "Ġme": 440,
      "ine": 441,
      "Ġhave": 442,
      "Ġma": 443,
      "ight": 444,
      "pp": 445,
      "ial": 446,
      "Ġpl": 447,
      "iv": 448,
      "Ġse": 449,
      "Ġen": 450,
      "oc": 451,
      "and": 452,
      "Ġsh": 453,
      "Ġwor": 454,
      "Ġnot": 455,
      "ical": 456,
      "ide": 457,
      "per": 458,
      "ame": 459,
      "res": 460,
      "ud": 461,
      "Ġ1": 462,
      "all": 463,
      "our": 464,
      "Ġu": 465,
      "ĠW": 466,
      "ĠD": 467,
      "art": 468,
      "Ġfrom": 469,
      "ĠE": 470,
      "Ġint": 471,
      "Ġab": 472,
      "ĠB": 473,
      "ell": 474,
      "act": 475,
      "ĠF": 476,
      "og": 477,
      "Ġ=": 478,
      "``": 479,
      "ther": 480,
      "ile": 481,
      "ĠR": 482,
      "for": 483,
      "Ġad": 484,
      "Ġwe": 485,
      "ĠĠĠĠĠĠĠĠ": 486,
      "ust": 487,
      "ĠG": 488,
      "cl": 489,
      "ich": 490,
      "Ġat": 491,
      "are": 492,
      "Ġimp": 493,
      "Ġcont": 494,
      "Ġcomp": 495,
      "able": 496,
      "Ġdo": 497,
      "Ġk": 498,
      "ult": 499,
      "his": 500,
      "ag": 501,
      "ard": 502,
      "ang": 503,
      "ĠL": 504,
      "ib": 505,
      "Ġthis": 506,
      "rou": 507,
      "ations": 508,
      "ind": 509,
      "Ġmore": 510,
      "ep": 511,
      "form": 512,
      "ry": 513,
      "Ġwill": 514,
      "The": 515,
      "ction": 516,
      "ie": 517,
      "vel": 518,
      "ue": 519,
      "Ġcre": 520,
      "Ġtheir": 521,
      "Ġother": 522,
      "cess": 523,
      "Ġres": 524,
      "ff": 525,
      "Ġun": 526,
      "low": 527,
      "ance": 528,
      "Ġte": 529,
      "ack": 530,
      "Ġwhich": 531,
      "--": 532,
      "king": 533,
      "ire": 534,
      "Ġsc": 535,
      "Ġwas": 536,
      "Ġqu": 537,
      "Ġsome": 538,
      "du": 539,
      "gh": 540,
      "so": 541,
      "ans": 542,
      "ces": 543,
      "ase": 544,
      "ence": 545,
      "Ġwhe": 546,
      "Ġgo": 547,
      "ime": 548,
      "lp": 549,
      "Ġuse": 550,
      "Ġ2": 551,
      "ĠThis": 552,
      "ite": 553,
      "Ġmod": 554,
      "ost": 555,
      "Ġ-": 556,
      "ated": 557,
      "ous": 558,
      "Ġhelp": 559,
      "Ġsuch": 560,
      "Ġli": 561,
      "Ġtra": 562,
      "ast": 563,
      "ach": 564,
      "Ġcl": 565,
      "Ġbut": 566,
      "iff": 567,
      "Ġhas": 568,
      "ĠO": 569,
      "Ġdat": 570,
      "Ġspe": 571,
      "oo": 572,
      "Ġso": 573,
      "ory": 574,
      "Ġfe": 575,
      "Ġman": 576,
      "ign": 577,
      "ong": 578,
      "Ġsy": 579,
      "hat": 580,
      "ks": 581,
      "ice": 582,
      "ĠN": 583,
      "ific": 584,
      "Ġj": 585,
      "ĠU": 586,
      "Ġthey": 587,
      "xt": 588,
      "av": 589,
      "ap": 590,
      "Ġif": 591,
      "Ġdiff": 592,
      "Ġac": 593,
      "clud": 594,
      "Ġwould": 595,
      "ary": 596,
      "ace": 597,
      "ip": 598,
      "Ġany": 599,
      "Ġmay": 600,
      "Ġalso": 601,
      "Ġcomm": 602,
      "ac": 603,
      "Ġar": 604,
      "Ġneed": 605,
      "ition": 606,
      "int": 607,
      "Ġabout": 608,
      "ual": 609,
      "ode": 610,
      "ject": 611,
      "now": 612,
      "Ġout": 613,
      "Ġinclud": 614,
      "ĠĠĠĠĠĠĠ": 615,
      "Ġmy": 616,
      "ru": 617,
      "00": 618,
      "Ġro": 619,
      "Ġlike": 620,
      "stem": 621,
      "one": 622,
      "Ġup": 623,
      "ress": 624,
      "ient": 625,
      "ĠIt": 626,
      "Ġcons": 627,
      "Ġdis": 628,
      "Ġits": 629,
      "Ġpre": 630,
      "ors": 631,
      "Ġfun": 632,
      "Ġdata": 633,
      "Ġhow": 634,
      "Ġev": 635,
      "Ġtime": 636,
      "ens": 637,
      "Ġprov": 638,
      "Ġper": 639,
      "nder": 640,
      "ber": 641,
      "Ġthem": 642,
      "ram": 643,
      "con": 644,
      "Ġusing": 645,
      "lo": 646,
      "ning": 647,
      "etw": 648,
      "ĠY": 649,
      "ĠIn": 650,
      "```": 651,
      "Ġall": 652,
      "Ġspec": 653,
      "Ġused": 654,
      "Ġdes": 655,
      "Ġknow": 656,
      "Ġsp": 657,
      "Ġexam": 658,
      "ari": 659,
      "Ġcould": 660,
      "Ġtr": 661,
      "Ġsystem": 662,
      "ics": 663,
      "Ġone": 664,
      "put": 665,
      "ating": 666,
      "Ġdiffere": 667,
      "ener": 668,
      "led": 669,
      "angu": 670,
      "Ġta": 671,
      "ount": 672,
      "ft": 673,
      "Ġover": 674,
      "ular": 675,
      "Ġcol": 676,
      "ely": 677,
      "Ġimport": 678,
      "ĠJ": 679,
      "Ġam": 680,
      "Ġinto": 681,
      "ater": 682,
      "Ġthere": 683,
      "Ġmake": 684,
      "Ġlangu": 685,
      "Ġ3": 686,
      "Ġnew": 687,
      "velop": 688,
      "Ġmodel": 689,
      "Ġcode": 690,
      "ize": 691,
      "Ġprog": 692,
      "com": 693,
      "ord": 694,
      "ail": 695,
      "Ġset": 696,
      "ings": 697,
      "ild": 698,
      "Ġser": 699,
      "Ġhis": 700,
      "Ġpos": 701,
      "In": 702,
      "Ġinter": 703,
      "Ġke": 704,
      "ub": 705,
      "elf": 706,
      "ible": 707,
      "Ġwhat": 708,
      "Ġunder": 709,
      "Ġway": 710,
      "ates": 711,
      "ick": 712,
      "ful": 713,
      "ature": 714,
      "Ġshould": 715,
      "Ġadd": 716,
      "Ġwho": 717,
      "Ġpart": 718,
      "Ġwork": 719,
      "ms": 720,
      "pen": 721,
      "Ġap": 722,
      "Ġval": 723,
      "ove": 724,
      "Ġem": 725,
      "ments": 726,
      "Ġph": 727,
      "very": 728,
      "Ġapp": 729,
      "Ġpe": 730,
      "ally": 731,
      "Ġsim": 732,
      "Ġhum": 733,
      "ased": 734,
      "Ġrel": 735,
      "Ġdevelop": 736,
      "âĢ": 737,
      "Ġlear": 738,
      "ree": 739,
      "Ġnum": 740,
      "ĠSt": 741,
      "eth": 742,
      "vers": 743,
      "Ġpr": 744,
      "Ġgener": 745,
      "Ġthese": 746,
      "ility": 747,
      "Ġplay": 748,
      "Ġexample": 749,
      "aus": 750,
      "Ġind": 751,
      "olog": 752,
      "Ġfunction": 753,
      "ower": 754,
      "Ġeach": 755,
      "ll": 756,
      "Ġty": 757,
      "get": 758,
      "Ġdifferent": 759,
      "rib": 760,
      "ĠčĊ": 761,
      "Ġeff": 762,
      "ark": 763,
      "ons": 764,
      "Ġrequ": 765,
      "ĠAI": 766,
      "Ġfol": 767,
      "ents": 768,
      "row": 769,
      "rit": 770,
      "'t": 771,
      "Ġbu": 772,
      "les": 773,
      "Ġmany": 774,
      "cre": 775,
      "Ġstr": 776,
      "ish": 777,
      "Ġob": 778,
      "rough": 779,
      "ities": 780,
      "Ġinst": 781,
      "Ġinv": 782,
      "ia": 783,
      "Ġcreate": 784,
      "ĠYou": 785,
      "Ġget": 786,
      "Ġprogram": 787,
      "Ġact": 788,
      "Ġpers": 789,
      "ript": 790,
      "Ġwhen": 791,
      "ange": 792,
      "Ġlanguage": 793,
      "ph": 794,
      "Ġsm": 795,
      "ound": 796,
      "ys": 797,
      "ose": 798,
      "Ġ{": 799,
      "Ġimportant": 800,
      "Ġra": 801,
      "Ġprocess": 802,
      "een": 803,
      "ov": 804,
      "Ġvari": 805,
      "ever": 806,
      "lect": 807,
      "ĠHow": 808,
      "ath": 809,
      "plic": 810,
      "te": 811,
      "urn": 812,
      "Ġwant": 813,
      "als": 814,
      "tain": 815,
      "Ġfollow": 816,
      "ages": 817,
      "ough": 818,
      "Ġworld": 819,
      "ative": 820,
      "etween": 821,
      "ear": 822,
      "ood": 823,
      "ict": 824,
      "Ġtw": 825,
      "Ġbetween": 826,
      "round": 827,
      "What": 828,
      "Ġprodu": 829,
      "chn": 830,
      "Ġthan": 831,
      "Ġwhere": 832,
      "Ġ|": 833,
      "Ġcomput": 834,
      "ne": 835,
      "Ġexpl": 836,
      "cur": 837,
      "----": 838,
      "Ġdet": 839,
      "Ġass": 840,
      "Ġexper": 841,
      "ise": 842,
      "Ġthrough": 843,
      "stand": 844,
      "formation": 845,
      "ss": 846,
      "ople": 847,
      "ĠIf": 848,
      "ĠV": 849,
      "ience": 850,
      "ook": 851,
      "oth": 852,
      "ak": 853,
      "Ġmost": 854,
      "ps": 855,
      "()": 856,
      "yth": 857,
      "erm": 858,
      "Ġpo": 859,
      "ef": 860,
      "ious": 861,
      "Ġoff": 862,
      "own": 863,
      "ential": 864,
      "âĶ": 865,
      "Ġreg": 866,
      "ting": 867,
      "ced": 868,
      "Ġform": 869,
      "ract": 870,
      "wn": 871,
      "rite": 872,
      "irst": 873,
      "Ġwhile": 874,
      "ob": 875,
      "ten": 876,
      "ds": 877,
      "ware": 878,
      "âĶĢ": 879,
      "Ġtechn": 880,
      "\",": 881,
      "ĠK": 882,
      "Ġcur": 883,
      "ices": 884,
      "Ġdep": 885,
      "tern": 886,
      "Ġcomple": 887,
      "gg": 888,
      "Ġ'": 889,
      "Ġpeople": 890,
      "Ġbeen": 891,
      "Ġadv": 892,
      "Ġatt": 893,
      "Ġstart": 894,
      "Ġgame": 895,
      "Ġprovide": 896,
      "its": 897,
      "Ġthen": 898,
      "**": 899,
      "Ġtwo": 900,
      "Ġfind": 901,
      "Ġbec": 902,
      "Ġtrans": 903,
      "ble": 904,
      "Ġunderstand": 905,
      "Ġcal": 906,
      "ife": 907,
      "Ġlar": 908,
      "cept": 909,
      "Ġ<": 910,
      "Ġco": 911,
      "Ġperson": 912,
      "Ġinformation": 913,
      "Ġfile": 914,
      "ng": 915,
      "Ġsol": 916,
      "ause": 917,
      "ython": 918,
      "ues": 919,
      "Ġincluding": 920,
      "Ġdef": 921,
      "Ġhuman": 922,
      "Ġpol": 923,
      "Ġno": 924,
      "ality": 925,
      "Ġspecific": 926,
      "Ġtrain": 927,
      "Ġquest": 928,
      "ness": 929,
      "Ġgood": 930,
      "ruct": 931,
      "Ġlist": 932,
      "Ġhigh": 933,
      "Ġche": 934,
      "Ġ`": 935,
      "pect": 936,
      "Ġchar": 937,
      "ural": 938,
      "..": 939,
      "Ġrem": 940,
      "Ġrec": 941,
      "Ġmat": 942,
      "Ġwell": 943,
      "reat": 944,
      "âĶĢâĶĢ": 945,
      "uring": 946,
      "Ġrun": 947,
      "Ġsa": 948,
      "erg": 949,
      "Ġpower": 950,
      "Ġallow": 951,
      "Ġconsid": 952,
      "Ġinf": 953,
      "Ġrep": 954,
      "Ġtext": 955,
      "Ġposs": 956,
      "cy": 957,
      "ays": 958,
      "Ġwere": 959,
      "hes": 960,
      "eg": 961,
      "Ġback": 962,
      "iew": 963,
      "oy": 964,
      "Ġjust": 965,
      "pport": 966,
      "lease": 967,
      "der": 968,
      "Ġfirst": 969,
      "How": 970,
      "Ġret": 971,
      "Ġdist": 972,
      "iqu": 973,
      "Ġsk": 974,
      "Ġown": 975,
      "Ġweb": 976,
      "Ġmain": 977,
      "ves": 978,
      "ork": 979,
      "ake": 980,
      "Ġkey": 981,
      "ĠHowever": 982,
      "//": 983,
      "Ġsign": 984,
      "Ġref": 985,
      "ized": 986,
      "Ġag": 987,
      "ving": 988,
      "Ġ0": 989,
      "arch": 990,
      "ĠFor": 991,
      "ered": 992,
      "ribut": 993,
      "Ġfil": 994,
      "Ġfl": 995,
      "Ġ5": 996,
      "ically": 997,
      "Ġpop": 998,
      "Ġnumber": 999,
      "ety": 1000,
      "hen": 1001,
      "Ġour": 1002,
      "Ġ4": 1003,
      "Ġav": 1004,
      "Ġbeing": 1005,
      "rent": 1006,
      "ĠCh": 1007,
      "Ġsoc": 1008,
      "Ġplan": 1009,
      "Ġhad": 1010,
      "Ġimpro": 1011,
      "read": 1012,
      "Ġlead": 1013,
      "Ġ+": 1014,
      "Ġresp": 1015,
      "ink": 1016,
      "Ġstep": 1017,
      "Ġide": 1018,
      "Ġopt": 1019,
      "ĠĠĠĠĠĠĠĠĠĠĠĠĠĠĠĠ": 1020,
      "Ġdepend": 1021,
      "ty": 1022,
      "alth": 1023,
      "Ġgra": 1024,
      "Ġperform": 1025,
      "),": 1026,
      "Ġdesign": 1027,
      "Ġopen": 1028,
      "Ġlight": 1029,
      "Ġher": 1030,
      "Ġmin": 1031,
      "ian": 1032,
      "Ġtas": 1033,
      "eng": 1034,
      "Ġbest": 1035,
      "Ġdec": 1036,
      "ĠHere": 1037,
      "ien": 1038,
      "Ġloc": 1039,
      "Ġonly": 1040,
      "Ġfact": 1041,
      "ved": 1042,
      "Ġbuild": 1043,
      "Ġfi": 1044,
      "Ġhand": 1045,
      ");": 1046,
      "fore": 1047,
      "Ġobject": 1048,
      "Ġtake": 1049,
      "nce": 1050,
      "Ġmeth": 1051,
      "Ġinclude": 1052,
      "dition": 1053,
      "ify": 1054,
      "Ġdoes": 1055,
      "port": 1056,
      "ited": 1057,
      "Ġpot": 1058,
      "Ġeas": 1059,
      "red": 1060,
      "iron": 1061,
      "Ġrequire": 1062,
      "Ġcharact": 1063,
      "Ġresult": 1064,
      "ology": 1065,
      "ures": 1066,
      "uch": 1067,
      "Ġlife": 1068,
      "Ġtyp": 1069,
      "Ġbased": 1070,
      "Ġsub": 1071,
      "gor": 1072,
      "nect": 1073,
      "Ġ20": 1074,
      "Ġclass": 1075,
      ").": 1076,
      "ĠAd": 1077,
      "ade": 1078,
      "Ġcar": 1079,
      "cript": 1080,
      "ines": 1081,
      "Ġbel": 1082,
      "Ġdown": 1083,
      "Ġsmall": 1084,
      "Ġexp": 1085,
      "Ġmed": 1086,
      "Ġart": 1087,
      "Ġlong": 1088,
      "Ġsee": 1089,
      "ied": 1090,
      "Ġinput": 1091,
      "Ġprovid": 1092,
      "Ġapplic": 1093,
      "10": 1094,
      "Ġlearning": 1095,
      "ĠHe": 1096,
      "Ġcommun": 1097,
      "Ġpoint": 1098,
      "ming": 1099,
      "Ġtry": 1100,
      "Ġmethod": 1101,
      "Ġname": 1102,
      "mat": 1103,
      "Ġaut": 1104,
      "ather": 1105,
      "self": 1106,
      "Ġent": 1107,
      "rain": 1108,
      "ily": 1109,
      "ource": 1110,
      "Ġprom": 1111,
      "ex": 1112,
      "Ġins": 1113,
      "Ġincre": 1114,
      "ivid": 1115,
      "kes": 1116,
      "Ġpossible": 1117,
      "viron": 1118,
      "ern": 1119,
      "Ġlet": 1120,
      "Ġcor": 1121,
      "cial": 1122,
      "Ġgu": 1123,
      "gan": 1124,
      "Ġwater": 1125,
      "::": 1126,
      "ward": 1127,
      "irect": 1128,
      "gorith": 1129,
      "apt": 1130,
      "Ġevery": 1131,
      "Ġvalue": 1132,
      "Ġcomplex": 1133,
      "ody": 1134,
      "Ġbl": 1135,
      "Ġoften": 1136,
      "Here": 1137,
      "Ġdi": 1138,
      "ources": 1139,
      "line": 1140,
      "Ġeven": 1141,
      "Ġtop": 1142,
      "Ġhealth": 1143,
      "ization": 1144,
      "Ġeffect": 1145,
      "ples": 1146,
      "Ġlarge": 1147,
      "):": 1148,
      "ron": 1149,
      "Ġappro": 1150,
      "hip": 1151,
      "Ġlearn": 1152,
      "Ġpopular": 1153,
      "Ġext": 1154,
      "Ġfollowing": 1155,
      "Ġmult": 1156,
      "Ġfin": 1157,
      "ond": 1158,
      "Ġboth": 1159,
      "Ġ6": 1160,
      "Ġacc": 1161,
      "vent": 1162,
      "Ġfew": 1163,
      "ts": 1164,
      "Ġyear": 1165,
      "Ġsur": 1166,
      "ional": 1167,
      "Ġ[": 1168,
      "ives": 1169,
      "ergy": 1170,
      "Ġcount": 1171,
      "Ġpar": 1172,
      "ax": 1173,
      "up": 1174,
      "Ġshe": 1175,
      "Ġsoft": 1176,
      "fter": 1177,
      "ric": 1178,
      "Ġknown": 1179,
      "ring": 1180,
      "Ġeng": 1181,
      "Ġalgorith": 1182,
      "To": 1183,
      "ism": 1184,
      "Ġhist": 1185,
      "Ġens": 1186,
      "ĠĠĠĠĠĠĠĠĠĠĠ": 1187,
      "old": 1188,
      "Ġsupport": 1189,
      "Ġcurrent": 1190,
      "Ġredu": 1191,
      "atures": 1192,
      "rol": 1193,
      "][": 1194,
      "Ġday": 1195,
      "Ġinvol": 1196,
      "'re": 1197,
      "sw": 1198,
      "any": 1199,
      "Ġreturn": 1200,
      "Ġenviron": 1201,
      "lu": 1202,
      "Ġproper": 1203,
      "Ġstud": 1204,
      "Ġreal": 1205,
      "It": 1206,
      "Ġ#": 1207,
      "Ġproject": 1208,
      "cul": 1209,
      "ĠUn": 1210,
      "Ġmuch": 1211,
      "Ġmaking": 1212,
      "Ġpartic": 1213,
      "Ġproble": 1214,
      "riend": 1215,
      "Ġcommand": 1216,
      "Ġmem": 1217,
      "Ġdon": 1218,
      "Ġenergy": 1219,
      "ertain": 1220,
      "Ġwrit": 1221,
      "Ġpotential": 1222,
      "Ġend": 1223,
      "Ġpat": 1224,
      "Ġ*": 1225,
      "Ġvis": 1226,
      "Ġimprove": 1227,
      "ident": 1228,
      "Ġconf": 1229,
      "Ġuser": 1230,
      "Ġbeh": 1231,
      "ĠThey": 1232,
      "ec": 1233,
      "ser": 1234,
      "ote": 1235,
      "'m": 1236,
      "conom": 1237,
      "lic": 1238,
      "Ġcle": 1239,
      "iss": 1240,
      "Ġdevelopment": 1241,
      "ution": 1242,
      "Ġself": 1243,
      "Ġ}": 1244,
      "etter": 1245,
      "other": 1246,
      "vices": 1247,
      "ability": 1248,
      "ier": 1249,
      "ĠWhat": 1250,
      "Ġtype": 1251,
      "Ġequ": 1252,
      "inu": 1253,
      "Ġaround": 1254,
      "ately": 1255,
      "Ġdisc": 1256,
      "Ġright": 1257,
      "arm": 1258,
      "Ġconst": 1259,
      "Ġ10": 1260,
      "comm": 1261,
      "Ġoper": 1262,
      "Ġbre": 1263,
      "ividual": 1264,
      "indow": 1265,
      "Ġbefore": 1266,
      "ĠPro": 1267,
      "hy": 1268,
      "Ġpur": 1269,
      "Ġ19": 1270,
      "Ġfiel": 1271,
      "hed": 1272,
      "ets": 1273,
      "Ġaccess": 1274,
      "Ġcomputer": 1275,
      "Ġconsider": 1276,
      "resent": 1277,
      "dit": 1278,
      "Ġtem": 1279,
      "Ġmight": 1280,
      "Ġread": 1281,
      "Ġfeel": 1282,
      "ext": 1283,
      "Ġ8": 1284,
      "Ġ$": 1285,
      "Ġmean": 1286,
      "ĠĠĠĠĠ": 1287,
      "Ġtraining": 1288,
      "Ġbo": 1289,
      "Ġdirect": 1290,
      "Ġconnect": 1291,
      "Ġwithout": 1292,
      "Ġindividual": 1293,
      "Ġbelie": 1294,
      "ocus": 1295,
      "aw": 1296,
      "Ġsystems": 1297,
      "Ġsure": 1298,
      "20": 1299,
      "Ġ.": 1300,
      "ĠPython": 1301,
      "Ġve": 1302,
      "Ġstate": 1303,
      "Ġmade": 1304,
      "Ġwrite": 1305,
      "gin": 1306,
      "erest": 1307,
      "Ġmark": 1308,
      "Ġlo": 1309,
      "Ġsom": 1310,
      "Ġprot": 1311,
      "Ġsever": 1312,
      "Ġproduct": 1313,
      "Ġele": 1314,
      "Ġnetw": 1315,
      "Ġmach": 1316,
      "Ġansw": 1317,
      "Ġbetter": 1318,
      "ational": 1319,
      "oid": 1320,
      "Ġsoftware": 1321,
      "Ġenvironment": 1322,
      "Ġexist": 1323,
      "Ġhere": 1324,
      "Ġcontain": 1325,
      "Ġi": 1326,
      "Sure": 1327,
      "Ġcommon": 1328,
      "This": 1329,
      "Ġmet": 1330,
      "mer": 1331,
      "Ġhard": 1332,
      "Ġmulti": 1333,
      "~~": 1334,
      "itive": 1335,
      "Ġmon": 1336,
      "ead": 1337,
      "ĠCon": 1338,
      "Ġchang": 1339,
      "Ġsignific": 1340,
      "Ġed": 1341,
      "Ġinterest": 1342,
      "Can": 1343,
      "Ġsimple": 1344,
      "Ġbas": 1345,
      "Ġgive": 1346,
      "Ġchall": 1347,
      "Ġseveral": 1348,
      "to": 1349,
      "essage": 1350,
      "Ġimpact": 1351,
      "air": 1352,
      "ren": 1353,
      "Ġeconom": 1354,
      "sc": 1355,
      "ĠAn": 1356,
      "Ġable": 1357,
      "Ġsteps": 1358,
      "uc": 1359,
      "Ġcult": 1360,
      ".\"": 1361,
      "=\"": 1362,
      "ĠEx": 1363,
      "ually": 1364,
      "Ġlay": 1365,
      "(\"": 1366,
      "Ġmus": 1367,
      "Ġhapp": 1368,
      "Ġstill": 1369,
      "Ġscript": 1370,
      "St": 1371,
      "Ġtool": 1372,
      "ars": 1373,
      "ĠOpen": 1374,
      "ique": 1375,
      "Âł": 1376,
      "name": 1377,
      "Ġlim": 1378,
      "__": 1379,
      "plement": 1380,
      "yle": 1381,
      "Ġcontrol": 1382,
      "Ġbecause": 1383,
      "atch": 1384,
      "Ġsum": 1385,
      "Ġrange": 1386,
      "ames": 1387,
      "ton": 1388,
      "Ġpass": 1389,
      "Ġquestions": 1390,
      "ave": 1391,
      "bo": 1392,
      "Ġkeep": 1393,
      "ense": 1394,
      "Ġtasks": 1395,
      "tt": 1396,
      "ner": 1397,
      "ĠAs": 1398,
      "ix": 1399,
      "Ġphys": 1400,
      "Ġcent": 1401,
      "ock": 1402,
      "vice": 1403,
      "Ġgrow": 1404,
      "Ġfood": 1405,
      "##": 1406,
      "ream": 1407,
      "Ġmove": 1408,
      "Ġduring": 1409,
      "ibr": 1410,
      "âĢĻ": 1411,
      "Ġstruct": 1412,
      "Ġel": 1413,
      "Ġprogramming": 1414,
      "pro": 1415,
      "Ġcharacter": 1416,
      "Ġoutput": 1417,
      "cing": 1418,
      "Ġpract": 1419,
      "--------": 1420,
      "Ġstory": 1421,
      "Ġensure": 1422,
      "You": 1423,
      "day": 1424,
      "Ġcap": 1425,
      "Ġfam": 1426,
      "bers": 1427,
      "imes": 1428,
      "Ġprof": 1429,
      "ci": 1430,
      "Ġvery": 1431,
      "Ġimage": 1432,
      "ustom": 1433,
      "Ġsignificant": 1434,
      "ator": 1435,
      "arth": 1436,
      "ĠTo": 1437,
      "Ġconcept": 1438,
      "ĠThese": 1439,
      "ray": 1440,
      "Ġlevel": 1441,
      "ven": 1442,
      "ince": 1443,
      "ills": 1444,
      "Ġeffic": 1445,
      "tle": 1446,
      "Ġfound": 1447,
      "Ġmov": 1448,
      "ases": 1449,
      "Ġrese": 1450,
      "Ġexplain": 1451,
      "ething": 1452,
      "ger": 1453,
      "Ġsame": 1454,
      "Ġpri": 1455,
      "Ġmust": 1456,
      "Ġx": 1457,
      "Ġfocus": 1458,
      "Ġsocial": 1459,
      "verse": 1460,
      "Ġbr": 1461,
      "Ġgreat": 1462,
      "ument": 1463,
      "ior": 1464,
      "li": 1465,
      "ash": 1466,
      "ggest": 1467,
      "^^": 1468,
      "As": 1469,
      "iness": 1470,
      "ways": 1471,
      "Ġfriend": 1472,
      "Ġagain": 1473,
      "ata": 1474,
      "ention": 1475,
      "Ġexperience": 1476,
      "ilities": 1477,
      "here": 1478,
      "Ġless": 1479,
      "ted": 1480,
      "til": 1481,
      "ists": 1482,
      "Ġresources": 1483,
      "oice": 1484,
      "Ġbi": 1485,
      "ries": 1486,
      "ared": 1487,
      "If": 1488,
      "Ġsuggest": 1489,
      "ĠRe": 1490,
      "play": 1491,
      "Ġothers": 1492,
      "po": 1493,
      "ale": 1494,
      "ĠDe": 1495,
      "Ġz": 1496,
      "Ġsw": 1497,
      "Ġorder": 1498,
      "oss": 1499,
      "Ġafter": 1500,
      "iven": 1501,
      "aterial": 1502,
      "Ġtoo": 1503,
      "Ġwebs": 1504,
      "',": 1505,
      "Ġer": 1506,
      "ĠSome": 1507,
      "Ġair": 1508,
      "Ġavail": 1509,
      "Ġunderstanding": 1510,
      "yn": 1511,
      "val": 1512,
      "Ġfactors": 1513,
      "Ġblo": 1514,
      "ull": 1515,
      "Ġpersonal": 1516,
      "Ġorgan": 1517,
      "Ġcalled": 1518,
      "uture": 1519,
      "ivity": 1520,
      "Ġmachine": 1521,
      "icult": 1522,
      "Ġneeds": 1523,
      "ÂłÂł": 1524,
      "ank": 1525,
      "view": 1526,
      "Ġamount": 1527,
      "antum": 1528,
      "Ġanswer": 1529,
      "ooking": 1530,
      "Ġiss": 1531,
      "ava": 1532,
      "thing": 1533,
      "ĠAl": 1534,
      "'ll": 1535,
      "oose": 1536,
      "commend": 1537,
      "Ġwid": 1538,
      "Ġfree": 1539,
      "Ġplace": 1540,
      "11": 1541,
      "Ġthough": 1542,
      "Ġ7": 1543,
      "Ġvarious": 1544,
      "Ġsomething": 1545,
      "ror": 1546,
      "Ġhim": 1547,
      "There": 1548,
      "000": 1549,
      "Ġmodels": 1550,
      "Ġthose": 1551,
      "Ġfeatures": 1552,
      "ined": 1553,
      "Ġperformance": 1554,
      "nces": 1555,
      "ross": 1556,
      "Ġvide": 1557,
      "Ġtest": 1558,
      "Ġchange": 1559,
      "Ġhistory": 1560,
      "Ġchalleng": 1561,
      "Ġter": 1562,
      "ublic": 1563,
      "Ġdeterm": 1564,
      "Ġrecommend": 1565,
      "ral": 1566,
      "Ġvers": 1567,
      "Ġimplement": 1568,
      "ee": 1569,
      "atural": 1570,
      "Ġthings": 1571,
      "Ġanal": 1572,
      "Ġbehav": 1573,
      "atform": 1574,
      "Ġsit": 1575,
      "ĠCom": 1576,
      "âĸ": 1577,
      "ins": 1578,
      "Ġline": 1579,
      "ants": 1580,
      "Ġdifficult": 1581,
      "Ġaddition": 1582,
      "Ġenc": 1583,
      "Ġquestion": 1584,
      "Ġris": 1585,
      "Ġcomb": 1586,
      "Ġshow": 1587,
      "inal": 1588,
      "Ġinc": 1589,
      "ĠThere": 1590,
      "Ġinstall": 1591,
      "Ġcell": 1592,
      "Ġrest": 1593,
      "Ġgrou": 1594,
      "Ġworks": 1595,
      "Ġfuture": 1596,
      "uss": 1597,
      "Ġyears": 1598,
      "ling": 1599,
      "Ġuses": 1600,
      "ope": 1601,
      "Ġalways": 1602,
      "ĠUse": 1603,
      "Ġcolor": 1604,
      "Ġinflu": 1605,
      "Ġcustom": 1606,
      "els": 1607,
      "ables": 1608,
      "Ġarg": 1609,
      "onse": 1610,
      "Ġgeneral": 1611,
      "de": 1612,
      "ĠAr": 1613,
      "Ġalgorithm": 1614,
      "aster": 1615,
      "Ġelect": 1616,
      "io": 1617,
      "kely": 1618,
      "ĠWe": 1619,
      "Ġstrong": 1620,
      "Ġtechnology": 1621,
      "chan": 1622,
      "chie": 1623,
      "hile": 1624,
      "ering": 1625,
      "ilar": 1626,
      "Ġgre": 1627,
      "ateg": 1628,
      "Ġnetwork": 1629,
      "Ġport": 1630,
      "ication": 1631,
      "Ġben": 1632,
      "ape": 1633,
      "lish": 1634,
      "rame": 1635,
      "reate": 1636,
      "hemat": 1637,
      "orld": 1638,
      "Ġavailable": 1639,
      "not": 1640,
      "Ġsuc": 1641,
      "uck": 1642,
      "ination": 1643,
      "Ġskills": 1644,
      "Ġsaf": 1645,
      "rect": 1646,
      "orm": 1647,
      "Ġunique": 1648,
      "Ġdem": 1649,
      "Ġachie": 1650,
      "ĠCan": 1651,
      "âĶĢâĶĢâĶĢâĶĢ": 1652,
      "Ġfield": 1653,
      "cle": 1654,
      "Ġcontribut": 1655,
      "Ġways": 1656,
      "curity": 1657,
      "less": 1658,
      "Ġcr": 1659,
      "Ġnow": 1660,
      "anced": 1661,
      "ery": 1662,
      "://": 1663,
      "</": 1664,
      "usion": 1665,
      "raph": 1666,
      "Ġmeans": 1667,
      "Ġprint": 1668,
      "face": 1669,
      "Ġmaterial": 1670,
      "ired": 1671,
      "par": 1672,
      "Ġcare": 1673,
      "Ġbody": 1674,
      "Ġspace": 1675,
      "Ġidea": 1676,
      "Ġcertain": 1677,
      "Ġdri": 1678,
      "Ġplatform": 1679,
      "Ġallows": 1680,
      "Ġcalcul": 1681,
      "amp": 1682,
      "Ġpattern": 1683,
      "Ġlibr": 1684,
      "ilos": 1685,
      "Ġinteract": 1686,
      "ital": 1687,
      "aut": 1688,
      "Ġtell": 1689,
      "Ġinteg": 1690,
      "Ġwriting": 1691,
      "Ġresearch": 1692,
      "ified": 1693,
      "ilosop": 1694,
      "ew": 1695,
      "ug": 1696,
      "Ġmag": 1697,
      "Ġapplications": 1698,
      "Ġsent": 1699,
      "Ġcheck": 1700,
      "xim": 1701,
      "Ġshort": 1702,
      "ellig": 1703,
      "Ġquick": 1704,
      "Ġrelations": 1705,
      "Ġpack": 1706,
      "Ġhy": 1707,
      "Ġuni": 1708,
      "Ġlanguages": 1709,
      "Ġchanges": 1710,
      "aking": 1711,
      "Ġcause": 1712,
      "vern": 1713,
      "Ġsize": 1714,
      "Ġvalues": 1715,
      "Ġmultiple": 1716,
      "Ġask": 1717,
      "Ġconc": 1718,
      "inux": 1719,
      "PI": 1720,
      "co": 1721,
      "Ġtheory": 1722,
      "ories": 1723,
      "Ġcontent": 1724,
      "Ġcost": 1725,
      "import": 1726,
      "rag": 1727,
      "Ġserver": 1728,
      "crib": 1729,
      "Ġmessage": 1730,
      "Ġinvest": 1731,
      "ĠTh": 1732,
      "Ġuntil": 1733,
      "Ġest": 1734,
      "ello": 1735,
      "Ġcontin": 1736,
      "raft": 1737,
      "Ġview": 1738,
      "Ġfre": 1739,
      "ems": 1740,
      "Ġmeas": 1741,
      "aces": 1742,
      "ledge": 1743,
      "Ġmarket": 1744,
      "Ġprotect": 1745,
      "ox": 1746,
      "uro": 1747,
      "Ġstand": 1748,
      "Ġprompt": 1749,
      "az": 1750,
      "amed": 1751,
      "Ġleg": 1752,
      "Ġwords": 1753,
      "Ġ/": 1754,
      "Ġbecome": 1755,
      "))": 1756,
      "Ġaw": 1757,
      "Ġstre": 1758,
      "load": 1759,
      "quen": 1760,
      "ats": 1761,
      "rodu": 1762,
      "Ġusers": 1763,
      "Ġrole": 1764,
      "Ġsimilar": 1765,
      "Ex": 1766,
      "Th": 1767,
      "Ġsl": 1768,
      "Ġnecess": 1769,
      "Ġnatural": 1770,
      "ember": 1771,
      "Ġgoals": 1772,
      "ision": 1773,
      "Ġdel": 1774,
      "Ġstore": 1775,
      "ume": 1776,
      "ken": 1777,
      "und": 1778,
      "Ġwhy": 1779,
      "py": 1780,
      "ĠQ": 1781,
      "utes": 1782,
      "ances": 1783,
      "ason": 1784,
      "Ġconsidered": 1785,
      "ires": 1786,
      "Ġsource": 1787,
      "Ġtypes": 1788,
      "Ġgenerate": 1789,
      "Ġwebsite": 1790,
      "Ġrelationship": 1791,
      "\".": 1792,
      "Hello": 1793,
      "Ġident": 1794,
      "Ġbus": 1795,
      "ĠSh": 1796,
      "ĠPl": 1797,
      "Ġsoci": 1798,
      "Ġphilosop": 1799,
      "pos": 1800,
      "sh": 1801,
      "Ġpolit": 1802,
      "Ġsuccess": 1803,
      "Ġcase": 1804,
      "Ġlog": 1805,
      "ogn": 1806,
      "ĠGo": 1807,
      "Ġmaintain": 1808,
      "ute": 1809,
      "ffect": 1810,
      "arget": 1811,
      "ĠSp": 1812,
      "Ġquantum": 1813,
      "Ġess": 1814,
      "Ġlit": 1815,
      "Ġlow": 1816,
      "Ġanim": 1817,
      "Ġmechan": 1818,
      "Ġexamples": 1819,
      "Ġfiles": 1820,
      "Ġstructure": 1821,
      "Ġlook": 1822,
      "Ġnote": 1823,
      "Ġmathemat": 1824,
      "Ġreduce": 1825,
      "Ġparticular": 1826,
      "ttps": 1827,
      "Ġsing": 1828,
      "Ġwar": 1829,
      "Ġdog": 1830,
      "Ġengine": 1831,
      "Ġmind": 1832,
      "amet": 1833,
      "Ġbegin": 1834,
      "Ġcompon": 1835,
      "Ġteam": 1836,
      "Ġprevent": 1837,
      "Ġbenef": 1838,
      "PT": 1839,
      "Ġyourself": 1840,
      "Ġoptim": 1841,
      "place": 1842,
      "Ġrequest": 1843,
      "Ġrespons": 1844,
      "\":": 1845,
      "ipe": 1846,
      "ploy": 1847,
      "Ġscen": 1848,
      "Ġlikely": 1849,
      "Ġspeed": 1850,
      "Ġproblem": 1851,
      "Ġclear": 1852,
      "Ġbehavior": 1853,
      "Ġdid": 1854,
      "irt": 1855,
      "Ġstrateg": 1856,
      "Ġtemper": 1857,
      "app": 1858,
      "iting": 1859,
      "Ġoc": 1860,
      "Ġability": 1861,
      "Ġservices": 1862,
      "Ġthink": 1863,
      "Ġanother": 1864,
      "Ġdeep": 1865,
      "Ġdesigned": 1866,
      "Ġmeaning": 1867,
      "Ġthree": 1868,
      "Ġeasy": 1869,
      "Ġchild": 1870,
      "Ġcontext": 1871,
      "âĢ¢": 1872,
      "Ġexperien": 1873,
      "Ġplease": 1874,
      "ulation": 1875,
      "cond": 1876,
      "Ġapplication": 1877,
      "Ġeffective": 1878,
      "pr": 1879,
      "Ġdue": 1880,
      "ĠEng": 1881,
      "ches": 1882,
      "ouse": 1883,
      "Ġgiven": 1884,
      "Ġknowledge": 1885,
      "Ġdig": 1886,
      "Ġcompany": 1887,
      "Ġpref": 1888,
      "Ġprovides": 1889,
      "12": 1890,
      "pre": 1891,
      "cho": 1892,
      "Ġnumbers": 1893,
      "omet": 1894,
      "idd": 1895,
      "Ġideas": 1896,
      "word": 1897,
      "Ġmo": 1898,
      "Ġland": 1899,
      "Ġscient": 1900,
      "ological": 1901,
      "Ġresponse": 1902,
      "pose": 1903,
      "atic": 1904,
      "Ġsun": 1905,
      "iving": 1906,
      "Ġcreating": 1907,
      "hor": 1908,
      "Ġsong": 1909,
      "imate": 1910,
      "ample": 1911,
      "Ġappe": 1912,
      "Ġtools": 1913,
      "land": 1914,
      "Ġonline": 1915,
      "urther": 1916,
      "Ġweight": 1917,
      "leep": 1918,
      "Ġstyle": 1919,
      "ression": 1920,
      "Ġintern": 1921,
      "Ġbasic": 1922,
      "Ġprofess": 1923,
      "\")": 1924,
      "Ġtre": 1925,
      "Ġdoc": 1926,
      "Ġrele": 1927,
      "ĠAss": 1928,
      "Ġes": 1929,
      "Ġbat": 1930,
      "ours": 1931,
      "ĠLinux": 1932,
      "Write": 1933,
      "Ġ**": 1934,
      "Ġear": 1935,
      "Ġnon": 1936,
      "Ġhumans": 1937,
      "Ġregular": 1938,
      "Ġdistribut": 1939,
      "ditions": 1940,
      "elligence": 1941,
      "Ġtri": 1942,
      "Ġhig": 1943,
      "Ġorig": 1944,
      "Ġlocal": 1945,
      "Ġmor": 1946,
      "ĠEarth": 1947,
      "Ġtravel": 1948,
      "just": 1949,
      "rid": 1950,
      "izing": 1951,
      "Ġsomeone": 1952,
      "ĠShe": 1953,
      "Ġrepresent": 1954,
      "Ġsumm": 1955,
      "Ġterm": 1956,
      "Ġcard": 1957,
      "Ġpa": 1958,
      "Ġjob": 1959,
      "Ġtakes": 1960,
      "Ġsets": 1961,
      "ium": 1962,
      "vant": 1963,
      "Ġsay": 1964,
      "Ġcaus": 1965,
      "Ġhome": 1966,
      "Ġlaw": 1967,
      "Ġnext": 1968,
      "iled": 1969,
      "ĠJava": 1970,
      "por": 1971,
      "itor": 1972,
      "Ġpublic": 1973,
      "Ġpowerful": 1974,
      "Ġblock": 1975,
      "back": 1976,
      "ots": 1977,
      "Ġarea": 1978,
      "Ġbuilding": 1979,
      "Ġcorrect": 1980,
      "dict": 1981,
      "Ġmil": 1982,
      "ditionally": 1983,
      "Ġpoints": 1984,
      "Ġ//": 1985,
      "Ġtarget": 1986,
      "Ġsince": 1987,
      "Ġlab": 1988,
      "Ġenough": 1989,
      "ips": 1990,
      "Ġvariety": 1991,
      "date": 1992,
      "ĠSc": 1993,
      "Ġgovern": 1994,
      "ĠUS": 1995,
      "Ġeconomic": 1996,
      "Ġwithin": 1997,
      "Ġstudy": 1998,
      "vert": 1999,
      "Ġsecurity": 2000,
      "ording": 2001,
      ",\"": 2002,
      "au": 2003,
      "ww": 2004,
      "ctor": 2005,
      "Ġminutes": 2006,
      "Ġsqu": 2007,
      "ĠSe": 2008,
      "Ġsym": 2009,
      "Ġtask": 2010,
      "Ġhead": 2011,
      "ĠEn": 2012,
      "Ġgoal": 2013,
      "Ġremain": 2014,
      "Ġtoget": 2015,
      "raw": 2016,
      "Ġtogether": 2017,
      "lex": 2018,
      "icro": 2019,
      "Ġvol": 2020,
      "Ġexplore": 2021,
      "ooks": 2022,
      "the": 2023,
      "19": 2024,
      "AI": 2025,
      "Ġsound": 2026,
      "olution": 2027,
      "path": 2028,
      "Ġelse": 2029,
      "Ġterms": 2030,
      "Ġnecessary": 2031,
      "Ġ9": 2032,
      "alk": 2033,
      "Ġmakes": 2034,
      "Ġcreated": 2035,
      "Ġevent": 2036,
      "Ġdescrib": 2037,
      "ength": 2038,
      "Ġautom": 2039,
      "Ġpain": 2040,
      "Ġpress": 2041,
      "Ġmanage": 2042,
      "Ġspecial": 2043,
      "Ġmemory": 2044,
      "Ġphysical": 2045,
      "23": 2046,
      "ctions": 2047,
      "meric": 2048,
      "Ġefficient": 2049,
      "For": 2050,
      "ĠIm": 2051,
      "Ġproblems": 2052,
      "Ġmot": 2053,
      "ption": 2054,
      "Ġleft": 2055,
      "Ġavoid": 2056,
      "Ġvideo": 2057,
      "Ġsearch": 2058,
      "aging": 2059,
      "ibility": 2060,
      "iques": 2061,
      "Ġinvolves": 2062,
      "board": 2063,
      "âĸĪ": 2064,
      "Over": 2065,
      "Ġdr": 2066,
      "Ġbrain": 2067,
      "ules": 2068,
      "ert": 2069,
      "Ġlove": 2070,
      "orth": 2071,
      "Ġhelps": 2072,
      "Ġrad": 2073,
      "Ġobjects": 2074,
      "joy": 2075,
      "ml": 2076,
      "Ġturn": 2077,
      "ails": 2078,
      "ĠX": 2079,
      "We": 2080,
      "Ġnamed": 2081,
      "Ġcannot": 2082,
      "ung": 2083,
      "Ġquality": 2084,
      "Ġrunning": 2085,
      "Ġbusiness": 2086,
      "Ġside": 2087,
      "Ġsense": 2088,
      "Ġlooking": 2089,
      "vious": 2090,
      "Ġfast": 2091,
      "istic": 2092,
      "Ġtechniques": 2093,
      "Ġ\\": 2094,
      "Ġaud": 2095,
      "Ġmass": 2096,
      "let": 2097,
      "ĠĠĠĠčĊ": 2098,
      "Ġareas": 2099,
      "Ġdepending": 2100,
      "Ġet": 2101,
      "ĠDo": 2102,
      "ffic": 2103,
      "ĠUnited": 2104,
      "Ġagainst": 2105,
      "by": 2106,
      "ann": 2107,
      "idence": 2108,
      "ĠMake": 2109,
      "Ġcharacters": 2110,
      "Ġattack": 2111,
      "Ġloop": 2112,
      "js": 2113,
      "ule": 2114,
      "ently": 2115,
      "ĠIs": 2116,
      "Please": 2117,
      "Wh": 2118,
      "Ġsal": 2119,
      "Ġplayers": 2120,
      "('": 2121,
      "Ġfore": 2122,
      "Ġchoice": 2123,
      "text": 2124,
      "Ġcome": 2125,
      "Ġposition": 2126,
      "Ġissues": 2127,
      "oh": 2128,
      "ĠZ": 2129,
      "izes": 2130,
      "Ġsubject": 2131,
      "Ġincrease": 2132,
      "pri": 2133,
      "inter": 2134,
      "erc": 2135,
      "verage": 2136,
      "ĠAPI": 2137,
      "Ġgroup": 2138,
      "],": 2139,
      "Ġcapt": 2140,
      "Ġframe": 2141,
      "Ġbal": 2142,
      "roll": 2143,
      "Ġhope": 2144,
      "Yes": 2145,
      "Ġbot": 2146,
      "Ġscience": 2147,
      "ER": 2148,
      "ML": 2149,
      "Ġbro": 2150,
      "ĠCreate": 2151,
      "Ġimm": 2152,
      "Ġaddress": 2153,
      "indows": 2154,
      "Ġfamily": 2155,
      "lab": 2156,
      "Ġold": 2157,
      "Ġtoday": 2158,
      "Ġadjust": 2159,
      "ysis": 2160,
      "An": 2161,
      "Ġaffect": 2162,
      "Ġbook": 2163,
      "ĠAnd": 2164,
      "Ġanything": 2165,
      "Ġpath": 2166,
      "Ġmethods": 2167,
      "asing": 2168,
      "oci": 2169,
      "Ġindust": 2170,
      "Ġsingle": 2171,
      "'ve": 2172,
      "ancial": 2173,
      "add": 2174,
      "Ġchoose": 2175,
      "Ġneeded": 2176,
      "Ġquickly": 2177,
      "be": 2178,
      "ĠâĢ": 2179,
      "Ġfall": 2180,
      "aries": 2181,
      "ental": 2182,
      "ogle": 2183,
      "oney": 2184,
      "Ġcommunity": 2185,
      "Ġlibrary": 2186,
      "ration": 2187,
      "uation": 2188,
      "Ġtimes": 2189,
      "ane": 2190,
      "ury": 2191,
      "Ġmodern": 2192,
      "acy": 2193,
      "Ġelements": 2194,
      "urope": 2195,
      "Ġpie": 2196,
      "Ġhaving": 2197,
      "Ġachieve": 2198,
      "Ġscre": 2199,
      "sy": 2200,
      "time": 2201,
      "ĠAmeric": 2202,
      "Ġinstead": 2203,
      "Ġaction": 2204,
      "Ġey": 2205,
      "ird": 2206,
      "ditional": 2207,
      "Ġresults": 2208,
      "Ġcountry": 2209,
      "Ġindividuals": 2210,
      "fort": 2211,
      "ze": 2212,
      "Ġintelligence": 2213,
      "...": 2214,
      "Ġtypically": 2215,
      "Ġapproach": 2216,
      "Ġ_": 2217,
      "Ġ][": 2218,
      "esp": 2219,
      "oms": 2220,
      "ĠWhen": 2221,
      "ĠAdd": 2222,
      "Ġpriv": 2223,
      "based": 2224,
      "ises": 2225,
      "Ġwide": 2226,
      "Ġchallenges": 2227,
      "Ġversion": 2228,
      "Ġfurther": 2229,
      "aring": 2230,
      "Ġjo": 2231,
      "Ġadvant": 2232,
      "Ġoptions": 2233,
      "Ġmusic": 2234,
      "Ġworking": 2235,
      "ube": 2236,
      "Ġeasier": 2237,
      "Overall": 2238,
      "ah": 2239,
      "of": 2240,
      "istance": 2241,
      "Ġsecond": 2242,
      "Ġtrack": 2243,
      "ients": 2244,
      "Ġtrue": 2245,
      "PU": 2246,
      "come": 2247,
      "light": 2248,
      "Ġstring": 2249,
      "Ġadvanced": 2250,
      "Ġsociety": 2251,
      "LE": 2252,
      "Ġproduce": 2253,
      "new": 2254,
      "ngth": 2255,
      "Ġmar": 2256,
      "Ġconditions": 2257,
      "Ġsuper": 2258,
      "illion": 2259,
      "Ġincludes": 2260,
      "Ġhighly": 2261,
      "Ġlayer": 2262,
      "Ġadditional": 2263,
      "Con": 2264,
      "me": 2265,
      "ask": 2266,
      "Ġlast": 2267,
      "Ġactiv": 2268,
      "wards": 2269,
      "ground": 2270,
      "oot": 2271,
      "ties": 2272,
      "Ġcir": 2273,
      "Ġexec": 2274,
      "cket": 2275,
      "Ġgraph": 2276,
      "Ġfriends": 2277,
      "Ġsens": 2278,
      "Ġcrit": 2279,
      "orn": 2280,
      "umn": 2281,
      "Ġprogress": 2282,
      "ĠAssistant": 2283,
      "Ġeth": 2284,
      "Ġnature": 2285,
      "Ġexc": 2286,
      "Ġcolle": 2287,
      "Ġoffer": 2288,
      "Ġfunctions": 2289,
      "Ġalgorithms": 2290,
      "OS": 2291,
      "Ġgl": 2292,
      "ĠWorld": 2293,
      "ension": 2294,
      "Ġpolic": 2295,
      "def": 2296,
      "Ġkind": 2297,
      "Ġrecogn": 2298,
      "ĠAdditionally": 2299,
      "Ġtemperature": 2300,
      "JJ": 2301,
      "oun": 2302,
      "Ġpres": 2303,
      "ides": 2304,
      "erence": 2305,
      "Ġneg": 2306,
      "Ġclean": 2307,
      "side": 2308,
      "Ġrece": 2309,
      "ender": 2310,
      "Ġplayer": 2311,
      "Ġfinancial": 2312,
      "Ġoccur": 2313,
      "ON": 2314,
      "QL": 2315,
      "Ġcity": 2316,
      "Ġpast": 2317,
      "Ġfar": 2318,
      "Ġgain": 2319,
      "ĠGod": 2320,
      "Ġprin": 2321,
      "++": 2322,
      "Ġpresent": 2323,
      "Ġgen": 2324,
      "rand": 2325,
      "Ġdistance": 2326,
      "And": 2327,
      "Ġcy": 2328,
      "Ġful": 2329,
      "Ġharm": 2330,
      "une": 2331,
      "Ġdeb": 2332,
      "ĠEurope": 2333,
      "Ġrisk": 2334,
      "Ġcells": 2335,
      "Ġuniverse": 2336,
      "Ġpolitical": 2337,
      "over": 2338,
      "Ġcall": 2339,
      "Ġaway": 2340,
      "Pro": 2341,
      "inally": 2342,
      "Ġdone": 2343,
      "Ġword": 2344,
      "Ġattention": 2345,
      "ht": 2346,
      "iod": 2347,
      "Ġconvers": 2348,
      "ĠChe": 2349,
      "Ġassoci": 2350,
      "Ġtrained": 2351,
      "Ġdetermine": 2352,
      "Ġtable": 2353,
      "ites": 2354,
      "Ġinit": 2355,
      "Ġdark": 2356,
      "lying": 2357,
      "Ġvirt": 2358,
      "ĠDis": 2359,
      "Ġparts": 2360,
      "Ġmedia": 2361,
      "So": 2362,
      "bal": 2363,
      "nov": 2364,
      "Ġstat": 2365,
      "ived": 2366,
      "epend": 2367,
      "ĠInst": 2368,
      "Ġrequires": 2369,
      "Ġblue": 2370,
      "Ġdirectory": 2371,
      "Ġexpect": 2372,
      "ĠMy": 2373,
      "Ġenjoy": 2374,
      "Ġminim": 2375,
      "my": 2376,
      "set": 2377,
      "Ġsort": 2378,
      "Ġsleep": 2379,
      "ush": 2380,
      "Ġvalid": 2381,
      "Ch": 2382,
      "col": 2383,
      "we": 2384,
      "Ġgr": 2385,
      "Ġimages": 2386,
      "rypt": 2387,
      "gest": 2388,
      "Ġâ": 2389,
      "ĠWhile": 2390,
      "Ġaccount": 2391,
      "AM": 2392,
      "Ġflow": 2393,
      "ilt": 2394,
      "ĠĠĠĠĠĠ": 2395,
      "erences": 2396,
      "ĠBe": 2397,
      "Ġgames": 2398,
      "Ġstop": 2399,
      "Ġprevious": 2400,
      "Ġlimit": 2401,
      "15": 2402,
      "Ad": 2403,
      "cious": 2404,
      "craft": 2405,
      "Ġfeed": 2406,
      "Ġstarted": 2407,
      "Ġleading": 2408,
      "che": 2409,
      "cient": 2410,
      "man": 2411,
      "ystem": 2412,
      "ished": 2413,
      "iment": 2414,
      "utions": 2415,
      "Ġdevices": 2416,
      "Ġrout": 2417,
      "Ġevents": 2418,
      "Ġmatter": 2419,
      "Ġstandard": 2420,
      "head": 2421,
      "ones": 2422,
      "Ġglo": 2423,
      "Ġdetect": 2424,
      "Ġproducts": 2425,
      "Ġgrowth": 2426,
      "Ġprofessional": 2427,
      "yr": 2428,
      "Ġfac": 2429,
      "ĠStates": 2430,
      "num": 2431,
      "Ġut": 2432,
      "ĠHT": 2433,
      "pportun": 2434,
      "Ġcountries": 2435,
      "ese": 2436,
      "alking": 2437,
      "ivil": 2438,
      "Ġpredict": 2439,
      "Ġdocument": 2440,
      "data": 2441,
      "work": 2442,
      "Ġcour": 2443,
      "ĠChat": 2444,
      "Ġnever": 2445,
      "iency": 2446,
      "Ġtrying": 2447,
      "Ġpurpose": 2448,
      "Ġhigher": 2449,
      ":**": 2450,
      "One": 2451,
      "bs": 2452,
      "Ġ:": 2453,
      "str": 2454,
      "Ġconse": 2455,
      "Ġrob": 2456,
      "ero": 2457,
      "Ġyoung": 2458,
      "Ġstay": 2459,
      "pecial": 2460,
      "Ġclos": 2461,
      "Ġarch": 2462,
      "Ġconsist": 2463,
      "akes": 2464,
      "Ġparamet": 2465,
      "Ġ&": 2466,
      "ining": 2467,
      "orks": 2468,
      "icate": 2469,
      "Ġlot": 2470,
      "Ġleast": 2471,
      "Ġshare": 2472,
      "These": 2473,
      "Ġmaterials": 2474,
      "ik": 2475,
      "jor": 2476,
      "Ġslow": 2477,
      "Ġmoney": 2478,
      "ulate": 2479,
      "Ġcompet": 2480,
      "~~~~": 2481,
      "ift": 2482,
      "ĠEm": 2483,
      "ĠBy": 2484,
      "Ġseries": 2485,
      "55": 2486,
      "ius": 2487,
      "imately": 2488,
      "Ġexerc": 2489,
      "Ġvary": 2490,
      "ĠBut": 2491,
      "Ġadapt": 2492,
      "ificial": 2493,
      "Ġservice": 2494,
      "Ġdepends": 2495,
      "Ġrequirements": 2496,
      "Ġthought": 2497,
      "Ġessential": 2498,
      "Ġfig": 2499,
      "Ġ12": 2500,
      "Ġperiod": 2501,
      "??": 2502,
      "file": 2503,
      "Ġitems": 2504,
      "ĠSet": 2505,
      "Ġdatas": 2506,
      "Ġdatab": 2507,
      "chool": 2508,
      "Ġsources": 2509,
      "ised": 2510,
      "ency": 2511,
      "Ġpython": 2512,
      "ĠCl": 2513,
      "Ġabove": 2514,
      "SS": 2515,
      "ailed": 2516,
      "Ġrather": 2517,
      "Ġseen": 2518,
      "aves": 2519,
      "Ġconsum": 2520,
      "\">": 2521,
      "But": 2522,
      "from": 2523,
      "itle": 2524,
      "Ġneural": 2525,
      "Ġdoing": 2526,
      "Ġtraditional": 2527,
      "Ġpositive": 2528,
      "Ġformat": 2529,
      "ĠGoogle": 2530,
      "Ġbenefits": 2531,
      "cc": 2532,
      "oes": 2533,
      "Ġcop": 2534,
      "Ġreach": 2535,
      "Ġge": 2536,
      "ĠTr": 2537,
      "AT": 2538,
      "Ġwindow": 2539,
      "Ġopportun": 2540,
      "igate": 2541,
      "Ġaltern": 2542,
      "Ġpatterns": 2543,
      "Ġmeasure": 2544,
      "ek": 2545,
      "Ġopp": 2546,
      "Ġbrow": 2547,
      "Ġdam": 2548,
      "Ġ==": 2549,
      "Ġroom": 2550,
      "Ġevidence": 2551,
      "Ġemot": 2552,
      "Ġblack": 2553,
      "Ġanalysis": 2554,
      "eep": 2555,
      "rast": 2556,
      "oring": 2557,
      "rad": 2558,
      "plain": 2559,
      "Ġrules": 2560,
      "Ġproduction": 2561,
      "Ġhappen": 2562,
      "quences": 2563,
      "Ġcomponents": 2564,
      "Ġflo": 2565,
      "Ġball": 2566,
      "Ġlive": 2567,
      "Ġintrodu": 2568,
      "arent": 2569,
      "ney": 2570,
      "like": 2571,
      "bol": 2572,
      "ters": 2573,
      "key": 2574,
      "Ġuseful": 2575,
      "ints": 2576,
      "Ġoverall": 2577,
      "Ġtransform": 2578,
      "ohn": 2579,
      "dom": 2580,
      "Ġalong": 2581,
      "Ġwhether": 2582,
      "Ġcolors": 2583,
      "Ġemploy": 2584,
      "Ġregard": 2585,
      "Ġpaper": 2586,
      "GPT": 2587,
      "ault": 2588,
      "clusion": 2589,
      "Ġbreak": 2590,
      "Ġelement": 2591,
      "Ġcultural": 2592,
      "Script": 2593,
      "ait": 2594,
      "anks": 2595,
      "Ġdeveloped": 2596,
      "Ġvariable": 2597,
      "Ġface": 2598,
      "Ġroll": 2599,
      "Ġconscious": 2600,
      "Ġrelated": 2601,
      "Ġactive": 2602,
      "Ġconcepts": 2603,
      "Ġerror": 2604,
      "Ġwidely": 2605,
      "Ġprinci": 2606,
      "RE": 2607,
      "fact": 2608,
      "mit": 2609,
      "Ġpost": 2610,
      "Ġant": 2611,
      "ĠPh": 2612,
      "ograph": 2613,
      "Ġdisplay": 2614,
      "ensive": 2615,
      "Ġsmo": 2616,
      "Ġlocation": 2617,
      "Ġcommunication": 2618,
      "Ġprior": 2619,
      "Ġcontinue": 2620,
      "Ġlittle": 2621,
      "iel": 2622,
      "source": 2623,
      "Ġpan": 2624,
      "Ġoil": 2625,
      "roid": 2626,
      "Ġund": 2627,
      "Ġsynt": 2628,
      "Ġeffort": 2629,
      "ĠEnglish": 2630,
      "lict": 2631,
      "Ġtips": 2632,
      "Ġbig": 2633,
      "Ġaccur": 2634,
      "Ġ30": 2635,
      "Ġsaid": 2636,
      "Ġrequired": 2637,
      "Ġconcern": 2638,
      "Ġgovernment": 2639,
      "cies": 2640,
      "ators": 2641,
      "Ġhours": 2642,
      "anger": 2643,
      "Ġpractice": 2644,
      "Ġstrength": 2645,
      "ma": 2646,
      "ãģ": 2647,
      "Ġonce": 2648,
      "empt": 2649,
      "Ġgoing": 2650,
      "Ġperspect": 2651,
      "Ġstarting": 2652,
      "Ġprovided": 2653,
      "html": 2654,
      "sel": 2655,
      "Ġage": 2656,
      "Ġpage": 2657,
      "Ġdays": 2658,
      "aming": 2659,
      "ĠAp": 2660,
      "abilities": 2661,
      "Ġplants": 2662,
      "ĠĠĠĠĠĠĠĠĠĠĠĠĠĠĠĠĠĠĠĠĠĠĠĠĠĠĠĠĠĠĠĠ": 2663,
      "Ġbelief": 2664,
      "Ġassociated": 2665,
      "Im": 2666,
      "Ġwood": 2667,
      "erson": 2668,
      "ĠPlease": 2669,
      "Ġmajor": 2670,
      "Ġoption": 2671,
      "Ġinsp": 2672,
      "^^^^": 2673,
      "'d": 2674,
      "bon": 2675,
      "Ġmeet": 2676,
      "Ġacross": 2677,
      "aches": 2678,
      "Ġdescript": 2679,
      "Ġrand": 2680,
      "Ġdetails": 2681,
      "Ġbackground": 2682,
      "Ġproperties": 2683,
      "Ġboard": 2684,
      "Ġinfluence": 2685,
      "ura": 2686,
      "isions": 2687,
      "Ġwhite": 2688,
      "Ġcomputing": 2689,
      "Ġfields": 2690,
      "https": 2691,
      "Ġloss": 2692,
      "ĠWindows": 2693,
      "Ġcontinu": 2694,
      "Ġsmaller": 2695,
      "Ġhistor": 2696,
      "Ġidentify": 2697,
      "ians": 2698,
      "oad": 2699,
      "ply": 2700,
      "inking": 2701,
      "Ġschool": 2702,
      "itect": 2703,
      "Ġfit": 2704,
      "use": 2705,
      "Ġlower": 2706,
      "ĠInt": 2707,
      "Ġstates": 2708,
      "const": 2709,
      "ready": 2710,
      "AR": 2711,
      "python": 2712,
      "ĉĉ": 2713,
      "Ġcivil": 2714,
      "arc": 2715,
      "pper": 2716,
      "ager": 2717,
      "Ġactions": 2718,
      "priate": 2719,
      "Is": 2720,
      "bit": 2721,
      "son": 2722,
      "Ġreason": 2723,
      "ider": 2724,
      "Ġprob": 2725,
      "uments": 2726,
      "Ġtaking": 2727,
      "Ġgetting": 2728,
      "Ġproperty": 2729,
      "----------------": 2730,
      "Ġscientific": 2731,
      "Ġsummary": 2732,
      "Ġscreen": 2733,
      "ison": 2734,
      "Ġdate": 2735,
      "Ġdiv": 2736,
      "ĠWith": 2737,
      "ĠOnce": 2738,
      "Ġdifference": 2739,
      "Ġcollect": 2740,
      "Ġphot": 2741,
      "âĢĿ": 2742,
      "Ġoffers": 2743,
      "Ġprojects": 2744,
      "Ġefficiency": 2745,
      "list": 2746,
      "ping": 2747,
      "uild": 2748,
      "Ġaverage": 2749,
      "Ġlength": 2750,
      "Ġreview": 2751,
      "elt": 2752,
      "ĠSo": 2753,
      "Ġsequ": 2754,
      "Ġshape": 2755,
      "Ġcompan": 2756,
      "Ġexperiences": 2757,
      "Ġbar": 2758,
      "Ġbase": 2759,
      "Ġplant": 2760,
      "ĠNew": 2761,
      "Ġprograms": 2762,
      "Ġdefin": 2763,
      "Ġoperating": 2764,
      "Ġrelevant": 2765,
      "Ġpay": 2766,
      "omen": 2767,
      "Ġ100": 2768,
      "Ġcourse": 2769,
      "Ġput": 2770,
      "Ġinnov": 2771,
      "Ġdest": 2772,
      "ĠCons": 2773,
      "Ġabs": 2774,
      "Ġprim": 2775,
      "Ġprice": 2776,
      "Ġprocessing": 2777,
      "Ġthroughout": 2778,
      "Ġsurface": 2779,
      "Ġvirtual": 2780,
      "When": 2781,
      "tr": 2782,
      "ĠÐ": 2783,
      "Ġreact": 2784,
      "hers": 2785,
      "ĠĠĠĠĠĠĠĠĠĠĠĠĠĠĠ": 2786,
      "aving": 2787,
      "Ġcolumn": 2788,
      "Ġprocesses": 2789,
      "Ġexpress": 2790,
      "ĠHTML": 2791,
      "len": 2792,
      "log": 2793,
      "oud": 2794,
      "ologies": 2795,
      "Ġsolar": 2796,
      "ÂłÂłÂłÂł": 2797,
      "iddle": 2798,
      "Ġarchitect": 2799,
      "go": 2800,
      "tal": 2801,
      "itch": 2802,
      "Ġbed": 2803,
      "Ġla": 2804,
      "Ġground": 2805,
      "Ġaspect": 2806,
      "ula": 2807,
      "Ġancient": 2808,
      "Ġalready": 2809,
      "Ġrespect": 2810,
      "();": 2811,
      "Ġbelieve": 2812,
      "Ġlevels": 2813,
      "Ġcat": 2814,
      "Ġones": 2815,
      "ĠCol": 2816,
      "Ġ18": 2817,
      "Ġweather": 2818,
      "Ġinterpre": 2819,
      "Ġhealthy": 2820,
      "Ġespecial": 2821,
      "Ġearly": 2822,
      "Com": 2823,
      "He": 2824,
      "Why": 2825,
      "pm": 2826,
      "Ġid": 2827,
      "ids": 2828,
      "Ġbecom": 2829,
      "Ġmaxim": 2830,
      "ĠBl": 2831,
      "Ġdifferences": 2832,
      "Ġemail": 2833,
      "Ġdecision": 2834,
      "Ġappear": 2835,
      "30": 2836,
      "fect": 2837,
      "Ġcross": 2838,
      "Ġsuccessful": 2839,
      "Ġsend": 2840,
      "rop": 2841,
      "Ġforce": 2842,
      "Ġnear": 2843,
      "resh": 2844,
      "Ġarray": 2845,
      "Ġobser": 2846,
      "Ġgrav": 2847,
      "::::": 2848,
      "Ġculture": 2849,
      "Ġincor": 2850,
      "augh": 2851,
      "Ġdatabase": 2852,
      "Ġespecially": 2853,
      "!!": 2854,
      "')": 2855,
      "60": 2856,
      "ball": 2857,
      "Ġnight": 2858,
      "izations": 2859,
      "ission": 2860,
      "ormal": 2861,
      "down": 2862,
      "Ġ?": 2863,
      "Ġang": 2864,
      "soft": 2865,
      "ĠOne": 2866,
      "ification": 2867,
      "Ġamong": 2868,
      "atively": 2869,
      "Ġassistant": 2870,
      "Ġcomplete": 2871,
      "Ġtransl": 2872,
      "Ġlarger": 2873,
      "Ġeffects": 2874,
      "Ġrandom": 2875,
      "List": 2876,
      "Ġfire": 2877,
      "unch": 2878,
      "Ġsupp": 2879,
      "Ġsepar": 2880,
      "Ġ</": 2881,
      "Ġcurrently": 2882,
      "ĠCheck": 2883,
      "My": 2884,
      "lt": 2885,
      "asons": 2886,
      "Ġheight": 2887,
      "avor": 2888,
      "versity": 2889,
      "Ġfollows": 2890,
      "Ġplanet": 2891,
      "ĠDevelop": 2892,
      "Ġestab": 2893,
      "âĸĪâĸĪ": 2894,
      "care": 2895,
      "iet": 2896,
      "Ġpow": 2897,
      "Ġfish": 2898,
      "Ġplaying": 2899,
      "Ġinside": 2900,
      "Ġguid": 2901,
      "Ġdrive": 2902,
      "Ġmechanics": 2903,
      "Ġetc": 2904,
      "tings": 2905,
      "Ġegg": 2906,
      "ster": 2907,
      "Ġcondition": 2908,
      "ended": 2909,
      "Ġ200": 2910,
      "ynam": 2911,
      "14": 2912,
      "ym": 2913,
      "Ġtreat": 2914,
      "ither": 2915,
      "Ġfull": 2916,
      "unction": 2917,
      "Ġheart": 2918,
      "Ġselect": 2919,
      "ĠYour": 2920,
      "Ġproviding": 2921,
      "Ġdiscuss": 2922,
      "Ġlimited": 2923,
      "Ġanaly": 2924,
      "Ġsafety": 2925,
      "Ġanimals": 2926,
      "Ġglobal": 2927,
      "eed": 2928,
      "sing": 2929,
      "oration": 2930,
      "aling": 2931,
      "Ġlat": 2932,
      "Ġroot": 2933,
      "Ġadvent": 2934,
      "Ġbran": 2935,
      "Ġpackage": 2936,
      "AN": 2937,
      "sp": 2938,
      "unt": 2939,
      "Ġvi": 2940,
      "Ġattempt": 2941,
      "Ġmedical": 2942,
      "Ġappropriate": 2943,
      "Ġsafe": 2944,
      "ĠJavaScript": 2945,
      "icrosoft": 2946,
      "50": 2947,
      "Ġaware": 2948,
      "Ġdom": 2949,
      "Ġdraw": 2950,
      "umb": 2951,
      "rie": 2952,
      "cles": 2953,
      "ĠLet": 2954,
      "sole": 2955,
      "phas": 2956,
      "Ġallowing": 2957,
      "Ġhappy": 2958,
      "Ġparticularly": 2959,
      "Ġconsequences": 2960,
      "Ġult": 2961,
      "Ġwon": 2962,
      "Ġlives": 2963,
      "ĠCal": 2964,
      "Ġbecame": 2965,
      "However": 2966,
      "Ġsurv": 2967,
      "Ġconstant": 2968,
      "ĠChatGPT": 2969,
      "aur": 2970,
      "ulations": 2971,
      "Ġusually": 2972,
      "elling": 2973,
      "ĠRes": 2974,
      "Ġdownload": 2975,
      "Ġtopic": 2976,
      "Ġeduc": 2977,
      "ĠQu": 2978,
      "Ġactivities": 2979,
      "ST": 2980,
      "ges": 2981,
      "Ġing": 2982,
      "Ġder": 2983,
      "oman": 2984,
      "Ġred": 2985,
      "uration": 2986,
      "ĠSer": 2987,
      "quality": 2988,
      "ops": 2989,
      "ception": 2990,
      "redients": 2991,
      "Ġsituation": 2992,
      "ID": 2993,
      "Ġill": 2994,
      "ina": 2995,
      "Ġliving": 2996,
      "ili": 2997,
      "Ġupd": 2998,
      "Ġdecisions": 2999,
      "Ġbehind": 3000,
      "Ġrelationships": 3001,
      "Ġscene": 3002,
      "selves": 3003,
      ".)": 3004,
      "IN": 3005,
      "Note": 3006,
      "},": 3007,
      "Ġ>": 3008,
      "itation": 3009,
      "Ġscore": 3010,
      "Ġrow": 3011,
      "Ġeasily": 3012,
      "Ġinvolve": 3013,
      "size": 3014,
      "Ġaim": 3015,
      "Ġsat": 3016,
      "Ġcook": 3017,
      "Ġnav": 3018,
      "Ġexact": 3019,
      "ights": 3020,
      "icken": 3021,
      "Ġdevelopers": 3022,
      "Ġfix": 3023,
      "Ġlonger": 3024,
      "Ġletter": 3025,
      "Ġoperations": 3026,
      "Ġdigital": 3027,
      "Ġbatter": 3028,
      "Ġdistribution": 3029,
      "Ġmanagement": 3030,
      "64": 3031,
      "PE": 3032,
      "cer": 3033,
      "Ġbud": 3034,
      "Ġlater": 3035,
      "ude": 3036,
      "plications": 3037,
      "Ġconfig": 3038,
      "Ġequation": 3039,
      "Ġmathematical": 3040,
      "Ġbalance": 3041,
      "Ġbooks": 3042,
      "ĠPr": 3043,
      "Ġeval": 3044,
      "Ġsimply": 3045,
      "Ġinteresting": 3046,
      "mos": 3047,
      "Ġtim": 3048,
      "Ġbit": 3049,
      "ĠRust": 3050,
      "force": 3051,
      "Ġreli": 3052,
      "Ġreflect": 3053,
      "Ġhandle": 3054,
      "Ġentire": 3055,
      "Ġbad": 3056,
      "Ġbring": 3057,
      "ocol": 3058,
      "resp": 3059,
      "Ġconflict": 3060,
      "Ġfully": 3061,
      "Ġinitial": 3062,
      "Ġsequence": 3063,
      "body": 3064,
      "cure": 3065,
      "script": 3066,
      "where": 3067,
      "Ġsn": 3068,
      "Ġwatch": 3069,
      "Ġpsy": 3070,
      "Ġfour": 3071,
      "Ġlif": 3072,
      "Ġreally": 3073,
      "etic": 3074,
      "istics": 3075,
      "osed": 3076,
      "Ġbuy": 3077,
      "ĠAmerican": 3078,
      "Ġfeedback": 3079,
      "Ġdataset": 3080,
      "mon": 3081,
      "na": 3082,
      "Ġfaster": 3083,
      "iles": 3084,
      "ister": 3085,
      "uth": 3086,
      "Ġcomfort": 3087,
      "Ġheat": 3088,
      "ocal": 3089,
      "Ġhelpful": 3090,
      "ĠJohn": 3091,
      "Ġsolve": 3092,
      "Ġcapture": 3093,
      "hent": 3094,
      "Ġcases": 3095,
      "Ġdim": 3096,
      "Ġdream": 3097,
      "arr": 3098,
      "icial": 3099,
      "rage": 3100,
      "Ġste": 3101,
      "Ġweek": 3102,
      "Ġclient": 3103,
      "Ġspecies": 3104,
      "Ġgenerally": 3105,
      "Ġsmart": 3106,
      "Ġartificial": 3107,
      "Ġeverything": 3108,
      "ront": 3109,
      "Ġop": 3110,
      "emember": 3111,
      "outh": 3112,
      "ĠPC": 3113,
      "Ġclose": 3114,
      "aps": 3115,
      "rupt": 3116,
      "Ġemphas": 3117,
      "Ġhardware": 3118,
      "volution": 3119,
      "Ġver": 3120,
      "ĠGerm": 3121,
      "ĠOr": 3122,
      "Ġspecif": 3123,
      "ĠStart": 3124,
      "Ġflu": 3125,
      "Ġcontains": 3126,
      "Ġissue": 3127,
      "but": 3128,
      "dr": 3129,
      "pass": 3130,
      "uce": 3131,
      "Ġsave": 3132,
      "Ġincreasing": 3133,
      "Ġchallenging": 3134,
      "Ġaudience": 3135,
      ".,": 3136,
      "18": 3137,
      "mod": 3138,
      "Ġfund": 3139,
      "Ġthread": 3140,
      "Ġstru": 3141,
      "Ġsuit": 3142,
      "izz": 3143,
      "Ġshap": 3144,
      "duct": 3145,
      "ĠName": 3146,
      "Ġexplan": 3147,
      "ructions": 3148,
      "Al": 3149,
      "ED": 3150,
      "Ġaf": 3151,
      "hel": 3152,
      "Ġcast": 3153,
      "Ġmix": 3154,
      "lear": 3155,
      "Ġdanger": 3156,
      "Ġearth": 3157,
      "Ġnut": 3158,
      "Ġforms": 3159,
      "Ġchat": 3160,
      "ĠOn": 3161,
      "ĠNe": 3162,
      "Ġcommit": 3163,
      "Ġtopics": 3164,
      "Ġinfluen": 3165,
      "Ġbeliefs": 3166,
      "US": 3167,
      "yond": 3168,
      "Ġded": 3169,
      "Ġhost": 3170,
      "Ġreplace": 3171,
      "Ġbeaut": 3172,
      "ĠMan": 3173,
      "Ġsecure": 3174,
      "Ġtrad": 3175,
      "Ġspread": 3176,
      "Ġcool": 3177,
      "Ġmonth": 3178,
      "Ġpractices": 3179,
      "Ġsquare": 3180,
      "Ġrepl": 3181,
      "Ġreps": 3182,
      "Ġcomes": 3183,
      "Ġitself": 3184,
      "Ġrelig": 3185,
      "Ġbuilt": 3186,
      "Ġactivity": 3187,
      "Ġvariables": 3188,
      "....": 3189,
      "Ġrefer": 3190,
      "ĠCont": 3191,
      "Ġgreen": 3192,
      "Ġplatforms": 3193,
      "Ġoriginal": 3194,
      "Ġ--": 3195,
      "Ġever": 3196,
      "ĠThen": 3197,
      "Ġcompared": 3198,
      "Ġbutton": 3199,
      "Ġperfect": 3200,
      "Ġdesired": 3201,
      "Ġtax": 3202,
      "ords": 3203,
      "Ġdeveloping": 3204,
      "Ġinvolved": 3205,
      "Ġvisual": 3206,
      "print": 3207,
      "Ġinternet": 3208,
      "Ġcirc": 3209,
      "Ġnegative": 3210,
      "Ġconsciousness": 3211,
      "Ġcompanies": 3212,
      "Ġarchitecture": 3213,
      "Ġmess": 3214,
      "arily": 3215,
      "Ġhot": 3216,
      "Ġled": 3217,
      "Ġabilities": 3218,
      "Ġcreation": 3219,
      "Ġfeature": 3220,
      "Ġaccept": 3221,
      "Ġupon": 3222,
      "Ġrefers": 3223,
      "Ġreturns": 3224,
      "Ġwritten": 3225,
      "Ġdirectly": 3226,
      "Ġveget": 3227,
      "Ġcustomer": 3228,
      "Ġpreferences": 3229,
      "Ġindustry": 3230,
      "Ġprinciples": 3231,
      "32": 3232,
      "By": 3233,
      "aim": 3234,
      "gre": 3235,
      "zz": 3236,
      "Ġfine": 3237,
      "Ġtowards": 3238,
      "Ġdecl": 3239,
      "ival": 3240,
      "ĠDef": 3241,
      "ĠGet": 3242,
      "Ġcreates": 3243,
      "Ġspell": 3244,
      "Ġdetailed": 3245,
      "rench": 3246,
      "Ġcalculate": 3247,
      "Ġmagic": 3248,
      "Ġsymbol": 3249,
      "ĠâĢľ": 3250,
      "bl": 3251,
      "base": 3252,
      "ipp": 3253,
      "min": 3254,
      "top": 3255,
      "Ġhttps": 3256,
      "ement": 3257,
      "Ġimportance": 3258,
      "Ġreducing": 3259,
      "Ġproperly": 3260,
      "iate": 3261,
      "Ġcore": 3262,
      "Ġfru": 3263,
      "Ġtotal": 3264,
      "Ġdynam": 3265,
      "Ġhouse": 3266,
      "Ġstream": 3267,
      "Ġrock": 3268,
      "ensions": 3269,
      "Ġfilm": 3270,
      "Ġmovement": 3271,
      "Ġbott": 3272,
      "ounter": 3273,
      "Ġdamage": 3274,
      "Your": 3275,
      "cent": 3276,
      "rong": 3277,
      "Ð¾": 3278,
      "ourage": 3279,
      "Ġmom": 3280,
      "ĠInd": 3281,
      "Ġheav": 3282,
      "illing": 3283,
      "Ġrate": 3284,
      "ĠLe": 3285,
      "Ġcenter": 3286,
      "Ġgroups": 3287,
      "iam": 3288,
      "world": 3289,
      "Â°": 3290,
      "het": 3291,
      "ising": 3292,
      "Ġthing": 3293,
      "ĠGree": 3294,
      "Ġdise": 3295,
      "Ġapply": 3296,
      "Ġexperiment": 3297,
      "Ġfinal": 3298,
      "Ġrecommended": 3299,
      "Do": 3300,
      "rict": 3301,
      "Ġtree": 3302,
      "Ġeither": 3303,
      "Ġdevice": 3304,
      "astic": 3305,
      "Ġeveryone": 3306,
      "Ġphysics": 3307,
      "Thank": 3308,
      "Ġphilosophy": 3309,
      "Ġvolume": 3310,
      "!\"": 3311,
      "gar": 3312,
      "Ġtast": 3313,
      "Ġcamp": 3314,
      "itary": 3315,
      "Ġfight": 3316,
      "Ġnode": 3317,
      "Ġgas": 3318,
      "ows": 3319,
      "ĠTry": 3320,
      "ump": 3321,
      "ĠGPU": 3322,
      "Ġcredit": 3323,
      "aily": 3324,
      "Ġsetting": 3325,
      "Ġsolution": 3326,
      "Ġauthor": 3327,
      "Ġcomplexity": 3328,
      "Ġhealthcare": 3329,
      "Ġbelieved": 3330,
      "Ġdescribe": 3331,
      "Ġeyes": 3332,
      "aff": 3333,
      "ler": 3334,
      "ners": 3335,
      "ching": 3336,
      "Ġquery": 3337,
      "Ġmode": 3338,
      "apan": 3339,
      "Ġpurch": 3340,
      "100": 3341,
      "uate": 3342,
      "Ġcut": 3343,
      "Ġhol": 3344,
      "Ġreasons": 3345,
      "olve": 3346,
      "osing": 3347,
      "Ġenem": 3348,
      "Ġchem": 3349,
      "Ġreport": 3350,
      "Ġkeyboard": 3351,
      "Ġconnection": 3352,
      "Ġmovie": 3353,
      "Ġparameters": 3354,
      "friend": 3355,
      "rors": 3356,
      "ype": 3357,
      "Ġflex": 3358,
      "Ġmillion": 3359,
      "Ġlack": 3360,
      "Ġking": 3361,
      "ffee": 3362,
      "Ġemerg": 3363,
      "Ġsimpl": 3364,
      "Ġindex": 3365,
      "Ġexistence": 3366,
      "':": 3367,
      "dir": 3368,
      "inst": 3369,
      "itions": 3370,
      "Ġworth": 3371,
      "oding": 3372,
      "Ġchicken": 3373,
      "Ġthemselves": 3374,
      "Ġassist": 3375,
      "Ġremember": 3376,
      "Ġframework": 3377,
      "Ġethical": 3378,
      "Ġbudget": 3379,
      "ned": 3380,
      "rist": 3381,
      "inary": 3382,
      "Ġfive": 3383,
      "Ġlink": 3384,
      "Ġconclusion": 3385,
      "clude": 3386,
      "Ġmonitor": 3387,
      "Ġstructures": 3388,
      "Ġimplementation": 3389,
      "Ġstrategies": 3390,
      "www": 3391,
      "Ġmotiv": 3392,
      "Ġpolicy": 3393,
      "40": 3394,
      "Could": 3395,
      "pic": 3396,
      "ino": 3397,
      "eration": 3398,
      "Ġmit": 3399,
      "Ġment": 3400,
      "ayer": 3401,
      "Ġvul": 3402,
      "Ġ15": 3403,
      "ĠWar": 3404,
      "ĠGit": 3405,
      "Ġupdate": 3406,
      "Ġlisten": 3407,
      "Ġsky": 3408,
      "Ġlocated": 3409,
      "Ġload": 3410,
      "Ġinterests": 3411,
      "âĶĢâĶĢâĶĢâĶĢâĶĢâĶĢâĶĢâĶĢ": 3412,
      "Ġaccurate": 3413,
      "22": 3414,
      "ele": 3415,
      "ny": 3416,
      "pare": 3417,
      "Ġbeyond": 3418,
      "Ġvoice": 3419,
      "Ġplot": 3420,
      "Ġmodify": 3421,
      "Ġspeak": 3422,
      "Ġsolutions": 3423,
      "type": 3424,
      "Ġhistorical": 3425,
      "Ġstrugg": 3426,
      "uel": 3427,
      "itude": 3428,
      "Ġwarm": 3429,
      "alf": 3430,
      "Ġforward": 3431,
      "Ġstress": 3432,
      "odes": 3433,
      "ĠMar": 3434,
      "Ġjour": 3435,
      "Ġauthent": 3436,
      "Ġparticles": 3437,
      "Ġcontinues": 3438,
      "Ġchildren": 3439,
      "Ġexecut": 3440,
      "IT": 3441,
      "])": 3442,
      "ativity": 3443,
      "Ġdrag": 3444,
      "Ġhab": 3445,
      "ĠAt": 3446,
      "ection": 3447,
      "Ġmanip": 3448,
      "aced": 3449,
      "Ġinterface": 3450,
      "object": 3451,
      "Ġcheese": 3452,
      "Ġdoesn": 3453,
      "Ġdiet": 3454,
      "Ġapproxim": 3455,
      "Ġvideos": 3456,
      "Ġdemon": 3457,
      "Ġregularly": 3458,
      "Ġpiece": 3459,
      "Ġadvantage": 3460,
      "Ġopportunities": 3461,
      "16": 3462,
      "Create": 3463,
      "Ġsample": 3464,
      "orage": 3465,
      "orry": 3466,
      "enu": 3467,
      "Ġparent": 3468,
      "Ġmut": 3469,
      "level": 3470,
      "amb": 3471,
      "rix": 3472,
      "ĠRuss": 3473,
      "angle": 3474,
      "Ġcreative": 3475,
      "Ġformula": 3476,
      "Ġrespond": 3477,
      "Ġnetworks": 3478,
      "Ġcommonly": 3479,
      "Ġincorpor": 3480,
      "EN": 3481,
      "lished": 3482,
      "su": 3483,
      "inct": 3484,
      "eria": 3485,
      "itting": 3486,
      "Ġfict": 3487,
      "irl": 3488,
      "Ġdeath": 3489,
      "Ġchann": 3490,
      "ĠWh": 3491,
      "ĠBrit": 3492,
      "Ġoutside": 3493,
      "Ġpotentially": 3494,
      "Ġbreath": 3495,
      "OR": 3496,
      "Re": 3497,
      "Some": 3498,
      "ees": 3499,
      "uff": 3500,
      "orial": 3501,
      "Ġfail": 3502,
      "Ġthreat": 3503,
      "rap": 3504,
      "Ġseem": 3505,
      "Ġsche": 3506,
      "apter": 3507,
      "Ġprec": 3508,
      "arian": 3509,
      "Ġcomputers": 3510,
      "Ġrecipe": 3511,
      "Ġreference": 3512,
      "Ġelectric": 3513,
      "button": 3514,
      "77": 3515,
      "AL": 3516,
      "That": 3517,
      "UR": 3518,
      "div": 3519,
      "med": 3520,
      "Ġdaily": 3521,
      "asy": 3522,
      "eline": 3523,
      "urance": 3524,
      "Ġimag": 3525,
      "Ġ16": 3526,
      "acing": 3527,
      "Ġcollab": 3528,
      "Ġstrategy": 3529,
      "Ġconversation": 3530,
      "ccording": 3531,
      "80": 3532,
      "`.": 3533,
      "ha": 3534,
      "spe": 3535,
      "what": 3536,
      "yg": 3537,
      "Ġcup": 3538,
      "Ġeat": 3539,
      "ĠMod": 3540,
      "inder": 3541,
      "Ġappl": 3542,
      "ĠVal": 3543,
      "Ġdefine": 3544,
      "Ġnovel": 3545,
      "ructure": 3546,
      "Ġsurround": 3547,
      "Ġcontainer": 3548,
      "Ġcombination": 3549,
      "Ġintegr": 3550,
      "Ġcomponent": 3551,
      "ltimately": 3552,
      "gs": 3553,
      "war": 3554,
      "yles": 3555,
      "Ġthird": 3556,
      "Ġplayed": 3557,
      "Ar": 3558,
      "Ġvel": 3559,
      "Ġtun": 3560,
      "Ġcru": 3561,
      "Ġpick": 3562,
      "Ġinj": 3563,
      "Ġhold": 3564,
      "ĠSystem": 3565,
      "Ġspend": 3566,
      "ĠYouT": 3567,
      "Ġpassword": 3568,
      "Ġgreater": 3569,
      "Ġcareful": 3570,
      "Ġremains": 3571,
      "Ġcollection": 3572,
      "Ġconcerns": 3573,
      "With": 3574,
      "host": 3575,
      "Ġbir": 3576,
      "Ġdial": 3577,
      "Ġnormal": 3578,
      "ĠSu": 3579,
      "Ġtrust": 3580,
      "cret": 3581,
      "Ġinstance": 3582,
      "Ġdemand": 3583,
      "Ġterminal": 3584,
      "train": 3585,
      "org": 3586,
      "ley": 3587,
      "asc": 3588,
      "Ġnp": 3589,
      "ably": 3590,
      "opt": 3591,
      "Ġexpand": 3592,
      "Ġguide": 3593,
      "Ġconnected": 3594,
      "Ġmoving": 3595,
      "Ġargument": 3596,
      "Ġlegal": 3597,
      "Cl": 3598,
      "uable": 3599,
      "Ã¼": 3600,
      "enge": 3601,
      "ously": 3602,
      "Ġcoffee": 3603,
      "Ġrobot": 3604,
      "13": 3605,
      "Let": 3606,
      "Ġtheore": 3607,
      "Ġtheories": 3608,
      "Ġcam": 3609,
      "Ġwa": 3610,
      "Ġwall": 3611,
      "Ġos": 3612,
      "Ġban": 3613,
      "Ġrepe": 3614,
      "Ġreality": 3615,
      "Ġgold": 3616,
      "Ġbegan": 3617,
      "ĠPer": 3618,
      "Ġclimate": 3619,
      "ĠKeep": 3620,
      "Ġlargest": 3621,
      "Ġrecent": 3622,
      "Ġenvironmental": 3623,
      "Ġphilosoph": 3624,
      "Ġpsych": 3625,
      "Remember": 3626,
      "can": 3627,
      "dis": 3628,
      "Ġnuc": 3629,
      "chain": 3630,
      "term": 3631,
      "Ġneur": 3632,
      "Ġrise": 3633,
      "ĠEl": 3634,
      "ĠFinally": 3635,
      "ustain": 3636,
      "Ġkil": 3637,
      "Ġphr": 3638,
      "Ġtechnologies": 3639,
      "Ġpromote": 3640,
      "Ġorganization": 3641,
      "Ġresponses": 3642,
      "fficient": 3643,
      "Ġsmooth": 3644,
      "No": 3645,
      "Name": 3646,
      "sv": 3647,
      "ups": 3648,
      "Ġwalk": 3649,
      "Ġmental": 3650,
      "ĠMon": 3651,
      "ĠFr": 3652,
      "Ġnumer": 3653,
      "Ġgenerated": 3654,
      "Ġassum": 3655,
      "ternal": 3656,
      "**:": 3657,
      "Ġremove": 3658,
      "Ġexisting": 3659,
      "Ġeconomy": 3660,
      "Ġrequests": 3661,
      "ield": 3662,
      "De": 3663,
      "fer": 3664,
      "ike": 3665,
      "write": 3666,
      "isms": 3667,
      "Ġmount": 3668,
      "room": 3669,
      "Ġnames": 3670,
      "ĠTw": 3671,
      "ĠMicrosoft": 3672,
      "aged": 3673,
      "Ġcreatures": 3674,
      "Ġunit": 3675,
      "ĠJapan": 3676,
      "Ġcarbon": 3677,
      "Ġmedium": 3678,
      "Ġguit": 3679,
      "Ġequal": 3680,
      "Ġingredients": 3681,
      "ged": 3682,
      "ky": 3683,
      "ole": 3684,
      "input": 3685,
      "Ġcrypt": 3686,
      "Ġgaming": 3687,
      "Ġteach": 3688,
      "Ġstudents": 3689,
      "Ġsuggestions": 3690,
      "Ġerrors": 3691,
      "Ġcontribute": 3692,
      "idden": 3693,
      "Ġpressure": 3694,
      "While": 3695,
      "['": 3696,
      "how": 3697,
      "Ġsus": 3698,
      "Ġpip": 3699,
      "Ġhor": 3700,
      "iding": 3701,
      "que": 3702,
      "ached": 3703,
      "Ġapart": 3704,
      "Ġindepend": 3705,
      "Ġtransport": 3706,
      "Ġfactor": 3707,
      "Ġinterested": 3708,
      "Ġlayers": 3709,
      "Ġcentral": 3710,
      "Ġcentury": 3711,
      "Ġroutine": 3712,
      "Ġgeomet": 3713,
      "Ġsupply": 3714,
      "Ġviol": 3715,
      "Ġvulner": 3716,
      "25": 3717,
      "II": 3718,
      "bi": 3719,
      "bra": 3720,
      "met": 3721,
      "rim": 3722,
      "void": 3723,
      "Ġtalking": 3724,
      "rel": 3725,
      "Ġsustain": 3726,
      "Ġinform": 3727,
      "Ġprote": 3728,
      "cks": 3729,
      "Ġ11": 3730,
      "ĠReg": 3731,
      "Ġclick": 3732,
      "Ġsoon": 3733,
      "Ġtaken": 3734,
      "Ġremov": 3735,
      "Ġfilled": 3736,
      "Ġincreased": 3737,
      "Ġstatement": 3738,
      "Ġfrequ": 3739,
      "Ġadvantages": 3740,
      "].": 3741,
      "att": 3742,
      "alled": 3743,
      "ctors": 3744,
      "Ġgirl": 3745,
      "olf": 3746,
      "Ġstorage": 3747,
      "ĠAfter": 3748,
      "Ġvac": 3749,
      "Ġimplications": 3750,
      "inecraft": 3751,
      "Ġ=>": 3752,
      "Ġadvice": 3753,
      "Ġ+=": 3754,
      "Ġlinear": 3755,
      "Ġfrequen": 3756,
      "Ġeffectively": 3757,
      "Ġmole": 3758,
      "Ġlaws": 3759,
      "book": 3760,
      "do": 3761,
      "right": 3762,
      "vest": 3763,
      "vide": 3764,
      "onds": 3765,
      "alse": 3766,
      "rial": 3767,
      "ried": 3768,
      "ĠOver": 3769,
      "overed": 3770,
      "Ġextension": 3771,
      "Ġcapital": 3772,
      "Ġmilitary": 3773,
      "Ġprivate": 3774,
      "Ġprivacy": 3775,
      "Ġcritical": 3776,
      "SC": 3777,
      "mar": 3778,
      "nam": 3779,
      "Ġcatch": 3780,
      "Ġwrong": 3781,
      "Ġvoc": 3782,
      "ĠPre": 3783,
      "Ġrule": 3784,
      "ĠDes": 3785,
      "Ġweak": 3786,
      "cont": 3787,
      "Ġwhole": 3788,
      "Ġsubst": 3789,
      "Ġcommands": 3790,
      "Ġmembers": 3791,
      "issions": 3792,
      "Ġfeeling": 3793,
      "ĠTrans": 3794,
      "Ġperspective": 3795,
      "Ġphilosophical": 3796,
      "af": 3797,
      "hing": 3798,
      "ris": 3799,
      "ðŁ": 3800,
      "Ġri": 3801,
      "Ġlines": 3802,
      "ively": 3803,
      "irection": 3804,
      "Ġadvance": 3805,
      "ĠChoose": 3806,
      "value": 3807,
      "Ġrisks": 3808,
      "Ġgraphics": 3809,
      "ĠEuropean": 3810,
      "Ġsatis": 3811,
      "ae": 3812,
      "main": 3813,
      "Ġmis": 3814,
      "rade": 3815,
      "Ġchain": 3816,
      "izer": 3817,
      "ĠRed": 3818,
      "Ġcontact": 3819,
      "Ġquite": 3820,
      "ensity": 3821,
      "order": 3822,
      "Ġfilter": 3823,
      "Ġcommunities": 3824,
      "Ġmeasures": 3825,
      "Ġradius": 3826,
      "Ġconsistent": 3827,
      "mosp": 3828,
      "era": 3829,
      "style": 3830,
      "unc": 3831,
      "unk": 3832,
      "ĠNo": 3833,
      "Ġactually": 3834,
      "Ġfinding": 3835,
      "Ġaccording": 3836,
      "Ġscenari": 3837,
      "Ġexpected": 3838,
      "Ġgravity": 3839,
      "Ġguitar": 3840,
      "Er": 3841,
      "From": 3842,
      "On": 3843,
      "ech": 3844,
      "gram": 3845,
      "Ġspl": 3846,
      "Ġbow": 3847,
      "aly": 3848,
      "etimes": 3849,
      "Ġgar": 3850,
      "string": 3851,
      "Ġdead": 3852,
      "ĠĠĠĠĠĠĠĠĠ": 3853,
      "Ġatmosp": 3854,
      "Ġfeet": 3855,
      "Ġadding": 3856,
      "Ġvaluable": 3857,
      "Ġexpert": 3858,
      "Ġhumanity": 3859,
      "Ġflight": 3860,
      "Ġ80": 3861,
      "####": 3862,
      "Ġbright": 3863,
      "Ġliter": 3864,
      "Ġmathematics": 3865,
      "Ġmoral": 3866,
      "17": 3867,
      "ped": 3868,
      "Ġmiddle": 3869,
      "alle": 3870,
      "array": 3871,
      "ether": 3872,
      "image": 3873,
      "chol": 3874,
      "ades": 3875,
      "Ġmap": 3876,
      "Ġseason": 3877,
      "Ġknew": 3878,
      "Ġinstructions": 3879,
      "poon": 3880,
      "Ġlibraries": 3881,
      "Ġeye": 3882,
      "Ġdescription": 3883,
      "Ġdangerous": 3884,
      "ĠYouTube": 3885,
      "ai": 3886,
      "uations": 3887,
      "Ð°": 3888,
      "Ġstock": 3889,
      "adem": 3890,
      "ĠLear": 3891,
      "Ġengage": 3892,
      "Ġchanging": 3893,
      "Ġrestrict": 3894,
      "Ġmagn": 3895,
      "Ġexercise": 3896,
      "iliar": 3897,
      "Ġmoment": 3898,
      "ĠGreek": 3899,
      "\";": 3900,
      "TP": 3901,
      "pire": 3902,
      "erate": 3903,
      "itize": 3904,
      "Ġmel": 3905,
      "icles": 3906,
      "Ġhun": 3907,
      "Ġconv": 3908,
      "Ġalign": 3909,
      "ĠFrench": 3910,
      "Ġclaim": 3911,
      "Ġmyth": 3912,
      "Ġconsult": 3913,
      "ensor": 3914,
      "Ġcold": 3915,
      "Ġregion": 3916,
      "ĠKing": 3917,
      "Ġrecord": 3918,
      "Ġpromot": 3919,
      "Ġchallenge": 3920,
      "Ġwebsites": 3921,
      "Ġamounts": 3922,
      "Ġcontributions": 3923,
      "Ġengineering": 3924,
      "Ġalternative": 3925,
      "Ġchemical": 3926,
      "oe": 3927,
      "part": 3928,
      "Ġsorry": 3929,
      "Ġphen": 3930,
      "step": 3931,
      "Ġconsole": 3932,
      "uries": 3933,
      "rive": 3934,
      "plate": 3935,
      "pth": 3936,
      "resents": 3937,
      "Ġpret": 3938,
      "Ġhowever": 3939,
      "Ġcover": 3940,
      "Ġrepresents": 3941,
      "Ġresulting": 3942,
      "Ġstudent": 3943,
      "Ġrights": 3944,
      "Ġvector": 3945,
      "point": 3946,
      "Ġsympt": 3947,
      "Ġbroad": 3948,
      "Ġfigure": 3949,
      "ography": 3950,
      "AD": 3951,
      "Data": 3952,
      "En": 3953,
      "iation": 3954,
      "Ġtur": 3955,
      "Ġmaster": 3956,
      "Ġhar": 3957,
      "Ġyet": 3958,
      "Ġlate": 3959,
      "Ġreward": 3960,
      "olving": 3961,
      "ĠSw": 3962,
      "oph": 3963,
      "Ġaccom": 3964,
      "Ġcapabilities": 3965,
      "Ġblood": 3966,
      "Ġresponsible": 3967,
      "Ġprefer": 3968,
      "Ass": 3969,
      "ret": 3970,
      "eries": 3971,
      "orrow": 3972,
      "Ġmicro": 3973,
      "Ġthinking": 3974,
      "Ġlic": 3975,
      "ĠAm": 3976,
      "ĠCSS": 3977,
      "ored": 3978,
      "ĠMe": 3979,
      "Ġweap": 3980,
      "class": 3981,
      "Ġtraffic": 3982,
      "connect": 3983,
      "Ġspir": 3984,
      "Ġpepper": 3985,
      "Ġgeneration": 3986,
      "Ġfunctionality": 3987,
      "Ġallowed": 3988,
      "Ġ2023": 3989,
      "Ġbox": 3990,
      "Ġcultures": 3991,
      "Ġtesting": 3992,
      "Ġsentence": 3993,
      "Ġorigin": 3994,
      "Ġattacks": 3995,
      "ĠConsider": 3996,
      "Error": 3997,
      "den": 3998,
      "wid": 3999
    },
    "merges": [
      [
        "Ġ",
        "t"
      ],
      [
        "Ġ",
        "a"
      ],
      [
        "i",
        "n"
      ],
      [
        "č",
        "Ċ"
      ],
      [
        "h",
        "e"
      ],
      [
        "r",
        "e"
      ],
      [
        "o",
        "n"
      ],
      [
        "e",
        "r"
      ],
      [
        "Ġt",
        "he"
      ],
      [
        "a",
        "t"
      ],
      [
        "Ġ",
        "s"
      ],
      [
        "Ġ",
        "c"
      ],
      [
        "n",
        "d"
      ],
      [
        "o",
        "r"
      ],
      [
        "i",
        "s"
      ],
      [
        "a",
        "n"
      ],
      [
        "o",
        "u"
      ],
      [
        "e",
        "s"
      ],
      [
        "i",
        "t"
      ],
      [
        "Ġ",
        "Ġ"
      ],
      [
        "Ġ",
        "w"
      ],
      [
        "e",
        "n"
      ],
      [
        "Ġ",
        "p"
      ],
      [
        "in",
        "g"
      ],
      [
        "Ġ",
        "f"
      ],
      [
        "Ġ",
        "o"
      ],
      [
        "Ġ",
        "m"
      ],
      [
        "Ġa",
        "nd"
      ],
      [
        "Ġ",
        "b"
      ],
      [
        "a",
        "l"
      ],
      [
        "Ġt",
        "o"
      ],
      [
        "l",
        "e"
      ],
      [
        "Ġ",
        "in"
      ],
      [
        "Ġ",
        "d"
      ],
      [
        "a",
        "r"
      ],
      [
        "Ġo",
        "f"
      ],
      [
        "i",
        "c"
      ],
      [
        "i",
        "on"
      ],
      [
        "e",
        "d"
      ],
      [
        "a",
        "s"
      ],
      [
        "r",
        "o"
      ],
      [
        "u",
        "s"
      ],
      [
        "Ġ",
        "h"
      ],
      [
        "Ġt",
        "h"
      ],
      [
        "Ġ",
        "e"
      ],
      [
        "c",
        "t"
      ],
      [
        "Ġ",
        "y"
      ],
      [
        "o",
        "m"
      ],
      [
        "Ġ",
        "l"
      ],
      [
        "en",
        "t"
      ],
      [
        "Ġy",
        "ou"
      ],
      [
        "Ġ",
        "re"
      ],
      [
        "v",
        "e"
      ],
      [
        "Ġ",
        "n"
      ],
      [
        "e",
        "t"
      ],
      [
        "<",
        "|"
      ],
      [
        "|",
        ">"
      ],
      [
        "Ġ",
        "is"
      ],
      [
        "i",
        "l"
      ],
      [
        "i",
        "m"
      ],
      [
        "Ġ",
        "g"
      ],
      [
        "e",
        "l"
      ],
      [
        "o",
        "w"
      ],
      [
        "ĠĠ",
        "ĠĠ"
      ],
      [
        "is",
        "t"
      ],
      [
        "a",
        "m"
      ],
      [
        "s",
        "t"
      ],
      [
        "c",
        "h"
      ],
      [
        "c",
        "e"
      ],
      [
        "Ġf",
        "or"
      ],
      [
        "an",
        "t"
      ],
      [
        "i",
        "d"
      ],
      [
        "Ġth",
        "at"
      ],
      [
        "Ġb",
        "e"
      ],
      [
        "o",
        "l"
      ],
      [
        "at",
        "ion"
      ],
      [
        "Ġ",
        "T"
      ],
      [
        "u",
        "t"
      ],
      [
        "Ġ",
        "I"
      ],
      [
        "o",
        "t"
      ],
      [
        "i",
        "g"
      ],
      [
        "r",
        "a"
      ],
      [
        "l",
        "y"
      ],
      [
        "Ġs",
        "t"
      ],
      [
        "Ġ",
        "on"
      ],
      [
        "it",
        "h"
      ],
      [
        "Ġp",
        "ro"
      ],
      [
        "i",
        "f"
      ],
      [
        "a",
        "y"
      ],
      [
        "Ġ",
        "it"
      ],
      [
        "o",
        "d"
      ],
      [
        "Ġa",
        "s"
      ],
      [
        "u",
        "l"
      ],
      [
        "v",
        "er"
      ],
      [
        "Ġc",
        "on"
      ],
      [
        "Ġc",
        "an"
      ],
      [
        "u",
        "n"
      ],
      [
        "u",
        "r"
      ],
      [
        "Ġa",
        "n"
      ],
      [
        "Ġw",
        "ith"
      ],
      [
        "Ġ",
        "or"
      ],
      [
        "Ġ",
        "A"
      ],
      [
        "as",
        "s"
      ],
      [
        "g",
        "e"
      ],
      [
        "Ġa",
        "re"
      ],
      [
        "e",
        "nd"
      ],
      [
        "s",
        "e"
      ],
      [
        "i",
        "r"
      ],
      [
        "at",
        "e"
      ],
      [
        "Ġ",
        "us"
      ],
      [
        "u",
        "m"
      ],
      [
        "Ġc",
        "om"
      ],
      [
        "l",
        "d"
      ],
      [
        "a",
        "d"
      ],
      [
        "Ġe",
        "x"
      ],
      [
        "k",
        "e"
      ],
      [
        "Ġ",
        "S"
      ],
      [
        "er",
        "s"
      ],
      [
        "q",
        "u"
      ],
      [
        "Ġa",
        "l"
      ],
      [
        "Ġw",
        "h"
      ],
      [
        "ĠĠ",
        "Ġ"
      ],
      [
        "Ġ",
        "he"
      ],
      [
        "es",
        "s"
      ],
      [
        "u",
        "re"
      ],
      [
        "Ġd",
        "e"
      ],
      [
        "ist",
        "ant"
      ],
      [
        "Ġyou",
        "r"
      ],
      [
        "p",
        "e"
      ],
      [
        "Ġ",
        "C"
      ],
      [
        "Ġ",
        "v"
      ],
      [
        "r",
        "i"
      ],
      [
        "a",
        "b"
      ],
      [
        "t",
        "er"
      ],
      [
        "us",
        "er"
      ],
      [
        "ass",
        "istant"
      ],
      [
        "he",
        "r"
      ],
      [
        "o",
        "p"
      ],
      [
        "e",
        "re"
      ],
      [
        "Ġh",
        "a"
      ],
      [
        "o",
        "re"
      ],
      [
        "p",
        "l"
      ],
      [
        "e",
        "m"
      ],
      [
        "ĠT",
        "he"
      ],
      [
        "ou",
        "t"
      ],
      [
        "c",
        "k"
      ],
      [
        "it",
        "y"
      ],
      [
        "es",
        "t"
      ],
      [
        "'",
        "s"
      ],
      [
        "or",
        "t"
      ],
      [
        "ou",
        "ld"
      ],
      [
        "Ġs",
        "u"
      ],
      [
        "p",
        "t"
      ],
      [
        "m",
        "ent"
      ],
      [
        "a",
        "in"
      ],
      [
        "Ġn",
        "e"
      ],
      [
        "il",
        "l"
      ],
      [
        "ig",
        "h"
      ],
      [
        "Ġ",
        "P"
      ],
      [
        "i",
        "ve"
      ],
      [
        "t",
        "h"
      ],
      [
        "o",
        "s"
      ],
      [
        "e",
        "ct"
      ],
      [
        "Ġ",
        "im"
      ],
      [
        "Ġ",
        "\""
      ],
      [
        "n",
        "t"
      ],
      [
        "Ġ",
        "le"
      ],
      [
        "Ġ",
        "r"
      ],
      [
        "Ġc",
        "h"
      ],
      [
        "i",
        "es"
      ],
      [
        "a",
        "ge"
      ],
      [
        "Ġ",
        "H"
      ],
      [
        "p",
        "le"
      ],
      [
        "Ġ",
        "("
      ],
      [
        "Ġ",
        "M"
      ],
      [
        "ion",
        "s"
      ],
      [
        "i",
        "z"
      ],
      [
        "Ġb",
        "y"
      ],
      [
        "om",
        "e"
      ],
      [
        "ro",
        "m"
      ],
      [
        "Ġm",
        "e"
      ],
      [
        "in",
        "e"
      ],
      [
        "Ġha",
        "ve"
      ],
      [
        "Ġm",
        "a"
      ],
      [
        "igh",
        "t"
      ],
      [
        "p",
        "p"
      ],
      [
        "i",
        "al"
      ],
      [
        "Ġp",
        "l"
      ],
      [
        "i",
        "v"
      ],
      [
        "Ġs",
        "e"
      ],
      [
        "Ġ",
        "en"
      ],
      [
        "o",
        "c"
      ],
      [
        "a",
        "nd"
      ],
      [
        "Ġs",
        "h"
      ],
      [
        "Ġw",
        "or"
      ],
      [
        "Ġn",
        "ot"
      ],
      [
        "ic",
        "al"
      ],
      [
        "id",
        "e"
      ],
      [
        "p",
        "er"
      ],
      [
        "am",
        "e"
      ],
      [
        "re",
        "s"
      ],
      [
        "u",
        "d"
      ],
      [
        "Ġ",
        "1"
      ],
      [
        "al",
        "l"
      ],
      [
        "ou",
        "r"
      ],
      [
        "Ġ",
        "u"
      ],
      [
        "Ġ",
        "W"
      ],
      [
        "Ġ",
        "D"
      ],
      [
        "ar",
        "t"
      ],
      [
        "Ġf",
        "rom"
      ],
      [
        "Ġ",
        "E"
      ],
      [
        "Ġin",
        "t"
      ],
      [
        "Ġa",
        "b"
      ],
      [
        "Ġ",
        "B"
      ],
      [
        "el",
        "l"
      ],
      [
        "a",
        "ct"
      ],
      [
        "Ġ",
        "F"
      ],
      [
        "o",
        "g"
      ],
      [
        "Ġ",
        "="
      ],
      [
        "`",
        "`"
      ],
      [
        "t",
        "her"
      ],
      [
        "i",
        "le"
      ],
      [
        "Ġ",
        "R"
      ],
      [
        "f",
        "or"
      ],
      [
        "Ġa",
        "d"
      ],
      [
        "Ġw",
        "e"
      ],
      [
        "ĠĠĠĠ",
        "ĠĠĠĠ"
      ],
      [
        "us",
        "t"
      ],
      [
        "Ġ",
        "G"
      ],
      [
        "c",
        "l"
      ],
      [
        "ic",
        "h"
      ],
      [
        "Ġa",
        "t"
      ],
      [
        "a",
        "re"
      ],
      [
        "Ġim",
        "p"
      ],
      [
        "Ġcon",
        "t"
      ],
      [
        "Ġcom",
        "p"
      ],
      [
        "ab",
        "le"
      ],
      [
        "Ġd",
        "o"
      ],
      [
        "Ġ",
        "k"
      ],
      [
        "ul",
        "t"
      ],
      [
        "h",
        "is"
      ],
      [
        "a",
        "g"
      ],
      [
        "ar",
        "d"
      ],
      [
        "an",
        "g"
      ],
      [
        "Ġ",
        "L"
      ],
      [
        "i",
        "b"
      ],
      [
        "Ġth",
        "is"
      ],
      [
        "r",
        "ou"
      ],
      [
        "ation",
        "s"
      ],
      [
        "in",
        "d"
      ],
      [
        "Ġm",
        "ore"
      ],
      [
        "e",
        "p"
      ],
      [
        "for",
        "m"
      ],
      [
        "r",
        "y"
      ],
      [
        "Ġw",
        "ill"
      ],
      [
        "T",
        "he"
      ],
      [
        "ct",
        "ion"
      ],
      [
        "i",
        "e"
      ],
      [
        "ve",
        "l"
      ],
      [
        "u",
        "e"
      ],
      [
        "Ġc",
        "re"
      ],
      [
        "Ġthe",
        "ir"
      ],
      [
        "Ġo",
        "ther"
      ],
      [
        "c",
        "ess"
      ],
      [
        "Ġre",
        "s"
      ],
      [
        "f",
        "f"
      ],
      [
        "Ġ",
        "un"
      ],
      [
        "l",
        "ow"
      ],
      [
        "an",
        "ce"
      ],
      [
        "Ġt",
        "e"
      ],
      [
        "a",
        "ck"
      ],
      [
        "Ġwh",
        "ich"
      ],
      [
        "-",
        "-"
      ],
      [
        "k",
        "ing"
      ],
      [
        "i",
        "re"
      ],
      [
        "Ġs",
        "c"
      ],
      [
        "Ġw",
        "as"
      ],
      [
        "Ġ",
        "qu"
      ],
      [
        "Ġs",
        "ome"
      ],
      [
        "d",
        "u"
      ],
      [
        "g",
        "h"
      ],
      [
        "s",
        "o"
      ],
      [
        "an",
        "s"
      ],
      [
        "c",
        "es"
      ],
      [
        "as",
        "e"
      ],
      [
        "en",
        "ce"
      ],
      [
        "Ġw",
        "he"
      ],
      [
        "Ġg",
        "o"
      ],
      [
        "im",
        "e"
      ],
      [
        "l",
        "p"
      ],
      [
        "Ġus",
        "e"
      ],
      [
        "Ġ",
        "2"
      ],
      [
        "ĠT",
        "his"
      ],
      [
        "it",
        "e"
      ],
      [
        "Ġm",
        "od"
      ],
      [
        "o",
        "st"
      ],
      [
        "Ġ",
        "-"
      ],
      [
        "at",
        "ed"
      ],
      [
        "ou",
        "s"
      ],
      [
        "Ġhe",
        "lp"
      ],
      [
        "Ġsu",
        "ch"
      ],
      [
        "Ġl",
        "i"
      ],
      [
        "Ġt",
        "ra"
      ],
      [
        "as",
        "t"
      ],
      [
        "a",
        "ch"
      ],
      [
        "Ġc",
        "l"
      ],
      [
        "Ġb",
        "ut"
      ],
      [
        "if",
        "f"
      ],
      [
        "Ġh",
        "as"
      ],
      [
        "Ġ",
        "O"
      ],
      [
        "Ġd",
        "at"
      ],
      [
        "Ġs",
        "pe"
      ],
      [
        "o",
        "o"
      ],
      [
        "Ġs",
        "o"
      ],
      [
        "or",
        "y"
      ],
      [
        "Ġf",
        "e"
      ],
      [
        "Ġm",
        "an"
      ],
      [
        "ig",
        "n"
      ],
      [
        "on",
        "g"
      ],
      [
        "Ġs",
        "y"
      ],
      [
        "h",
        "at"
      ],
      [
        "k",
        "s"
      ],
      [
        "ic",
        "e"
      ],
      [
        "Ġ",
        "N"
      ],
      [
        "if",
        "ic"
      ],
      [
        "Ġ",
        "j"
      ],
      [
        "Ġ",
        "U"
      ],
      [
        "Ġthe",
        "y"
      ],
      [
        "x",
        "t"
      ],
      [
        "a",
        "v"
      ],
      [
        "a",
        "p"
      ],
      [
        "Ġ",
        "if"
      ],
      [
        "Ġd",
        "iff"
      ],
      [
        "Ġa",
        "c"
      ],
      [
        "cl",
        "ud"
      ],
      [
        "Ġw",
        "ould"
      ],
      [
        "ar",
        "y"
      ],
      [
        "a",
        "ce"
      ],
      [
        "i",
        "p"
      ],
      [
        "Ġan",
        "y"
      ],
      [
        "Ġm",
        "ay"
      ],
      [
        "Ġal",
        "so"
      ],
      [
        "Ġcom",
        "m"
      ],
      [
        "a",
        "c"
      ],
      [
        "Ġa",
        "r"
      ],
      [
        "Ġne",
        "ed"
      ],
      [
        "it",
        "ion"
      ],
      [
        "in",
        "t"
      ],
      [
        "Ġab",
        "out"
      ],
      [
        "u",
        "al"
      ],
      [
        "od",
        "e"
      ],
      [
        "j",
        "ect"
      ],
      [
        "n",
        "ow"
      ],
      [
        "Ġ",
        "out"
      ],
      [
        "Ġin",
        "clud"
      ],
      [
        "ĠĠĠĠ",
        "ĠĠĠ"
      ],
      [
        "Ġm",
        "y"
      ],
      [
        "r",
        "u"
      ],
      [
        "0",
        "0"
      ],
      [
        "Ġ",
        "ro"
      ],
      [
        "Ġli",
        "ke"
      ],
      [
        "st",
        "em"
      ],
      [
        "on",
        "e"
      ],
      [
        "Ġu",
        "p"
      ],
      [
        "res",
        "s"
      ],
      [
        "i",
        "ent"
      ],
      [
        "ĠI",
        "t"
      ],
      [
        "Ġcon",
        "s"
      ],
      [
        "Ġd",
        "is"
      ],
      [
        "Ġit",
        "s"
      ],
      [
        "Ġp",
        "re"
      ],
      [
        "or",
        "s"
      ],
      [
        "Ġf",
        "un"
      ],
      [
        "Ġdat",
        "a"
      ],
      [
        "Ġh",
        "ow"
      ],
      [
        "Ġe",
        "v"
      ],
      [
        "Ġt",
        "ime"
      ],
      [
        "en",
        "s"
      ],
      [
        "Ġpro",
        "v"
      ],
      [
        "Ġp",
        "er"
      ],
      [
        "nd",
        "er"
      ],
      [
        "b",
        "er"
      ],
      [
        "Ġthe",
        "m"
      ],
      [
        "r",
        "am"
      ],
      [
        "c",
        "on"
      ],
      [
        "Ġus",
        "ing"
      ],
      [
        "l",
        "o"
      ],
      [
        "n",
        "ing"
      ],
      [
        "et",
        "w"
      ],
      [
        "Ġ",
        "Y"
      ],
      [
        "ĠI",
        "n"
      ],
      [
        "``",
        "`"
      ],
      [
        "Ġal",
        "l"
      ],
      [
        "Ġspe",
        "c"
      ],
      [
        "Ġus",
        "ed"
      ],
      [
        "Ġd",
        "es"
      ],
      [
        "Ġk",
        "now"
      ],
      [
        "Ġs",
        "p"
      ],
      [
        "Ġex",
        "am"
      ],
      [
        "ar",
        "i"
      ],
      [
        "Ġc",
        "ould"
      ],
      [
        "Ġt",
        "r"
      ],
      [
        "Ġsy",
        "stem"
      ],
      [
        "ic",
        "s"
      ],
      [
        "Ġon",
        "e"
      ],
      [
        "p",
        "ut"
      ],
      [
        "at",
        "ing"
      ],
      [
        "Ġdiff",
        "ere"
      ],
      [
        "en",
        "er"
      ],
      [
        "le",
        "d"
      ],
      [
        "ang",
        "u"
      ],
      [
        "Ġt",
        "a"
      ],
      [
        "ou",
        "nt"
      ],
      [
        "f",
        "t"
      ],
      [
        "Ġo",
        "ver"
      ],
      [
        "ul",
        "ar"
      ],
      [
        "Ġc",
        "ol"
      ],
      [
        "el",
        "y"
      ],
      [
        "Ġimp",
        "ort"
      ],
      [
        "Ġ",
        "J"
      ],
      [
        "Ġa",
        "m"
      ],
      [
        "Ġint",
        "o"
      ],
      [
        "at",
        "er"
      ],
      [
        "Ġthe",
        "re"
      ],
      [
        "Ġma",
        "ke"
      ],
      [
        "Ġl",
        "angu"
      ],
      [
        "Ġ",
        "3"
      ],
      [
        "Ġne",
        "w"
      ],
      [
        "vel",
        "op"
      ],
      [
        "Ġmod",
        "el"
      ],
      [
        "Ġc",
        "ode"
      ],
      [
        "iz",
        "e"
      ],
      [
        "Ġpro",
        "g"
      ],
      [
        "c",
        "om"
      ],
      [
        "or",
        "d"
      ],
      [
        "a",
        "il"
      ],
      [
        "Ġs",
        "et"
      ],
      [
        "ing",
        "s"
      ],
      [
        "il",
        "d"
      ],
      [
        "Ġs",
        "er"
      ],
      [
        "Ġh",
        "is"
      ],
      [
        "Ġp",
        "os"
      ],
      [
        "I",
        "n"
      ],
      [
        "Ġin",
        "ter"
      ],
      [
        "Ġ",
        "ke"
      ],
      [
        "u",
        "b"
      ],
      [
        "el",
        "f"
      ],
      [
        "ib",
        "le"
      ],
      [
        "Ġwh",
        "at"
      ],
      [
        "Ġu",
        "nder"
      ],
      [
        "Ġw",
        "ay"
      ],
      [
        "at",
        "es"
      ],
      [
        "ic",
        "k"
      ],
      [
        "f",
        "ul"
      ],
      [
        "at",
        "ure"
      ],
      [
        "Ġsh",
        "ould"
      ],
      [
        "Ġad",
        "d"
      ],
      [
        "Ġwh",
        "o"
      ],
      [
        "Ġp",
        "art"
      ],
      [
        "Ġwor",
        "k"
      ],
      [
        "m",
        "s"
      ],
      [
        "p",
        "en"
      ],
      [
        "Ġa",
        "p"
      ],
      [
        "Ġv",
        "al"
      ],
      [
        "o",
        "ve"
      ],
      [
        "Ġe",
        "m"
      ],
      [
        "ment",
        "s"
      ],
      [
        "Ġp",
        "h"
      ],
      [
        "ver",
        "y"
      ],
      [
        "Ġa",
        "pp"
      ],
      [
        "Ġp",
        "e"
      ],
      [
        "al",
        "ly"
      ],
      [
        "Ġs",
        "im"
      ],
      [
        "Ġh",
        "um"
      ],
      [
        "as",
        "ed"
      ],
      [
        "Ġre",
        "l"
      ],
      [
        "Ġde",
        "velop"
      ],
      [
        "â",
        "Ģ"
      ],
      [
        "Ġle",
        "ar"
      ],
      [
        "re",
        "e"
      ],
      [
        "Ġn",
        "um"
      ],
      [
        "ĠS",
        "t"
      ],
      [
        "et",
        "h"
      ],
      [
        "ver",
        "s"
      ],
      [
        "Ġp",
        "r"
      ],
      [
        "Ġg",
        "ener"
      ],
      [
        "Ġthe",
        "se"
      ],
      [
        "il",
        "ity"
      ],
      [
        "Ġpl",
        "ay"
      ],
      [
        "Ġexam",
        "ple"
      ],
      [
        "a",
        "us"
      ],
      [
        "Ġin",
        "d"
      ],
      [
        "ol",
        "og"
      ],
      [
        "Ġfun",
        "ction"
      ],
      [
        "ow",
        "er"
      ],
      [
        "Ġe",
        "ach"
      ],
      [
        "l",
        "l"
      ],
      [
        "Ġt",
        "y"
      ],
      [
        "g",
        "et"
      ],
      [
        "Ġdiffere",
        "nt"
      ],
      [
        "ri",
        "b"
      ],
      [
        "Ġ",
        "čĊ"
      ],
      [
        "Ġe",
        "ff"
      ],
      [
        "ar",
        "k"
      ],
      [
        "on",
        "s"
      ],
      [
        "Ġre",
        "qu"
      ],
      [
        "ĠA",
        "I"
      ],
      [
        "Ġf",
        "ol"
      ],
      [
        "ent",
        "s"
      ],
      [
        "ro",
        "w"
      ],
      [
        "r",
        "it"
      ],
      [
        "'",
        "t"
      ],
      [
        "Ġb",
        "u"
      ],
      [
        "l",
        "es"
      ],
      [
        "Ġman",
        "y"
      ],
      [
        "c",
        "re"
      ],
      [
        "Ġst",
        "r"
      ],
      [
        "is",
        "h"
      ],
      [
        "Ġo",
        "b"
      ],
      [
        "rou",
        "gh"
      ],
      [
        "it",
        "ies"
      ],
      [
        "Ġin",
        "st"
      ],
      [
        "Ġin",
        "v"
      ],
      [
        "i",
        "a"
      ],
      [
        "Ġcre",
        "ate"
      ],
      [
        "ĠY",
        "ou"
      ],
      [
        "Ġg",
        "et"
      ],
      [
        "Ġprog",
        "ram"
      ],
      [
        "Ġa",
        "ct"
      ],
      [
        "Ġp",
        "ers"
      ],
      [
        "ri",
        "pt"
      ],
      [
        "Ġwhe",
        "n"
      ],
      [
        "an",
        "ge"
      ],
      [
        "Ġlangu",
        "age"
      ],
      [
        "p",
        "h"
      ],
      [
        "Ġs",
        "m"
      ],
      [
        "ou",
        "nd"
      ],
      [
        "y",
        "s"
      ],
      [
        "o",
        "se"
      ],
      [
        "Ġ",
        "{"
      ],
      [
        "Ġimport",
        "ant"
      ],
      [
        "Ġ",
        "ra"
      ],
      [
        "Ġpro",
        "cess"
      ],
      [
        "e",
        "en"
      ],
      [
        "o",
        "v"
      ],
      [
        "Ġv",
        "ari"
      ],
      [
        "e",
        "ver"
      ],
      [
        "le",
        "ct"
      ],
      [
        "ĠH",
        "ow"
      ],
      [
        "at",
        "h"
      ],
      [
        "pl",
        "ic"
      ],
      [
        "t",
        "e"
      ],
      [
        "ur",
        "n"
      ],
      [
        "Ġw",
        "ant"
      ],
      [
        "al",
        "s"
      ],
      [
        "t",
        "ain"
      ],
      [
        "Ġfol",
        "low"
      ],
      [
        "ag",
        "es"
      ],
      [
        "ou",
        "gh"
      ],
      [
        "Ġwor",
        "ld"
      ],
      [
        "at",
        "ive"
      ],
      [
        "etw",
        "een"
      ],
      [
        "e",
        "ar"
      ],
      [
        "o",
        "od"
      ],
      [
        "ic",
        "t"
      ],
      [
        "Ġt",
        "w"
      ],
      [
        "Ġb",
        "etween"
      ],
      [
        "rou",
        "nd"
      ],
      [
        "W",
        "hat"
      ],
      [
        "Ġpro",
        "du"
      ],
      [
        "ch",
        "n"
      ],
      [
        "Ġth",
        "an"
      ],
      [
        "Ġwhe",
        "re"
      ],
      [
        "Ġ",
        "|"
      ],
      [
        "Ġcomp",
        "ut"
      ],
      [
        "n",
        "e"
      ],
      [
        "Ġex",
        "pl"
      ],
      [
        "c",
        "ur"
      ],
      [
        "--",
        "--"
      ],
      [
        "Ġd",
        "et"
      ],
      [
        "Ġas",
        "s"
      ],
      [
        "Ġex",
        "per"
      ],
      [
        "is",
        "e"
      ],
      [
        "Ġth",
        "rough"
      ],
      [
        "st",
        "and"
      ],
      [
        "form",
        "ation"
      ],
      [
        "s",
        "s"
      ],
      [
        "op",
        "le"
      ],
      [
        "ĠI",
        "f"
      ],
      [
        "Ġ",
        "V"
      ],
      [
        "i",
        "ence"
      ],
      [
        "oo",
        "k"
      ],
      [
        "ot",
        "h"
      ],
      [
        "a",
        "k"
      ],
      [
        "Ġm",
        "ost"
      ],
      [
        "p",
        "s"
      ],
      [
        "(",
        ")"
      ],
      [
        "y",
        "th"
      ],
      [
        "er",
        "m"
      ],
      [
        "Ġp",
        "o"
      ],
      [
        "e",
        "f"
      ],
      [
        "i",
        "ous"
      ],
      [
        "Ġof",
        "f"
      ],
      [
        "ow",
        "n"
      ],
      [
        "ent",
        "ial"
      ],
      [
        "â",
        "Ķ"
      ],
      [
        "Ġre",
        "g"
      ],
      [
        "t",
        "ing"
      ],
      [
        "c",
        "ed"
      ],
      [
        "Ġfor",
        "m"
      ],
      [
        "ra",
        "ct"
      ],
      [
        "w",
        "n"
      ],
      [
        "r",
        "ite"
      ],
      [
        "ir",
        "st"
      ],
      [
        "Ġwh",
        "ile"
      ],
      [
        "o",
        "b"
      ],
      [
        "t",
        "en"
      ],
      [
        "d",
        "s"
      ],
      [
        "w",
        "are"
      ],
      [
        "âĶ",
        "Ģ"
      ],
      [
        "Ġte",
        "chn"
      ],
      [
        "\"",
        ","
      ],
      [
        "Ġ",
        "K"
      ],
      [
        "Ġc",
        "ur"
      ],
      [
        "ic",
        "es"
      ],
      [
        "Ġde",
        "p"
      ],
      [
        "ter",
        "n"
      ],
      [
        "Ġcom",
        "ple"
      ],
      [
        "g",
        "g"
      ],
      [
        "Ġ",
        "'"
      ],
      [
        "Ġpe",
        "ople"
      ],
      [
        "Ġbe",
        "en"
      ],
      [
        "Ġad",
        "v"
      ],
      [
        "Ġat",
        "t"
      ],
      [
        "Ġst",
        "art"
      ],
      [
        "Ġg",
        "ame"
      ],
      [
        "Ġprov",
        "ide"
      ],
      [
        "it",
        "s"
      ],
      [
        "Ġthe",
        "n"
      ],
      [
        "*",
        "*"
      ],
      [
        "Ġtw",
        "o"
      ],
      [
        "Ġf",
        "ind"
      ],
      [
        "Ġbe",
        "c"
      ],
      [
        "Ġtr",
        "ans"
      ],
      [
        "b",
        "le"
      ],
      [
        "Ġunder",
        "stand"
      ],
      [
        "Ġc",
        "al"
      ],
      [
        "if",
        "e"
      ],
      [
        "Ġl",
        "ar"
      ],
      [
        "ce",
        "pt"
      ],
      [
        "Ġ",
        "<"
      ],
      [
        "Ġc",
        "o"
      ],
      [
        "Ġpers",
        "on"
      ],
      [
        "Ġin",
        "formation"
      ],
      [
        "Ġf",
        "ile"
      ],
      [
        "n",
        "g"
      ],
      [
        "Ġs",
        "ol"
      ],
      [
        "aus",
        "e"
      ],
      [
        "yth",
        "on"
      ],
      [
        "u",
        "es"
      ],
      [
        "Ġinclud",
        "ing"
      ],
      [
        "Ġde",
        "f"
      ],
      [
        "Ġhum",
        "an"
      ],
      [
        "Ġp",
        "ol"
      ],
      [
        "Ġn",
        "o"
      ],
      [
        "al",
        "ity"
      ],
      [
        "Ġspec",
        "ific"
      ],
      [
        "Ġtra",
        "in"
      ],
      [
        "Ġqu",
        "est"
      ],
      [
        "n",
        "ess"
      ],
      [
        "Ġgo",
        "od"
      ],
      [
        "ru",
        "ct"
      ],
      [
        "Ġl",
        "ist"
      ],
      [
        "Ġh",
        "igh"
      ],
      [
        "Ġc",
        "he"
      ],
      [
        "Ġ",
        "`"
      ],
      [
        "pe",
        "ct"
      ],
      [
        "Ġch",
        "ar"
      ],
      [
        "ur",
        "al"
      ],
      [
        ".",
        "."
      ],
      [
        "Ġre",
        "m"
      ],
      [
        "Ġre",
        "c"
      ],
      [
        "Ġm",
        "at"
      ],
      [
        "Ġw",
        "ell"
      ],
      [
        "re",
        "at"
      ],
      [
        "âĶĢ",
        "âĶĢ"
      ],
      [
        "ur",
        "ing"
      ],
      [
        "Ġr",
        "un"
      ],
      [
        "Ġs",
        "a"
      ],
      [
        "er",
        "g"
      ],
      [
        "Ġp",
        "ower"
      ],
      [
        "Ġal",
        "low"
      ],
      [
        "Ġcons",
        "id"
      ],
      [
        "Ġin",
        "f"
      ],
      [
        "Ġre",
        "p"
      ],
      [
        "Ġte",
        "xt"
      ],
      [
        "Ġpos",
        "s"
      ],
      [
        "c",
        "y"
      ],
      [
        "ay",
        "s"
      ],
      [
        "Ġw",
        "ere"
      ],
      [
        "he",
        "s"
      ],
      [
        "e",
        "g"
      ],
      [
        "Ġb",
        "ack"
      ],
      [
        "ie",
        "w"
      ],
      [
        "o",
        "y"
      ],
      [
        "Ġj",
        "ust"
      ],
      [
        "pp",
        "ort"
      ],
      [
        "le",
        "ase"
      ],
      [
        "d",
        "er"
      ],
      [
        "Ġf",
        "irst"
      ],
      [
        "H",
        "ow"
      ],
      [
        "Ġre",
        "t"
      ],
      [
        "Ġd",
        "ist"
      ],
      [
        "i",
        "qu"
      ],
      [
        "Ġs",
        "k"
      ],
      [
        "Ġo",
        "wn"
      ],
      [
        "Ġwe",
        "b"
      ],
      [
        "Ġm",
        "ain"
      ],
      [
        "v",
        "es"
      ],
      [
        "or",
        "k"
      ],
      [
        "a",
        "ke"
      ],
      [
        "Ġke",
        "y"
      ],
      [
        "ĠHow",
        "ever"
      ],
      [
        "/",
        "/"
      ],
      [
        "Ġs",
        "ign"
      ],
      [
        "Ġre",
        "f"
      ],
      [
        "iz",
        "ed"
      ],
      [
        "Ġa",
        "g"
      ],
      [
        "v",
        "ing"
      ],
      [
        "Ġ",
        "0"
      ],
      [
        "ar",
        "ch"
      ],
      [
        "ĠF",
        "or"
      ],
      [
        "ere",
        "d"
      ],
      [
        "rib",
        "ut"
      ],
      [
        "Ġf",
        "il"
      ],
      [
        "Ġf",
        "l"
      ],
      [
        "Ġ",
        "5"
      ],
      [
        "ical",
        "ly"
      ],
      [
        "Ġp",
        "op"
      ],
      [
        "Ġnum",
        "ber"
      ],
      [
        "et",
        "y"
      ],
      [
        "he",
        "n"
      ],
      [
        "Ġ",
        "our"
      ],
      [
        "Ġ",
        "4"
      ],
      [
        "Ġa",
        "v"
      ],
      [
        "Ġbe",
        "ing"
      ],
      [
        "re",
        "nt"
      ],
      [
        "ĠC",
        "h"
      ],
      [
        "Ġs",
        "oc"
      ],
      [
        "Ġpl",
        "an"
      ],
      [
        "Ġh",
        "ad"
      ],
      [
        "Ġimp",
        "ro"
      ],
      [
        "re",
        "ad"
      ],
      [
        "Ġle",
        "ad"
      ],
      [
        "Ġ",
        "+"
      ],
      [
        "Ġres",
        "p"
      ],
      [
        "in",
        "k"
      ],
      [
        "Ġst",
        "ep"
      ],
      [
        "Ġ",
        "ide"
      ],
      [
        "Ġo",
        "pt"
      ],
      [
        "ĠĠĠĠĠĠĠĠ",
        "ĠĠĠĠĠĠĠĠ"
      ],
      [
        "Ġdep",
        "end"
      ],
      [
        "t",
        "y"
      ],
      [
        "al",
        "th"
      ],
      [
        "Ġg",
        "ra"
      ],
      [
        "Ġper",
        "form"
      ],
      [
        ")",
        ","
      ],
      [
        "Ġdes",
        "ign"
      ],
      [
        "Ġo",
        "pen"
      ],
      [
        "Ġl",
        "ight"
      ],
      [
        "Ġhe",
        "r"
      ],
      [
        "Ġm",
        "in"
      ],
      [
        "i",
        "an"
      ],
      [
        "Ġt",
        "as"
      ],
      [
        "en",
        "g"
      ],
      [
        "Ġb",
        "est"
      ],
      [
        "Ġde",
        "c"
      ],
      [
        "ĠH",
        "ere"
      ],
      [
        "i",
        "en"
      ],
      [
        "Ġl",
        "oc"
      ],
      [
        "Ġon",
        "ly"
      ],
      [
        "Ġf",
        "act"
      ],
      [
        "v",
        "ed"
      ],
      [
        "Ġbu",
        "ild"
      ],
      [
        "Ġf",
        "i"
      ],
      [
        "Ġha",
        "nd"
      ],
      [
        ")",
        ";"
      ],
      [
        "f",
        "ore"
      ],
      [
        "Ġob",
        "ject"
      ],
      [
        "Ġta",
        "ke"
      ],
      [
        "n",
        "ce"
      ],
      [
        "Ġm",
        "eth"
      ],
      [
        "Ġinclud",
        "e"
      ],
      [
        "d",
        "ition"
      ],
      [
        "if",
        "y"
      ],
      [
        "Ġdo",
        "es"
      ],
      [
        "p",
        "ort"
      ],
      [
        "it",
        "ed"
      ],
      [
        "Ġp",
        "ot"
      ],
      [
        "Ġe",
        "as"
      ],
      [
        "re",
        "d"
      ],
      [
        "ir",
        "on"
      ],
      [
        "Ġrequ",
        "ire"
      ],
      [
        "Ġchar",
        "act"
      ],
      [
        "Ġres",
        "ult"
      ],
      [
        "olog",
        "y"
      ],
      [
        "ure",
        "s"
      ],
      [
        "u",
        "ch"
      ],
      [
        "Ġl",
        "ife"
      ],
      [
        "Ġty",
        "p"
      ],
      [
        "Ġb",
        "ased"
      ],
      [
        "Ġsu",
        "b"
      ],
      [
        "g",
        "or"
      ],
      [
        "n",
        "ect"
      ],
      [
        "Ġ2",
        "0"
      ],
      [
        "Ġcl",
        "ass"
      ],
      [
        ")",
        "."
      ],
      [
        "ĠA",
        "d"
      ],
      [
        "ad",
        "e"
      ],
      [
        "Ġc",
        "ar"
      ],
      [
        "c",
        "ript"
      ],
      [
        "in",
        "es"
      ],
      [
        "Ġb",
        "el"
      ],
      [
        "Ġd",
        "own"
      ],
      [
        "Ġsm",
        "all"
      ],
      [
        "Ġex",
        "p"
      ],
      [
        "Ġm",
        "ed"
      ],
      [
        "Ġar",
        "t"
      ],
      [
        "Ġl",
        "ong"
      ],
      [
        "Ġse",
        "e"
      ],
      [
        "i",
        "ed"
      ],
      [
        "Ġin",
        "put"
      ],
      [
        "Ġprov",
        "id"
      ],
      [
        "Ġap",
        "plic"
      ],
      [
        "1",
        "0"
      ],
      [
        "Ġlear",
        "ning"
      ],
      [
        "ĠH",
        "e"
      ],
      [
        "Ġcomm",
        "un"
      ],
      [
        "Ġpo",
        "int"
      ],
      [
        "m",
        "ing"
      ],
      [
        "Ġt",
        "ry"
      ],
      [
        "Ġmeth",
        "od"
      ],
      [
        "Ġn",
        "ame"
      ],
      [
        "m",
        "at"
      ],
      [
        "Ġa",
        "ut"
      ],
      [
        "at",
        "her"
      ],
      [
        "s",
        "elf"
      ],
      [
        "Ġ",
        "ent"
      ],
      [
        "ra",
        "in"
      ],
      [
        "il",
        "y"
      ],
      [
        "our",
        "ce"
      ],
      [
        "Ġpro",
        "m"
      ],
      [
        "e",
        "x"
      ],
      [
        "Ġin",
        "s"
      ],
      [
        "Ġin",
        "cre"
      ],
      [
        "iv",
        "id"
      ],
      [
        "k",
        "es"
      ],
      [
        "Ġposs",
        "ible"
      ],
      [
        "v",
        "iron"
      ],
      [
        "er",
        "n"
      ],
      [
        "Ġle",
        "t"
      ],
      [
        "Ġc",
        "or"
      ],
      [
        "c",
        "ial"
      ],
      [
        "Ġg",
        "u"
      ],
      [
        "g",
        "an"
      ],
      [
        "Ġw",
        "ater"
      ],
      [
        ":",
        ":"
      ],
      [
        "w",
        "ard"
      ],
      [
        "ire",
        "ct"
      ],
      [
        "gor",
        "ith"
      ],
      [
        "a",
        "pt"
      ],
      [
        "Ġe",
        "very"
      ],
      [
        "Ġval",
        "ue"
      ],
      [
        "Ġcomple",
        "x"
      ],
      [
        "od",
        "y"
      ],
      [
        "Ġb",
        "l"
      ],
      [
        "Ġof",
        "ten"
      ],
      [
        "H",
        "ere"
      ],
      [
        "Ġd",
        "i"
      ],
      [
        "our",
        "ces"
      ],
      [
        "l",
        "ine"
      ],
      [
        "Ġev",
        "en"
      ],
      [
        "Ġto",
        "p"
      ],
      [
        "Ġhe",
        "alth"
      ],
      [
        "iz",
        "ation"
      ],
      [
        "Ġeff",
        "ect"
      ],
      [
        "pl",
        "es"
      ],
      [
        "Ġlar",
        "ge"
      ],
      [
        ")",
        ":"
      ],
      [
        "r",
        "on"
      ],
      [
        "Ġapp",
        "ro"
      ],
      [
        "h",
        "ip"
      ],
      [
        "Ġlear",
        "n"
      ],
      [
        "Ġpop",
        "ular"
      ],
      [
        "Ġex",
        "t"
      ],
      [
        "Ġfollow",
        "ing"
      ],
      [
        "Ġm",
        "ult"
      ],
      [
        "Ġf",
        "in"
      ],
      [
        "on",
        "d"
      ],
      [
        "Ġb",
        "oth"
      ],
      [
        "Ġ",
        "6"
      ],
      [
        "Ġac",
        "c"
      ],
      [
        "v",
        "ent"
      ],
      [
        "Ġfe",
        "w"
      ],
      [
        "t",
        "s"
      ],
      [
        "Ġy",
        "ear"
      ],
      [
        "Ġs",
        "ur"
      ],
      [
        "ion",
        "al"
      ],
      [
        "Ġ",
        "["
      ],
      [
        "iv",
        "es"
      ],
      [
        "erg",
        "y"
      ],
      [
        "Ġc",
        "ount"
      ],
      [
        "Ġp",
        "ar"
      ],
      [
        "a",
        "x"
      ],
      [
        "u",
        "p"
      ],
      [
        "Ġs",
        "he"
      ],
      [
        "Ġso",
        "ft"
      ],
      [
        "f",
        "ter"
      ],
      [
        "r",
        "ic"
      ],
      [
        "Ġknow",
        "n"
      ],
      [
        "r",
        "ing"
      ],
      [
        "Ġen",
        "g"
      ],
      [
        "Ġal",
        "gorith"
      ],
      [
        "T",
        "o"
      ],
      [
        "is",
        "m"
      ],
      [
        "Ġh",
        "ist"
      ],
      [
        "Ġen",
        "s"
      ],
      [
        "ĠĠĠĠĠĠĠĠ",
        "ĠĠĠ"
      ],
      [
        "ol",
        "d"
      ],
      [
        "Ġsu",
        "pport"
      ],
      [
        "Ġcur",
        "rent"
      ],
      [
        "Ġre",
        "du"
      ],
      [
        "ature",
        "s"
      ],
      [
        "ro",
        "l"
      ],
      [
        "]",
        "["
      ],
      [
        "Ġd",
        "ay"
      ],
      [
        "Ġinv",
        "ol"
      ],
      [
        "'",
        "re"
      ],
      [
        "s",
        "w"
      ],
      [
        "an",
        "y"
      ],
      [
        "Ġret",
        "urn"
      ],
      [
        "Ġen",
        "viron"
      ],
      [
        "l",
        "u"
      ],
      [
        "Ġpro",
        "per"
      ],
      [
        "Ġst",
        "ud"
      ],
      [
        "Ġre",
        "al"
      ],
      [
        "I",
        "t"
      ],
      [
        "Ġ",
        "#"
      ],
      [
        "Ġpro",
        "ject"
      ],
      [
        "c",
        "ul"
      ],
      [
        "ĠU",
        "n"
      ],
      [
        "Ġm",
        "uch"
      ],
      [
        "Ġma",
        "king"
      ],
      [
        "Ġpart",
        "ic"
      ],
      [
        "Ġpro",
        "ble"
      ],
      [
        "ri",
        "end"
      ],
      [
        "Ġcomm",
        "and"
      ],
      [
        "Ġm",
        "em"
      ],
      [
        "Ġd",
        "on"
      ],
      [
        "Ġen",
        "ergy"
      ],
      [
        "er",
        "tain"
      ],
      [
        "Ġw",
        "rit"
      ],
      [
        "Ġpot",
        "ential"
      ],
      [
        "Ġe",
        "nd"
      ],
      [
        "Ġp",
        "at"
      ],
      [
        "Ġ",
        "*"
      ],
      [
        "Ġv",
        "is"
      ],
      [
        "Ġimpro",
        "ve"
      ],
      [
        "id",
        "ent"
      ],
      [
        "Ġcon",
        "f"
      ],
      [
        "Ġus",
        "er"
      ],
      [
        "Ġbe",
        "h"
      ],
      [
        "ĠThe",
        "y"
      ],
      [
        "e",
        "c"
      ],
      [
        "s",
        "er"
      ],
      [
        "ot",
        "e"
      ],
      [
        "'",
        "m"
      ],
      [
        "con",
        "om"
      ],
      [
        "l",
        "ic"
      ],
      [
        "Ġc",
        "le"
      ],
      [
        "is",
        "s"
      ],
      [
        "Ġdevelop",
        "ment"
      ],
      [
        "ut",
        "ion"
      ],
      [
        "Ġs",
        "elf"
      ],
      [
        "Ġ",
        "}"
      ],
      [
        "et",
        "ter"
      ],
      [
        "ot",
        "her"
      ],
      [
        "v",
        "ices"
      ],
      [
        "ab",
        "ility"
      ],
      [
        "i",
        "er"
      ],
      [
        "ĠW",
        "hat"
      ],
      [
        "Ġty",
        "pe"
      ],
      [
        "Ġe",
        "qu"
      ],
      [
        "in",
        "u"
      ],
      [
        "Ġa",
        "round"
      ],
      [
        "at",
        "ely"
      ],
      [
        "Ġdis",
        "c"
      ],
      [
        "Ġr",
        "ight"
      ],
      [
        "ar",
        "m"
      ],
      [
        "Ġcon",
        "st"
      ],
      [
        "Ġ1",
        "0"
      ],
      [
        "com",
        "m"
      ],
      [
        "Ġo",
        "per"
      ],
      [
        "Ġb",
        "re"
      ],
      [
        "ivid",
        "ual"
      ],
      [
        "ind",
        "ow"
      ],
      [
        "Ġbe",
        "fore"
      ],
      [
        "ĠP",
        "ro"
      ],
      [
        "h",
        "y"
      ],
      [
        "Ġp",
        "ur"
      ],
      [
        "Ġ1",
        "9"
      ],
      [
        "Ġfi",
        "el"
      ],
      [
        "he",
        "d"
      ],
      [
        "et",
        "s"
      ],
      [
        "Ġac",
        "cess"
      ],
      [
        "Ġcomput",
        "er"
      ],
      [
        "Ġconsid",
        "er"
      ],
      [
        "res",
        "ent"
      ],
      [
        "d",
        "it"
      ],
      [
        "Ġt",
        "em"
      ],
      [
        "Ġm",
        "ight"
      ],
      [
        "Ġre",
        "ad"
      ],
      [
        "Ġfe",
        "el"
      ],
      [
        "e",
        "xt"
      ],
      [
        "Ġ",
        "8"
      ],
      [
        "Ġ",
        "$"
      ],
      [
        "Ġme",
        "an"
      ],
      [
        "ĠĠĠĠ",
        "Ġ"
      ],
      [
        "Ġtrain",
        "ing"
      ],
      [
        "Ġb",
        "o"
      ],
      [
        "Ġd",
        "irect"
      ],
      [
        "Ġcon",
        "nect"
      ],
      [
        "Ġwith",
        "out"
      ],
      [
        "Ġind",
        "ividual"
      ],
      [
        "Ġbel",
        "ie"
      ],
      [
        "oc",
        "us"
      ],
      [
        "a",
        "w"
      ],
      [
        "Ġsystem",
        "s"
      ],
      [
        "Ġs",
        "ure"
      ],
      [
        "2",
        "0"
      ],
      [
        "Ġ",
        "."
      ],
      [
        "ĠP",
        "ython"
      ],
      [
        "Ġ",
        "ve"
      ],
      [
        "Ġst",
        "ate"
      ],
      [
        "Ġm",
        "ade"
      ],
      [
        "Ġw",
        "rite"
      ],
      [
        "g",
        "in"
      ],
      [
        "ere",
        "st"
      ],
      [
        "Ġm",
        "ark"
      ],
      [
        "Ġl",
        "o"
      ],
      [
        "Ġs",
        "om"
      ],
      [
        "Ġpro",
        "t"
      ],
      [
        "Ġse",
        "ver"
      ],
      [
        "Ġprodu",
        "ct"
      ],
      [
        "Ġe",
        "le"
      ],
      [
        "Ġn",
        "etw"
      ],
      [
        "Ġma",
        "ch"
      ],
      [
        "Ġan",
        "sw"
      ],
      [
        "Ġb",
        "etter"
      ],
      [
        "ation",
        "al"
      ],
      [
        "o",
        "id"
      ],
      [
        "Ġsoft",
        "ware"
      ],
      [
        "Ġenviron",
        "ment"
      ],
      [
        "Ġex",
        "ist"
      ],
      [
        "Ġhe",
        "re"
      ],
      [
        "Ġcont",
        "ain"
      ],
      [
        "Ġ",
        "i"
      ],
      [
        "S",
        "ure"
      ],
      [
        "Ġcomm",
        "on"
      ],
      [
        "T",
        "his"
      ],
      [
        "Ġm",
        "et"
      ],
      [
        "m",
        "er"
      ],
      [
        "Ġh",
        "ard"
      ],
      [
        "Ġmult",
        "i"
      ],
      [
        "~",
        "~"
      ],
      [
        "it",
        "ive"
      ],
      [
        "Ġm",
        "on"
      ],
      [
        "e",
        "ad"
      ],
      [
        "ĠC",
        "on"
      ],
      [
        "Ġch",
        "ang"
      ],
      [
        "Ġsign",
        "ific"
      ],
      [
        "Ġ",
        "ed"
      ],
      [
        "Ġint",
        "erest"
      ],
      [
        "C",
        "an"
      ],
      [
        "Ġsim",
        "ple"
      ],
      [
        "Ġb",
        "as"
      ],
      [
        "Ġg",
        "ive"
      ],
      [
        "Ġch",
        "all"
      ],
      [
        "Ġsever",
        "al"
      ],
      [
        "t",
        "o"
      ],
      [
        "ess",
        "age"
      ],
      [
        "Ġimp",
        "act"
      ],
      [
        "a",
        "ir"
      ],
      [
        "re",
        "n"
      ],
      [
        "Ġe",
        "conom"
      ],
      [
        "s",
        "c"
      ],
      [
        "ĠA",
        "n"
      ],
      [
        "Ġab",
        "le"
      ],
      [
        "Ġstep",
        "s"
      ],
      [
        "u",
        "c"
      ],
      [
        "Ġc",
        "ult"
      ],
      [
        ".",
        "\""
      ],
      [
        "=",
        "\""
      ],
      [
        "ĠE",
        "x"
      ],
      [
        "ual",
        "ly"
      ],
      [
        "Ġl",
        "ay"
      ],
      [
        "(",
        "\""
      ],
      [
        "Ġm",
        "us"
      ],
      [
        "Ġha",
        "pp"
      ],
      [
        "Ġst",
        "ill"
      ],
      [
        "Ġsc",
        "ript"
      ],
      [
        "S",
        "t"
      ],
      [
        "Ġto",
        "ol"
      ],
      [
        "ar",
        "s"
      ],
      [
        "ĠO",
        "pen"
      ],
      [
        "iqu",
        "e"
      ],
      [
        "Â",
        "ł"
      ],
      [
        "n",
        "ame"
      ],
      [
        "Ġl",
        "im"
      ],
      [
        "_",
        "_"
      ],
      [
        "ple",
        "ment"
      ],
      [
        "y",
        "le"
      ],
      [
        "Ġcont",
        "rol"
      ],
      [
        "Ġbec",
        "ause"
      ],
      [
        "at",
        "ch"
      ],
      [
        "Ġs",
        "um"
      ],
      [
        "Ġr",
        "ange"
      ],
      [
        "am",
        "es"
      ],
      [
        "t",
        "on"
      ],
      [
        "Ġp",
        "ass"
      ],
      [
        "Ġquest",
        "ions"
      ],
      [
        "a",
        "ve"
      ],
      [
        "b",
        "o"
      ],
      [
        "Ġke",
        "ep"
      ],
      [
        "en",
        "se"
      ],
      [
        "Ġtas",
        "ks"
      ],
      [
        "t",
        "t"
      ],
      [
        "n",
        "er"
      ],
      [
        "ĠA",
        "s"
      ],
      [
        "i",
        "x"
      ],
      [
        "Ġph",
        "ys"
      ],
      [
        "Ġc",
        "ent"
      ],
      [
        "o",
        "ck"
      ],
      [
        "v",
        "ice"
      ],
      [
        "Ġg",
        "row"
      ],
      [
        "Ġf",
        "ood"
      ],
      [
        "#",
        "#"
      ],
      [
        "re",
        "am"
      ],
      [
        "Ġm",
        "ove"
      ],
      [
        "Ġd",
        "uring"
      ],
      [
        "ib",
        "r"
      ],
      [
        "âĢ",
        "Ļ"
      ],
      [
        "Ġst",
        "ruct"
      ],
      [
        "Ġe",
        "l"
      ],
      [
        "Ġprogram",
        "ming"
      ],
      [
        "p",
        "ro"
      ],
      [
        "Ġcharact",
        "er"
      ],
      [
        "Ġout",
        "put"
      ],
      [
        "c",
        "ing"
      ],
      [
        "Ġp",
        "ract"
      ],
      [
        "----",
        "----"
      ],
      [
        "Ġst",
        "ory"
      ],
      [
        "Ġens",
        "ure"
      ],
      [
        "Y",
        "ou"
      ],
      [
        "d",
        "ay"
      ],
      [
        "Ġc",
        "ap"
      ],
      [
        "Ġf",
        "am"
      ],
      [
        "b",
        "ers"
      ],
      [
        "im",
        "es"
      ],
      [
        "Ġpro",
        "f"
      ],
      [
        "c",
        "i"
      ],
      [
        "Ġ",
        "very"
      ],
      [
        "Ġim",
        "age"
      ],
      [
        "ust",
        "om"
      ],
      [
        "Ġsignific",
        "ant"
      ],
      [
        "at",
        "or"
      ],
      [
        "ar",
        "th"
      ],
      [
        "ĠT",
        "o"
      ],
      [
        "Ġcon",
        "cept"
      ],
      [
        "ĠThe",
        "se"
      ],
      [
        "ra",
        "y"
      ],
      [
        "Ġle",
        "vel"
      ],
      [
        "v",
        "en"
      ],
      [
        "in",
        "ce"
      ],
      [
        "ill",
        "s"
      ],
      [
        "Ġeff",
        "ic"
      ],
      [
        "t",
        "le"
      ],
      [
        "Ġf",
        "ound"
      ],
      [
        "Ġm",
        "ov"
      ],
      [
        "as",
        "es"
      ],
      [
        "Ġre",
        "se"
      ],
      [
        "Ġexpl",
        "ain"
      ],
      [
        "eth",
        "ing"
      ],
      [
        "g",
        "er"
      ],
      [
        "Ġs",
        "ame"
      ],
      [
        "Ġp",
        "ri"
      ],
      [
        "Ġm",
        "ust"
      ],
      [
        "Ġ",
        "x"
      ],
      [
        "Ġf",
        "ocus"
      ],
      [
        "Ġsoc",
        "ial"
      ],
      [
        "ver",
        "se"
      ],
      [
        "Ġb",
        "r"
      ],
      [
        "Ġg",
        "reat"
      ],
      [
        "um",
        "ent"
      ],
      [
        "i",
        "or"
      ],
      [
        "l",
        "i"
      ],
      [
        "as",
        "h"
      ],
      [
        "gg",
        "est"
      ],
      [
        "^",
        "^"
      ],
      [
        "A",
        "s"
      ],
      [
        "in",
        "ess"
      ],
      [
        "w",
        "ays"
      ],
      [
        "Ġf",
        "riend"
      ],
      [
        "Ġag",
        "ain"
      ],
      [
        "at",
        "a"
      ],
      [
        "ent",
        "ion"
      ],
      [
        "Ġexper",
        "ience"
      ],
      [
        "il",
        "ities"
      ],
      [
        "he",
        "re"
      ],
      [
        "Ġl",
        "ess"
      ],
      [
        "t",
        "ed"
      ],
      [
        "t",
        "il"
      ],
      [
        "ist",
        "s"
      ],
      [
        "Ġres",
        "ources"
      ],
      [
        "o",
        "ice"
      ],
      [
        "Ġb",
        "i"
      ],
      [
        "ri",
        "es"
      ],
      [
        "are",
        "d"
      ],
      [
        "I",
        "f"
      ],
      [
        "Ġsu",
        "ggest"
      ],
      [
        "ĠR",
        "e"
      ],
      [
        "pl",
        "ay"
      ],
      [
        "Ġother",
        "s"
      ],
      [
        "p",
        "o"
      ],
      [
        "al",
        "e"
      ],
      [
        "ĠD",
        "e"
      ],
      [
        "Ġ",
        "z"
      ],
      [
        "Ġs",
        "w"
      ],
      [
        "Ġor",
        "der"
      ],
      [
        "os",
        "s"
      ],
      [
        "Ġa",
        "fter"
      ],
      [
        "iv",
        "en"
      ],
      [
        "ater",
        "ial"
      ],
      [
        "Ġto",
        "o"
      ],
      [
        "Ġweb",
        "s"
      ],
      [
        "'",
        ","
      ],
      [
        "Ġ",
        "er"
      ],
      [
        "ĠS",
        "ome"
      ],
      [
        "Ġa",
        "ir"
      ],
      [
        "Ġav",
        "ail"
      ],
      [
        "Ġunderstand",
        "ing"
      ],
      [
        "y",
        "n"
      ],
      [
        "v",
        "al"
      ],
      [
        "Ġfact",
        "ors"
      ],
      [
        "Ġb",
        "lo"
      ],
      [
        "ul",
        "l"
      ],
      [
        "Ġperson",
        "al"
      ],
      [
        "Ġor",
        "gan"
      ],
      [
        "Ġcal",
        "led"
      ],
      [
        "ut",
        "ure"
      ],
      [
        "iv",
        "ity"
      ],
      [
        "Ġmach",
        "ine"
      ],
      [
        "ic",
        "ult"
      ],
      [
        "Ġneed",
        "s"
      ],
      [
        "Âł",
        "Âł"
      ],
      [
        "an",
        "k"
      ],
      [
        "v",
        "iew"
      ],
      [
        "Ġam",
        "ount"
      ],
      [
        "ant",
        "um"
      ],
      [
        "Ġansw",
        "er"
      ],
      [
        "oo",
        "king"
      ],
      [
        "Ġis",
        "s"
      ],
      [
        "av",
        "a"
      ],
      [
        "th",
        "ing"
      ],
      [
        "ĠA",
        "l"
      ],
      [
        "'",
        "ll"
      ],
      [
        "oo",
        "se"
      ],
      [
        "comm",
        "end"
      ],
      [
        "Ġw",
        "id"
      ],
      [
        "Ġf",
        "ree"
      ],
      [
        "Ġpl",
        "ace"
      ],
      [
        "1",
        "1"
      ],
      [
        "Ġth",
        "ough"
      ],
      [
        "Ġ",
        "7"
      ],
      [
        "Ġvari",
        "ous"
      ],
      [
        "Ġsom",
        "ething"
      ],
      [
        "r",
        "or"
      ],
      [
        "Ġh",
        "im"
      ],
      [
        "The",
        "re"
      ],
      [
        "00",
        "0"
      ],
      [
        "Ġmodel",
        "s"
      ],
      [
        "Ġth",
        "ose"
      ],
      [
        "Ġfe",
        "atures"
      ],
      [
        "in",
        "ed"
      ],
      [
        "Ġperform",
        "ance"
      ],
      [
        "n",
        "ces"
      ],
      [
        "ro",
        "ss"
      ],
      [
        "Ġv",
        "ide"
      ],
      [
        "Ġt",
        "est"
      ],
      [
        "Ġch",
        "ange"
      ],
      [
        "Ġhist",
        "ory"
      ],
      [
        "Ġchall",
        "eng"
      ],
      [
        "Ġt",
        "er"
      ],
      [
        "ub",
        "lic"
      ],
      [
        "Ġdet",
        "erm"
      ],
      [
        "Ġre",
        "commend"
      ],
      [
        "r",
        "al"
      ],
      [
        "Ġ",
        "vers"
      ],
      [
        "Ġim",
        "plement"
      ],
      [
        "e",
        "e"
      ],
      [
        "at",
        "ural"
      ],
      [
        "Ġth",
        "ings"
      ],
      [
        "Ġan",
        "al"
      ],
      [
        "Ġbeh",
        "av"
      ],
      [
        "at",
        "form"
      ],
      [
        "Ġs",
        "it"
      ],
      [
        "ĠC",
        "om"
      ],
      [
        "â",
        "ĸ"
      ],
      [
        "in",
        "s"
      ],
      [
        "Ġl",
        "ine"
      ],
      [
        "ant",
        "s"
      ],
      [
        "Ġdiff",
        "icult"
      ],
      [
        "Ġadd",
        "ition"
      ],
      [
        "Ġen",
        "c"
      ],
      [
        "Ġquest",
        "ion"
      ],
      [
        "Ġr",
        "is"
      ],
      [
        "Ġcom",
        "b"
      ],
      [
        "Ġsh",
        "ow"
      ],
      [
        "in",
        "al"
      ],
      [
        "Ġin",
        "c"
      ],
      [
        "ĠThe",
        "re"
      ],
      [
        "Ġinst",
        "all"
      ],
      [
        "Ġc",
        "ell"
      ],
      [
        "Ġre",
        "st"
      ],
      [
        "Ġg",
        "rou"
      ],
      [
        "Ġwor",
        "ks"
      ],
      [
        "Ġf",
        "uture"
      ],
      [
        "us",
        "s"
      ],
      [
        "Ġyear",
        "s"
      ],
      [
        "l",
        "ing"
      ],
      [
        "Ġus",
        "es"
      ],
      [
        "o",
        "pe"
      ],
      [
        "Ġal",
        "ways"
      ],
      [
        "ĠU",
        "se"
      ],
      [
        "Ġcol",
        "or"
      ],
      [
        "Ġinf",
        "lu"
      ],
      [
        "Ġc",
        "ustom"
      ],
      [
        "el",
        "s"
      ],
      [
        "ab",
        "les"
      ],
      [
        "Ġar",
        "g"
      ],
      [
        "on",
        "se"
      ],
      [
        "Ġgener",
        "al"
      ],
      [
        "d",
        "e"
      ],
      [
        "ĠA",
        "r"
      ],
      [
        "Ġalgorith",
        "m"
      ],
      [
        "as",
        "ter"
      ],
      [
        "Ġe",
        "lect"
      ],
      [
        "i",
        "o"
      ],
      [
        "k",
        "ely"
      ],
      [
        "ĠW",
        "e"
      ],
      [
        "Ġstr",
        "ong"
      ],
      [
        "Ġtechn",
        "ology"
      ],
      [
        "ch",
        "an"
      ],
      [
        "ch",
        "ie"
      ],
      [
        "h",
        "ile"
      ],
      [
        "er",
        "ing"
      ],
      [
        "il",
        "ar"
      ],
      [
        "Ġg",
        "re"
      ],
      [
        "ate",
        "g"
      ],
      [
        "Ġnetw",
        "ork"
      ],
      [
        "Ġp",
        "ort"
      ],
      [
        "ic",
        "ation"
      ],
      [
        "Ġb",
        "en"
      ],
      [
        "a",
        "pe"
      ],
      [
        "l",
        "ish"
      ],
      [
        "r",
        "ame"
      ],
      [
        "re",
        "ate"
      ],
      [
        "he",
        "mat"
      ],
      [
        "or",
        "ld"
      ],
      [
        "Ġavail",
        "able"
      ],
      [
        "n",
        "ot"
      ],
      [
        "Ġsu",
        "c"
      ],
      [
        "u",
        "ck"
      ],
      [
        "in",
        "ation"
      ],
      [
        "Ġsk",
        "ills"
      ],
      [
        "Ġsa",
        "f"
      ],
      [
        "re",
        "ct"
      ],
      [
        "or",
        "m"
      ],
      [
        "Ġun",
        "ique"
      ],
      [
        "Ġde",
        "m"
      ],
      [
        "Ġa",
        "chie"
      ],
      [
        "ĠC",
        "an"
      ],
      [
        "âĶĢâĶĢ",
        "âĶĢâĶĢ"
      ],
      [
        "Ġfiel",
        "d"
      ],
      [
        "c",
        "le"
      ],
      [
        "Ġcont",
        "ribut"
      ],
      [
        "Ġway",
        "s"
      ],
      [
        "cur",
        "ity"
      ],
      [
        "l",
        "ess"
      ],
      [
        "Ġc",
        "r"
      ],
      [
        "Ġn",
        "ow"
      ],
      [
        "an",
        "ced"
      ],
      [
        "er",
        "y"
      ],
      [
        ":",
        "//"
      ],
      [
        "<",
        "/"
      ],
      [
        "us",
        "ion"
      ],
      [
        "ra",
        "ph"
      ],
      [
        "Ġme",
        "ans"
      ],
      [
        "Ġpr",
        "int"
      ],
      [
        "f",
        "ace"
      ],
      [
        "Ġm",
        "aterial"
      ],
      [
        "ire",
        "d"
      ],
      [
        "p",
        "ar"
      ],
      [
        "Ġc",
        "are"
      ],
      [
        "Ġb",
        "ody"
      ],
      [
        "Ġsp",
        "ace"
      ],
      [
        "Ġide",
        "a"
      ],
      [
        "Ġc",
        "ertain"
      ],
      [
        "Ġd",
        "ri"
      ],
      [
        "Ġpl",
        "atform"
      ],
      [
        "Ġallow",
        "s"
      ],
      [
        "Ġcal",
        "cul"
      ],
      [
        "am",
        "p"
      ],
      [
        "Ġpat",
        "tern"
      ],
      [
        "Ġl",
        "ibr"
      ],
      [
        "il",
        "os"
      ],
      [
        "Ġinter",
        "act"
      ],
      [
        "it",
        "al"
      ],
      [
        "a",
        "ut"
      ],
      [
        "Ġt",
        "ell"
      ],
      [
        "Ġint",
        "eg"
      ],
      [
        "Ġwrit",
        "ing"
      ],
      [
        "Ġrese",
        "arch"
      ],
      [
        "if",
        "ied"
      ],
      [
        "ilos",
        "op"
      ],
      [
        "e",
        "w"
      ],
      [
        "u",
        "g"
      ],
      [
        "Ġma",
        "g"
      ],
      [
        "Ġapplic",
        "ations"
      ],
      [
        "Ġs",
        "ent"
      ],
      [
        "Ġche",
        "ck"
      ],
      [
        "x",
        "im"
      ],
      [
        "Ġsh",
        "ort"
      ],
      [
        "ell",
        "ig"
      ],
      [
        "Ġqu",
        "ick"
      ],
      [
        "Ġrel",
        "ations"
      ],
      [
        "Ġp",
        "ack"
      ],
      [
        "Ġh",
        "y"
      ],
      [
        "Ġun",
        "i"
      ],
      [
        "Ġlangu",
        "ages"
      ],
      [
        "Ġchang",
        "es"
      ],
      [
        "a",
        "king"
      ],
      [
        "Ġc",
        "ause"
      ],
      [
        "ver",
        "n"
      ],
      [
        "Ġs",
        "ize"
      ],
      [
        "Ġval",
        "ues"
      ],
      [
        "Ġmulti",
        "ple"
      ],
      [
        "Ġas",
        "k"
      ],
      [
        "Ġcon",
        "c"
      ],
      [
        "inu",
        "x"
      ],
      [
        "P",
        "I"
      ],
      [
        "c",
        "o"
      ],
      [
        "Ġthe",
        "ory"
      ],
      [
        "or",
        "ies"
      ],
      [
        "Ġcont",
        "ent"
      ],
      [
        "Ġc",
        "ost"
      ],
      [
        "im",
        "port"
      ],
      [
        "ra",
        "g"
      ],
      [
        "Ġser",
        "ver"
      ],
      [
        "c",
        "rib"
      ],
      [
        "Ġm",
        "essage"
      ],
      [
        "Ġinv",
        "est"
      ],
      [
        "ĠT",
        "h"
      ],
      [
        "Ġun",
        "til"
      ],
      [
        "Ġ",
        "est"
      ],
      [
        "ell",
        "o"
      ],
      [
        "Ġcont",
        "in"
      ],
      [
        "ra",
        "ft"
      ],
      [
        "Ġv",
        "iew"
      ],
      [
        "Ġf",
        "re"
      ],
      [
        "em",
        "s"
      ],
      [
        "Ġme",
        "as"
      ],
      [
        "a",
        "ces"
      ],
      [
        "led",
        "ge"
      ],
      [
        "Ġmark",
        "et"
      ],
      [
        "Ġprot",
        "ect"
      ],
      [
        "o",
        "x"
      ],
      [
        "u",
        "ro"
      ],
      [
        "Ġst",
        "and"
      ],
      [
        "Ġprom",
        "pt"
      ],
      [
        "a",
        "z"
      ],
      [
        "am",
        "ed"
      ],
      [
        "Ġle",
        "g"
      ],
      [
        "Ġwor",
        "ds"
      ],
      [
        "Ġ",
        "/"
      ],
      [
        "Ġbec",
        "ome"
      ],
      [
        ")",
        ")"
      ],
      [
        "Ġa",
        "w"
      ],
      [
        "Ġst",
        "re"
      ],
      [
        "lo",
        "ad"
      ],
      [
        "qu",
        "en"
      ],
      [
        "at",
        "s"
      ],
      [
        "ro",
        "du"
      ],
      [
        "Ġus",
        "ers"
      ],
      [
        "Ġro",
        "le"
      ],
      [
        "Ġsim",
        "ilar"
      ],
      [
        "E",
        "x"
      ],
      [
        "T",
        "h"
      ],
      [
        "Ġs",
        "l"
      ],
      [
        "Ġne",
        "cess"
      ],
      [
        "Ġn",
        "atural"
      ],
      [
        "em",
        "ber"
      ],
      [
        "Ġgo",
        "als"
      ],
      [
        "is",
        "ion"
      ],
      [
        "Ġd",
        "el"
      ],
      [
        "Ġst",
        "ore"
      ],
      [
        "um",
        "e"
      ],
      [
        "k",
        "en"
      ],
      [
        "u",
        "nd"
      ],
      [
        "Ġwh",
        "y"
      ],
      [
        "p",
        "y"
      ],
      [
        "Ġ",
        "Q"
      ],
      [
        "ut",
        "es"
      ],
      [
        "an",
        "ces"
      ],
      [
        "as",
        "on"
      ],
      [
        "Ġconsid",
        "ered"
      ],
      [
        "i",
        "res"
      ],
      [
        "Ġs",
        "ource"
      ],
      [
        "Ġtyp",
        "es"
      ],
      [
        "Ġgener",
        "ate"
      ],
      [
        "Ġwebs",
        "ite"
      ],
      [
        "Ġrelations",
        "hip"
      ],
      [
        "\"",
        "."
      ],
      [
        "H",
        "ello"
      ],
      [
        "Ġ",
        "ident"
      ],
      [
        "Ġb",
        "us"
      ],
      [
        "ĠS",
        "h"
      ],
      [
        "ĠP",
        "l"
      ],
      [
        "Ġsoc",
        "i"
      ],
      [
        "Ġph",
        "ilosop"
      ],
      [
        "p",
        "os"
      ],
      [
        "s",
        "h"
      ],
      [
        "Ġpol",
        "it"
      ],
      [
        "Ġsuc",
        "cess"
      ],
      [
        "Ġc",
        "ase"
      ],
      [
        "Ġl",
        "og"
      ],
      [
        "og",
        "n"
      ],
      [
        "ĠG",
        "o"
      ],
      [
        "Ġmain",
        "tain"
      ],
      [
        "ut",
        "e"
      ],
      [
        "ff",
        "ect"
      ],
      [
        "ar",
        "get"
      ],
      [
        "ĠS",
        "p"
      ],
      [
        "Ġqu",
        "antum"
      ],
      [
        "Ġ",
        "ess"
      ],
      [
        "Ġl",
        "it"
      ],
      [
        "Ġl",
        "ow"
      ],
      [
        "Ġan",
        "im"
      ],
      [
        "Ġme",
        "chan"
      ],
      [
        "Ġexam",
        "ples"
      ],
      [
        "Ġfil",
        "es"
      ],
      [
        "Ġstruct",
        "ure"
      ],
      [
        "Ġl",
        "ook"
      ],
      [
        "Ġnot",
        "e"
      ],
      [
        "Ġmat",
        "hemat"
      ],
      [
        "Ġredu",
        "ce"
      ],
      [
        "Ġpartic",
        "ular"
      ],
      [
        "tt",
        "ps"
      ],
      [
        "Ġs",
        "ing"
      ],
      [
        "Ġw",
        "ar"
      ],
      [
        "Ġd",
        "og"
      ],
      [
        "Ġeng",
        "ine"
      ],
      [
        "Ġm",
        "ind"
      ],
      [
        "am",
        "et"
      ],
      [
        "Ġbe",
        "gin"
      ],
      [
        "Ġcomp",
        "on"
      ],
      [
        "Ġte",
        "am"
      ],
      [
        "Ġpre",
        "vent"
      ],
      [
        "Ġben",
        "ef"
      ],
      [
        "P",
        "T"
      ],
      [
        "Ġyour",
        "self"
      ],
      [
        "Ġopt",
        "im"
      ],
      [
        "pl",
        "ace"
      ],
      [
        "Ġrequ",
        "est"
      ],
      [
        "Ġresp",
        "ons"
      ],
      [
        "\"",
        ":"
      ],
      [
        "i",
        "pe"
      ],
      [
        "pl",
        "oy"
      ],
      [
        "Ġsc",
        "en"
      ],
      [
        "Ġli",
        "kely"
      ],
      [
        "Ġspe",
        "ed"
      ],
      [
        "Ġproble",
        "m"
      ],
      [
        "Ġcle",
        "ar"
      ],
      [
        "Ġbehav",
        "ior"
      ],
      [
        "Ġd",
        "id"
      ],
      [
        "ir",
        "t"
      ],
      [
        "Ġstr",
        "ateg"
      ],
      [
        "Ġtem",
        "per"
      ],
      [
        "a",
        "pp"
      ],
      [
        "it",
        "ing"
      ],
      [
        "Ġo",
        "c"
      ],
      [
        "Ġab",
        "ility"
      ],
      [
        "Ġser",
        "vices"
      ],
      [
        "Ġth",
        "ink"
      ],
      [
        "Ġan",
        "other"
      ],
      [
        "Ġde",
        "ep"
      ],
      [
        "Ġdesign",
        "ed"
      ],
      [
        "Ġmean",
        "ing"
      ],
      [
        "Ġth",
        "ree"
      ],
      [
        "Ġeas",
        "y"
      ],
      [
        "Ġch",
        "ild"
      ],
      [
        "Ġcont",
        "ext"
      ],
      [
        "âĢ",
        "¢"
      ],
      [
        "Ġexper",
        "ien"
      ],
      [
        "Ġp",
        "lease"
      ],
      [
        "ul",
        "ation"
      ],
      [
        "con",
        "d"
      ],
      [
        "Ġapplic",
        "ation"
      ],
      [
        "Ġeffect",
        "ive"
      ],
      [
        "p",
        "r"
      ],
      [
        "Ġd",
        "ue"
      ],
      [
        "ĠE",
        "ng"
      ],
      [
        "c",
        "hes"
      ],
      [
        "ou",
        "se"
      ],
      [
        "Ġg",
        "iven"
      ],
      [
        "Ġknow",
        "ledge"
      ],
      [
        "Ġd",
        "ig"
      ],
      [
        "Ġcomp",
        "any"
      ],
      [
        "Ġpre",
        "f"
      ],
      [
        "Ġprovid",
        "es"
      ],
      [
        "1",
        "2"
      ],
      [
        "p",
        "re"
      ],
      [
        "ch",
        "o"
      ],
      [
        "Ġnum",
        "bers"
      ],
      [
        "om",
        "et"
      ],
      [
        "id",
        "d"
      ],
      [
        "Ġide",
        "as"
      ],
      [
        "w",
        "ord"
      ],
      [
        "Ġm",
        "o"
      ],
      [
        "Ġl",
        "and"
      ],
      [
        "Ġsc",
        "ient"
      ],
      [
        "olog",
        "ical"
      ],
      [
        "Ġresp",
        "onse"
      ],
      [
        "p",
        "ose"
      ],
      [
        "at",
        "ic"
      ],
      [
        "Ġs",
        "un"
      ],
      [
        "iv",
        "ing"
      ],
      [
        "Ġcre",
        "ating"
      ],
      [
        "h",
        "or"
      ],
      [
        "Ġs",
        "ong"
      ],
      [
        "im",
        "ate"
      ],
      [
        "am",
        "ple"
      ],
      [
        "Ġap",
        "pe"
      ],
      [
        "Ġtool",
        "s"
      ],
      [
        "l",
        "and"
      ],
      [
        "Ġon",
        "line"
      ],
      [
        "ur",
        "ther"
      ],
      [
        "Ġwe",
        "ight"
      ],
      [
        "le",
        "ep"
      ],
      [
        "Ġst",
        "yle"
      ],
      [
        "ress",
        "ion"
      ],
      [
        "Ġinter",
        "n"
      ],
      [
        "Ġbas",
        "ic"
      ],
      [
        "Ġprof",
        "ess"
      ],
      [
        "\"",
        ")"
      ],
      [
        "Ġt",
        "re"
      ],
      [
        "Ġd",
        "oc"
      ],
      [
        "Ġre",
        "le"
      ],
      [
        "ĠA",
        "ss"
      ],
      [
        "Ġ",
        "es"
      ],
      [
        "Ġb",
        "at"
      ],
      [
        "our",
        "s"
      ],
      [
        "ĠL",
        "inux"
      ],
      [
        "W",
        "rite"
      ],
      [
        "Ġ",
        "**"
      ],
      [
        "Ġe",
        "ar"
      ],
      [
        "Ġn",
        "on"
      ],
      [
        "Ġhum",
        "ans"
      ],
      [
        "Ġreg",
        "ular"
      ],
      [
        "Ġdist",
        "ribut"
      ],
      [
        "dit",
        "ions"
      ],
      [
        "ellig",
        "ence"
      ],
      [
        "Ġt",
        "ri"
      ],
      [
        "Ġh",
        "ig"
      ],
      [
        "Ġor",
        "ig"
      ],
      [
        "Ġloc",
        "al"
      ],
      [
        "Ġm",
        "or"
      ],
      [
        "ĠE",
        "arth"
      ],
      [
        "Ġtra",
        "vel"
      ],
      [
        "j",
        "ust"
      ],
      [
        "r",
        "id"
      ],
      [
        "iz",
        "ing"
      ],
      [
        "Ġsome",
        "one"
      ],
      [
        "ĠS",
        "he"
      ],
      [
        "Ġrep",
        "resent"
      ],
      [
        "Ġsum",
        "m"
      ],
      [
        "Ġt",
        "erm"
      ],
      [
        "Ġc",
        "ard"
      ],
      [
        "Ġp",
        "a"
      ],
      [
        "Ġj",
        "ob"
      ],
      [
        "Ġta",
        "kes"
      ],
      [
        "Ġset",
        "s"
      ],
      [
        "i",
        "um"
      ],
      [
        "v",
        "ant"
      ],
      [
        "Ġs",
        "ay"
      ],
      [
        "Ġc",
        "aus"
      ],
      [
        "Ġh",
        "ome"
      ],
      [
        "Ġl",
        "aw"
      ],
      [
        "Ġne",
        "xt"
      ],
      [
        "ile",
        "d"
      ],
      [
        "ĠJ",
        "ava"
      ],
      [
        "p",
        "or"
      ],
      [
        "it",
        "or"
      ],
      [
        "Ġp",
        "ublic"
      ],
      [
        "Ġpower",
        "ful"
      ],
      [
        "Ġblo",
        "ck"
      ],
      [
        "b",
        "ack"
      ],
      [
        "ot",
        "s"
      ],
      [
        "Ġare",
        "a"
      ],
      [
        "Ġbuild",
        "ing"
      ],
      [
        "Ġcor",
        "rect"
      ],
      [
        "d",
        "ict"
      ],
      [
        "Ġm",
        "il"
      ],
      [
        "dition",
        "ally"
      ],
      [
        "Ġpoint",
        "s"
      ],
      [
        "Ġ",
        "//"
      ],
      [
        "Ġt",
        "arget"
      ],
      [
        "Ġs",
        "ince"
      ],
      [
        "Ġl",
        "ab"
      ],
      [
        "Ġen",
        "ough"
      ],
      [
        "ip",
        "s"
      ],
      [
        "Ġvari",
        "ety"
      ],
      [
        "d",
        "ate"
      ],
      [
        "ĠS",
        "c"
      ],
      [
        "Ġgo",
        "vern"
      ],
      [
        "ĠU",
        "S"
      ],
      [
        "Ġeconom",
        "ic"
      ],
      [
        "Ġwith",
        "in"
      ],
      [
        "Ġstud",
        "y"
      ],
      [
        "ver",
        "t"
      ],
      [
        "Ġse",
        "curity"
      ],
      [
        "ord",
        "ing"
      ],
      [
        ",",
        "\""
      ],
      [
        "a",
        "u"
      ],
      [
        "w",
        "w"
      ],
      [
        "ct",
        "or"
      ],
      [
        "Ġmin",
        "utes"
      ],
      [
        "Ġs",
        "qu"
      ],
      [
        "ĠS",
        "e"
      ],
      [
        "Ġsy",
        "m"
      ],
      [
        "Ġtas",
        "k"
      ],
      [
        "Ġhe",
        "ad"
      ],
      [
        "ĠE",
        "n"
      ],
      [
        "Ġgo",
        "al"
      ],
      [
        "Ġrem",
        "ain"
      ],
      [
        "Ġto",
        "get"
      ],
      [
        "ra",
        "w"
      ],
      [
        "Ġtoget",
        "her"
      ],
      [
        "le",
        "x"
      ],
      [
        "ic",
        "ro"
      ],
      [
        "Ġv",
        "ol"
      ],
      [
        "Ġexpl",
        "ore"
      ],
      [
        "oo",
        "ks"
      ],
      [
        "t",
        "he"
      ],
      [
        "1",
        "9"
      ],
      [
        "A",
        "I"
      ],
      [
        "Ġs",
        "ound"
      ],
      [
        "ol",
        "ution"
      ],
      [
        "p",
        "ath"
      ],
      [
        "Ġel",
        "se"
      ],
      [
        "Ġter",
        "ms"
      ],
      [
        "Ġnecess",
        "ary"
      ],
      [
        "Ġ",
        "9"
      ],
      [
        "al",
        "k"
      ],
      [
        "Ġma",
        "kes"
      ],
      [
        "Ġcre",
        "ated"
      ],
      [
        "Ġev",
        "ent"
      ],
      [
        "Ġdes",
        "crib"
      ],
      [
        "eng",
        "th"
      ],
      [
        "Ġaut",
        "om"
      ],
      [
        "Ġp",
        "ain"
      ],
      [
        "Ġp",
        "ress"
      ],
      [
        "Ġman",
        "age"
      ],
      [
        "Ġspec",
        "ial"
      ],
      [
        "Ġmem",
        "ory"
      ],
      [
        "Ġphys",
        "ical"
      ],
      [
        "2",
        "3"
      ],
      [
        "ct",
        "ions"
      ],
      [
        "mer",
        "ic"
      ],
      [
        "Ġeffic",
        "ient"
      ],
      [
        "F",
        "or"
      ],
      [
        "ĠI",
        "m"
      ],
      [
        "Ġproble",
        "ms"
      ],
      [
        "Ġm",
        "ot"
      ],
      [
        "pt",
        "ion"
      ],
      [
        "Ġle",
        "ft"
      ],
      [
        "Ġav",
        "oid"
      ],
      [
        "Ġvide",
        "o"
      ],
      [
        "Ġse",
        "arch"
      ],
      [
        "ag",
        "ing"
      ],
      [
        "ib",
        "ility"
      ],
      [
        "iqu",
        "es"
      ],
      [
        "Ġinvol",
        "ves"
      ],
      [
        "bo",
        "ard"
      ],
      [
        "âĸ",
        "Ī"
      ],
      [
        "O",
        "ver"
      ],
      [
        "Ġd",
        "r"
      ],
      [
        "Ġb",
        "rain"
      ],
      [
        "ul",
        "es"
      ],
      [
        "er",
        "t"
      ],
      [
        "Ġl",
        "ove"
      ],
      [
        "ort",
        "h"
      ],
      [
        "Ġhelp",
        "s"
      ],
      [
        "Ġra",
        "d"
      ],
      [
        "Ġobject",
        "s"
      ],
      [
        "j",
        "oy"
      ],
      [
        "m",
        "l"
      ],
      [
        "Ġt",
        "urn"
      ],
      [
        "ail",
        "s"
      ],
      [
        "Ġ",
        "X"
      ],
      [
        "W",
        "e"
      ],
      [
        "Ġn",
        "amed"
      ],
      [
        "Ġcan",
        "not"
      ],
      [
        "un",
        "g"
      ],
      [
        "Ġqu",
        "ality"
      ],
      [
        "Ġrun",
        "ning"
      ],
      [
        "Ġbus",
        "iness"
      ],
      [
        "Ġs",
        "ide"
      ],
      [
        "Ġs",
        "ense"
      ],
      [
        "Ġl",
        "ooking"
      ],
      [
        "v",
        "ious"
      ],
      [
        "Ġf",
        "ast"
      ],
      [
        "ist",
        "ic"
      ],
      [
        "Ġtechn",
        "iques"
      ],
      [
        "Ġ",
        "\\"
      ],
      [
        "Ġa",
        "ud"
      ],
      [
        "Ġm",
        "ass"
      ],
      [
        "le",
        "t"
      ],
      [
        "ĠĠĠĠ",
        "čĊ"
      ],
      [
        "Ġare",
        "as"
      ],
      [
        "Ġdepend",
        "ing"
      ],
      [
        "Ġe",
        "t"
      ],
      [
        "ĠD",
        "o"
      ],
      [
        "ff",
        "ic"
      ],
      [
        "ĠUn",
        "ited"
      ],
      [
        "Ġagain",
        "st"
      ],
      [
        "b",
        "y"
      ],
      [
        "an",
        "n"
      ],
      [
        "id",
        "ence"
      ],
      [
        "ĠM",
        "ake"
      ],
      [
        "Ġcharact",
        "ers"
      ],
      [
        "Ġatt",
        "ack"
      ],
      [
        "Ġlo",
        "op"
      ],
      [
        "j",
        "s"
      ],
      [
        "u",
        "le"
      ],
      [
        "ent",
        "ly"
      ],
      [
        "ĠI",
        "s"
      ],
      [
        "P",
        "lease"
      ],
      [
        "W",
        "h"
      ],
      [
        "Ġs",
        "al"
      ],
      [
        "Ġplay",
        "ers"
      ],
      [
        "(",
        "'"
      ],
      [
        "Ġf",
        "ore"
      ],
      [
        "Ġch",
        "oice"
      ],
      [
        "te",
        "xt"
      ],
      [
        "Ġcom",
        "e"
      ],
      [
        "Ġpos",
        "ition"
      ],
      [
        "Ġiss",
        "ues"
      ],
      [
        "o",
        "h"
      ],
      [
        "Ġ",
        "Z"
      ],
      [
        "iz",
        "es"
      ],
      [
        "Ġsub",
        "ject"
      ],
      [
        "Ġincre",
        "ase"
      ],
      [
        "p",
        "ri"
      ],
      [
        "in",
        "ter"
      ],
      [
        "er",
        "c"
      ],
      [
        "ver",
        "age"
      ],
      [
        "ĠA",
        "PI"
      ],
      [
        "Ġgrou",
        "p"
      ],
      [
        "]",
        ","
      ],
      [
        "Ġc",
        "apt"
      ],
      [
        "Ġf",
        "rame"
      ],
      [
        "Ġb",
        "al"
      ],
      [
        "ro",
        "ll"
      ],
      [
        "Ġh",
        "ope"
      ],
      [
        "Y",
        "es"
      ],
      [
        "Ġb",
        "ot"
      ],
      [
        "Ġsc",
        "ience"
      ],
      [
        "E",
        "R"
      ],
      [
        "M",
        "L"
      ],
      [
        "Ġb",
        "ro"
      ],
      [
        "ĠC",
        "reate"
      ],
      [
        "Ġim",
        "m"
      ],
      [
        "Ġadd",
        "ress"
      ],
      [
        "indow",
        "s"
      ],
      [
        "Ġfam",
        "ily"
      ],
      [
        "l",
        "ab"
      ],
      [
        "Ġo",
        "ld"
      ],
      [
        "Ġto",
        "day"
      ],
      [
        "Ġad",
        "just"
      ],
      [
        "ys",
        "is"
      ],
      [
        "A",
        "n"
      ],
      [
        "Ġa",
        "ffect"
      ],
      [
        "Ġb",
        "ook"
      ],
      [
        "ĠA",
        "nd"
      ],
      [
        "Ġany",
        "thing"
      ],
      [
        "Ġp",
        "ath"
      ],
      [
        "Ġmethod",
        "s"
      ],
      [
        "as",
        "ing"
      ],
      [
        "oc",
        "i"
      ],
      [
        "Ġind",
        "ust"
      ],
      [
        "Ġsing",
        "le"
      ],
      [
        "'",
        "ve"
      ],
      [
        "an",
        "cial"
      ],
      [
        "ad",
        "d"
      ],
      [
        "Ġch",
        "oose"
      ],
      [
        "Ġneed",
        "ed"
      ],
      [
        "Ġquick",
        "ly"
      ],
      [
        "b",
        "e"
      ],
      [
        "Ġ",
        "âĢ"
      ],
      [
        "Ġf",
        "all"
      ],
      [
        "ar",
        "ies"
      ],
      [
        "ent",
        "al"
      ],
      [
        "og",
        "le"
      ],
      [
        "one",
        "y"
      ],
      [
        "Ġcommun",
        "ity"
      ],
      [
        "Ġlibr",
        "ary"
      ],
      [
        "r",
        "ation"
      ],
      [
        "u",
        "ation"
      ],
      [
        "Ġt",
        "imes"
      ],
      [
        "an",
        "e"
      ],
      [
        "ur",
        "y"
      ],
      [
        "Ġmod",
        "ern"
      ],
      [
        "ac",
        "y"
      ],
      [
        "Ġele",
        "ments"
      ],
      [
        "uro",
        "pe"
      ],
      [
        "Ġp",
        "ie"
      ],
      [
        "Ġha",
        "ving"
      ],
      [
        "Ġachie",
        "ve"
      ],
      [
        "Ġsc",
        "re"
      ],
      [
        "s",
        "y"
      ],
      [
        "t",
        "ime"
      ],
      [
        "ĠA",
        "meric"
      ],
      [
        "Ġinst",
        "ead"
      ],
      [
        "Ġa",
        "ction"
      ],
      [
        "Ġe",
        "y"
      ],
      [
        "ir",
        "d"
      ],
      [
        "dition",
        "al"
      ],
      [
        "Ġresult",
        "s"
      ],
      [
        "Ġcount",
        "ry"
      ],
      [
        "Ġindividual",
        "s"
      ],
      [
        "f",
        "ort"
      ],
      [
        "z",
        "e"
      ],
      [
        "Ġint",
        "elligence"
      ],
      [
        "..",
        "."
      ],
      [
        "Ġtyp",
        "ically"
      ],
      [
        "Ġappro",
        "ach"
      ],
      [
        "Ġ",
        "_"
      ],
      [
        "Ġ",
        "]["
      ],
      [
        "es",
        "p"
      ],
      [
        "om",
        "s"
      ],
      [
        "ĠW",
        "hen"
      ],
      [
        "ĠAd",
        "d"
      ],
      [
        "Ġpri",
        "v"
      ],
      [
        "b",
        "ased"
      ],
      [
        "is",
        "es"
      ],
      [
        "Ġw",
        "ide"
      ],
      [
        "Ġchalleng",
        "es"
      ],
      [
        "Ġvers",
        "ion"
      ],
      [
        "Ġf",
        "urther"
      ],
      [
        "ar",
        "ing"
      ],
      [
        "Ġj",
        "o"
      ],
      [
        "Ġadv",
        "ant"
      ],
      [
        "Ġopt",
        "ions"
      ],
      [
        "Ġmus",
        "ic"
      ],
      [
        "Ġwor",
        "king"
      ],
      [
        "ub",
        "e"
      ],
      [
        "Ġeas",
        "ier"
      ],
      [
        "Over",
        "all"
      ],
      [
        "a",
        "h"
      ],
      [
        "o",
        "f"
      ],
      [
        "ist",
        "ance"
      ],
      [
        "Ġse",
        "cond"
      ],
      [
        "Ġtra",
        "ck"
      ],
      [
        "ient",
        "s"
      ],
      [
        "Ġtr",
        "ue"
      ],
      [
        "P",
        "U"
      ],
      [
        "c",
        "ome"
      ],
      [
        "l",
        "ight"
      ],
      [
        "Ġstr",
        "ing"
      ],
      [
        "Ġadv",
        "anced"
      ],
      [
        "Ġsoci",
        "ety"
      ],
      [
        "L",
        "E"
      ],
      [
        "Ġprodu",
        "ce"
      ],
      [
        "ne",
        "w"
      ],
      [
        "ng",
        "th"
      ],
      [
        "Ġm",
        "ar"
      ],
      [
        "Ġcon",
        "ditions"
      ],
      [
        "Ġsu",
        "per"
      ],
      [
        "ill",
        "ion"
      ],
      [
        "Ġinclud",
        "es"
      ],
      [
        "Ġhigh",
        "ly"
      ],
      [
        "Ġlay",
        "er"
      ],
      [
        "Ġaddition",
        "al"
      ],
      [
        "C",
        "on"
      ],
      [
        "m",
        "e"
      ],
      [
        "as",
        "k"
      ],
      [
        "Ġl",
        "ast"
      ],
      [
        "Ġact",
        "iv"
      ],
      [
        "ward",
        "s"
      ],
      [
        "g",
        "round"
      ],
      [
        "o",
        "ot"
      ],
      [
        "t",
        "ies"
      ],
      [
        "Ġc",
        "ir"
      ],
      [
        "Ġex",
        "ec"
      ],
      [
        "ck",
        "et"
      ],
      [
        "Ġgra",
        "ph"
      ],
      [
        "Ġfriend",
        "s"
      ],
      [
        "Ġs",
        "ens"
      ],
      [
        "Ġc",
        "rit"
      ],
      [
        "or",
        "n"
      ],
      [
        "um",
        "n"
      ],
      [
        "Ġprog",
        "ress"
      ],
      [
        "ĠAss",
        "istant"
      ],
      [
        "Ġe",
        "th"
      ],
      [
        "Ġn",
        "ature"
      ],
      [
        "Ġex",
        "c"
      ],
      [
        "Ġcol",
        "le"
      ],
      [
        "Ġoff",
        "er"
      ],
      [
        "Ġfun",
        "ctions"
      ],
      [
        "Ġalgorith",
        "ms"
      ],
      [
        "O",
        "S"
      ],
      [
        "Ġg",
        "l"
      ],
      [
        "ĠW",
        "orld"
      ],
      [
        "ens",
        "ion"
      ],
      [
        "Ġpol",
        "ic"
      ],
      [
        "d",
        "ef"
      ],
      [
        "Ġk",
        "ind"
      ],
      [
        "Ġrec",
        "ogn"
      ],
      [
        "ĠAd",
        "ditionally"
      ],
      [
        "Ġtemper",
        "ature"
      ],
      [
        "J",
        "J"
      ],
      [
        "ou",
        "n"
      ],
      [
        "Ġp",
        "res"
      ],
      [
        "id",
        "es"
      ],
      [
        "ere",
        "nce"
      ],
      [
        "Ġne",
        "g"
      ],
      [
        "Ġcle",
        "an"
      ],
      [
        "s",
        "ide"
      ],
      [
        "Ġre",
        "ce"
      ],
      [
        "end",
        "er"
      ],
      [
        "Ġplay",
        "er"
      ],
      [
        "Ġfin",
        "ancial"
      ],
      [
        "Ġoc",
        "cur"
      ],
      [
        "O",
        "N"
      ],
      [
        "Q",
        "L"
      ],
      [
        "Ġc",
        "ity"
      ],
      [
        "Ġp",
        "ast"
      ],
      [
        "Ġf",
        "ar"
      ],
      [
        "Ġg",
        "ain"
      ],
      [
        "ĠG",
        "od"
      ],
      [
        "Ġpr",
        "in"
      ],
      [
        "+",
        "+"
      ],
      [
        "Ġp",
        "resent"
      ],
      [
        "Ġg",
        "en"
      ],
      [
        "ra",
        "nd"
      ],
      [
        "Ġdist",
        "ance"
      ],
      [
        "A",
        "nd"
      ],
      [
        "Ġc",
        "y"
      ],
      [
        "Ġf",
        "ul"
      ],
      [
        "Ġh",
        "arm"
      ],
      [
        "un",
        "e"
      ],
      [
        "Ġde",
        "b"
      ],
      [
        "ĠE",
        "urope"
      ],
      [
        "Ġris",
        "k"
      ],
      [
        "Ġcell",
        "s"
      ],
      [
        "Ġuni",
        "verse"
      ],
      [
        "Ġpolit",
        "ical"
      ],
      [
        "o",
        "ver"
      ],
      [
        "Ġc",
        "all"
      ],
      [
        "Ġaw",
        "ay"
      ],
      [
        "P",
        "ro"
      ],
      [
        "in",
        "ally"
      ],
      [
        "Ġd",
        "one"
      ],
      [
        "Ġwor",
        "d"
      ],
      [
        "Ġatt",
        "ention"
      ],
      [
        "h",
        "t"
      ],
      [
        "i",
        "od"
      ],
      [
        "Ġcon",
        "vers"
      ],
      [
        "ĠC",
        "he"
      ],
      [
        "Ġass",
        "oci"
      ],
      [
        "Ġtrain",
        "ed"
      ],
      [
        "Ġdeterm",
        "ine"
      ],
      [
        "Ġt",
        "able"
      ],
      [
        "it",
        "es"
      ],
      [
        "Ġin",
        "it"
      ],
      [
        "Ġd",
        "ark"
      ],
      [
        "ly",
        "ing"
      ],
      [
        "Ġv",
        "irt"
      ],
      [
        "ĠD",
        "is"
      ],
      [
        "Ġpart",
        "s"
      ],
      [
        "Ġmed",
        "ia"
      ],
      [
        "S",
        "o"
      ],
      [
        "b",
        "al"
      ],
      [
        "n",
        "ov"
      ],
      [
        "Ġst",
        "at"
      ],
      [
        "iv",
        "ed"
      ],
      [
        "ep",
        "end"
      ],
      [
        "ĠIn",
        "st"
      ],
      [
        "Ġrequ",
        "ires"
      ],
      [
        "Ġbl",
        "ue"
      ],
      [
        "Ġdirect",
        "ory"
      ],
      [
        "Ġex",
        "pect"
      ],
      [
        "ĠM",
        "y"
      ],
      [
        "Ġen",
        "joy"
      ],
      [
        "Ġmin",
        "im"
      ],
      [
        "m",
        "y"
      ],
      [
        "s",
        "et"
      ],
      [
        "Ġs",
        "ort"
      ],
      [
        "Ġs",
        "leep"
      ],
      [
        "us",
        "h"
      ],
      [
        "Ġval",
        "id"
      ],
      [
        "C",
        "h"
      ],
      [
        "c",
        "ol"
      ],
      [
        "w",
        "e"
      ],
      [
        "Ġg",
        "r"
      ],
      [
        "Ġim",
        "ages"
      ],
      [
        "ry",
        "pt"
      ],
      [
        "g",
        "est"
      ],
      [
        "Ġ",
        "â"
      ],
      [
        "ĠW",
        "hile"
      ],
      [
        "Ġacc",
        "ount"
      ],
      [
        "A",
        "M"
      ],
      [
        "Ġf",
        "low"
      ],
      [
        "il",
        "t"
      ],
      [
        "ĠĠĠĠ",
        "ĠĠ"
      ],
      [
        "ere",
        "nces"
      ],
      [
        "ĠB",
        "e"
      ],
      [
        "Ġg",
        "ames"
      ],
      [
        "Ġst",
        "op"
      ],
      [
        "Ġpre",
        "vious"
      ],
      [
        "Ġlim",
        "it"
      ],
      [
        "1",
        "5"
      ],
      [
        "A",
        "d"
      ],
      [
        "c",
        "ious"
      ],
      [
        "c",
        "raft"
      ],
      [
        "Ġfe",
        "ed"
      ],
      [
        "Ġstart",
        "ed"
      ],
      [
        "Ġlead",
        "ing"
      ],
      [
        "c",
        "he"
      ],
      [
        "c",
        "ient"
      ],
      [
        "m",
        "an"
      ],
      [
        "y",
        "stem"
      ],
      [
        "is",
        "hed"
      ],
      [
        "im",
        "ent"
      ],
      [
        "ut",
        "ions"
      ],
      [
        "Ġde",
        "vices"
      ],
      [
        "Ġr",
        "out"
      ],
      [
        "Ġev",
        "ents"
      ],
      [
        "Ġmat",
        "ter"
      ],
      [
        "Ġstand",
        "ard"
      ],
      [
        "he",
        "ad"
      ],
      [
        "on",
        "es"
      ],
      [
        "Ġg",
        "lo"
      ],
      [
        "Ġdet",
        "ect"
      ],
      [
        "Ġproduct",
        "s"
      ],
      [
        "Ġgrow",
        "th"
      ],
      [
        "Ġprofess",
        "ional"
      ],
      [
        "y",
        "r"
      ],
      [
        "Ġf",
        "ac"
      ],
      [
        "ĠSt",
        "ates"
      ],
      [
        "n",
        "um"
      ],
      [
        "Ġ",
        "ut"
      ],
      [
        "ĠH",
        "T"
      ],
      [
        "pport",
        "un"
      ],
      [
        "Ġcount",
        "ries"
      ],
      [
        "es",
        "e"
      ],
      [
        "al",
        "king"
      ],
      [
        "iv",
        "il"
      ],
      [
        "Ġpre",
        "dict"
      ],
      [
        "Ġdoc",
        "ument"
      ],
      [
        "d",
        "ata"
      ],
      [
        "w",
        "ork"
      ],
      [
        "Ġc",
        "our"
      ],
      [
        "ĠC",
        "hat"
      ],
      [
        "Ġne",
        "ver"
      ],
      [
        "ien",
        "cy"
      ],
      [
        "Ġtry",
        "ing"
      ],
      [
        "Ġpur",
        "pose"
      ],
      [
        "Ġhig",
        "her"
      ],
      [
        ":",
        "**"
      ],
      [
        "O",
        "ne"
      ],
      [
        "b",
        "s"
      ],
      [
        "Ġ",
        ":"
      ],
      [
        "st",
        "r"
      ],
      [
        "Ġcon",
        "se"
      ],
      [
        "Ġro",
        "b"
      ],
      [
        "er",
        "o"
      ],
      [
        "Ġyou",
        "ng"
      ],
      [
        "Ġst",
        "ay"
      ],
      [
        "pe",
        "cial"
      ],
      [
        "Ġcl",
        "os"
      ],
      [
        "Ġar",
        "ch"
      ],
      [
        "Ġcons",
        "ist"
      ],
      [
        "ak",
        "es"
      ],
      [
        "Ġpar",
        "amet"
      ],
      [
        "Ġ",
        "&"
      ],
      [
        "in",
        "ing"
      ],
      [
        "or",
        "ks"
      ],
      [
        "ic",
        "ate"
      ],
      [
        "Ġl",
        "ot"
      ],
      [
        "Ġle",
        "ast"
      ],
      [
        "Ġsh",
        "are"
      ],
      [
        "The",
        "se"
      ],
      [
        "Ġmaterial",
        "s"
      ],
      [
        "i",
        "k"
      ],
      [
        "j",
        "or"
      ],
      [
        "Ġs",
        "low"
      ],
      [
        "Ġm",
        "oney"
      ],
      [
        "ul",
        "ate"
      ],
      [
        "Ġcomp",
        "et"
      ],
      [
        "~~",
        "~~"
      ],
      [
        "if",
        "t"
      ],
      [
        "ĠE",
        "m"
      ],
      [
        "ĠB",
        "y"
      ],
      [
        "Ġser",
        "ies"
      ],
      [
        "5",
        "5"
      ],
      [
        "i",
        "us"
      ],
      [
        "im",
        "ately"
      ],
      [
        "Ġex",
        "erc"
      ],
      [
        "Ġv",
        "ary"
      ],
      [
        "ĠB",
        "ut"
      ],
      [
        "Ġad",
        "apt"
      ],
      [
        "ific",
        "ial"
      ],
      [
        "Ġser",
        "vice"
      ],
      [
        "Ġdepend",
        "s"
      ],
      [
        "Ġrequire",
        "ments"
      ],
      [
        "Ġthough",
        "t"
      ],
      [
        "Ġess",
        "ential"
      ],
      [
        "Ġf",
        "ig"
      ],
      [
        "Ġ1",
        "2"
      ],
      [
        "Ġper",
        "iod"
      ],
      [
        "?",
        "?"
      ],
      [
        "f",
        "ile"
      ],
      [
        "Ġit",
        "ems"
      ],
      [
        "ĠS",
        "et"
      ],
      [
        "Ġdat",
        "as"
      ],
      [
        "Ġdat",
        "ab"
      ],
      [
        "cho",
        "ol"
      ],
      [
        "Ġs",
        "ources"
      ],
      [
        "is",
        "ed"
      ],
      [
        "en",
        "cy"
      ],
      [
        "Ġp",
        "ython"
      ],
      [
        "ĠC",
        "l"
      ],
      [
        "Ġab",
        "ove"
      ],
      [
        "S",
        "S"
      ],
      [
        "a",
        "iled"
      ],
      [
        "Ġr",
        "ather"
      ],
      [
        "Ġse",
        "en"
      ],
      [
        "av",
        "es"
      ],
      [
        "Ġcons",
        "um"
      ],
      [
        "\"",
        ">"
      ],
      [
        "B",
        "ut"
      ],
      [
        "f",
        "rom"
      ],
      [
        "it",
        "le"
      ],
      [
        "Ġne",
        "ural"
      ],
      [
        "Ġdo",
        "ing"
      ],
      [
        "Ġtra",
        "ditional"
      ],
      [
        "Ġpos",
        "itive"
      ],
      [
        "Ġform",
        "at"
      ],
      [
        "ĠGo",
        "ogle"
      ],
      [
        "Ġbenef",
        "its"
      ],
      [
        "c",
        "c"
      ],
      [
        "o",
        "es"
      ],
      [
        "Ġc",
        "op"
      ],
      [
        "Ġre",
        "ach"
      ],
      [
        "Ġg",
        "e"
      ],
      [
        "ĠT",
        "r"
      ],
      [
        "A",
        "T"
      ],
      [
        "Ġw",
        "indow"
      ],
      [
        "Ġo",
        "pportun"
      ],
      [
        "ig",
        "ate"
      ],
      [
        "Ġal",
        "tern"
      ],
      [
        "Ġpattern",
        "s"
      ],
      [
        "Ġmeas",
        "ure"
      ],
      [
        "e",
        "k"
      ],
      [
        "Ġo",
        "pp"
      ],
      [
        "Ġb",
        "row"
      ],
      [
        "Ġd",
        "am"
      ],
      [
        "Ġ=",
        "="
      ],
      [
        "Ġro",
        "om"
      ],
      [
        "Ġev",
        "idence"
      ],
      [
        "Ġem",
        "ot"
      ],
      [
        "Ġbl",
        "ack"
      ],
      [
        "Ġanal",
        "ysis"
      ],
      [
        "e",
        "ep"
      ],
      [
        "r",
        "ast"
      ],
      [
        "or",
        "ing"
      ],
      [
        "ra",
        "d"
      ],
      [
        "pl",
        "ain"
      ],
      [
        "Ġr",
        "ules"
      ],
      [
        "Ġprodu",
        "ction"
      ],
      [
        "Ġhapp",
        "en"
      ],
      [
        "quen",
        "ces"
      ],
      [
        "Ġcompon",
        "ents"
      ],
      [
        "Ġf",
        "lo"
      ],
      [
        "Ġb",
        "all"
      ],
      [
        "Ġl",
        "ive"
      ],
      [
        "Ġint",
        "rodu"
      ],
      [
        "are",
        "nt"
      ],
      [
        "ne",
        "y"
      ],
      [
        "li",
        "ke"
      ],
      [
        "b",
        "ol"
      ],
      [
        "t",
        "ers"
      ],
      [
        "ke",
        "y"
      ],
      [
        "Ġuse",
        "ful"
      ],
      [
        "int",
        "s"
      ],
      [
        "Ġover",
        "all"
      ],
      [
        "Ġtrans",
        "form"
      ],
      [
        "oh",
        "n"
      ],
      [
        "d",
        "om"
      ],
      [
        "Ġal",
        "ong"
      ],
      [
        "Ġwhe",
        "ther"
      ],
      [
        "Ġcol",
        "ors"
      ],
      [
        "Ġem",
        "ploy"
      ],
      [
        "Ġreg",
        "ard"
      ],
      [
        "Ġpa",
        "per"
      ],
      [
        "G",
        "PT"
      ],
      [
        "a",
        "ult"
      ],
      [
        "cl",
        "usion"
      ],
      [
        "Ġbre",
        "ak"
      ],
      [
        "Ġele",
        "ment"
      ],
      [
        "Ġcult",
        "ural"
      ],
      [
        "S",
        "cript"
      ],
      [
        "a",
        "it"
      ],
      [
        "an",
        "ks"
      ],
      [
        "Ġdevelop",
        "ed"
      ],
      [
        "Ġvari",
        "able"
      ],
      [
        "Ġf",
        "ace"
      ],
      [
        "Ġro",
        "ll"
      ],
      [
        "Ġcons",
        "cious"
      ],
      [
        "Ġrel",
        "ated"
      ],
      [
        "Ġact",
        "ive"
      ],
      [
        "Ġconcept",
        "s"
      ],
      [
        "Ġer",
        "ror"
      ],
      [
        "Ġwid",
        "ely"
      ],
      [
        "Ġprin",
        "ci"
      ],
      [
        "R",
        "E"
      ],
      [
        "f",
        "act"
      ],
      [
        "m",
        "it"
      ],
      [
        "Ġp",
        "ost"
      ],
      [
        "Ġan",
        "t"
      ],
      [
        "ĠP",
        "h"
      ],
      [
        "og",
        "raph"
      ],
      [
        "Ġdis",
        "play"
      ],
      [
        "ens",
        "ive"
      ],
      [
        "Ġsm",
        "o"
      ],
      [
        "Ġloc",
        "ation"
      ],
      [
        "Ġcommun",
        "ication"
      ],
      [
        "Ġpri",
        "or"
      ],
      [
        "Ġcontin",
        "ue"
      ],
      [
        "Ġlit",
        "tle"
      ],
      [
        "i",
        "el"
      ],
      [
        "s",
        "ource"
      ],
      [
        "Ġp",
        "an"
      ],
      [
        "Ġo",
        "il"
      ],
      [
        "ro",
        "id"
      ],
      [
        "Ġu",
        "nd"
      ],
      [
        "Ġsy",
        "nt"
      ],
      [
        "Ġeff",
        "ort"
      ],
      [
        "ĠEng",
        "lish"
      ],
      [
        "l",
        "ict"
      ],
      [
        "Ġt",
        "ips"
      ],
      [
        "Ġb",
        "ig"
      ],
      [
        "Ġac",
        "cur"
      ],
      [
        "Ġ3",
        "0"
      ],
      [
        "Ġsa",
        "id"
      ],
      [
        "Ġrequire",
        "d"
      ],
      [
        "Ġconc",
        "ern"
      ],
      [
        "Ġgovern",
        "ment"
      ],
      [
        "c",
        "ies"
      ],
      [
        "at",
        "ors"
      ],
      [
        "Ġh",
        "ours"
      ],
      [
        "ang",
        "er"
      ],
      [
        "Ġpract",
        "ice"
      ],
      [
        "Ġstre",
        "ngth"
      ],
      [
        "m",
        "a"
      ],
      [
        "ã",
        "ģ"
      ],
      [
        "Ġon",
        "ce"
      ],
      [
        "em",
        "pt"
      ],
      [
        "Ġgo",
        "ing"
      ],
      [
        "Ġpers",
        "pect"
      ],
      [
        "Ġstart",
        "ing"
      ],
      [
        "Ġprovid",
        "ed"
      ],
      [
        "ht",
        "ml"
      ],
      [
        "s",
        "el"
      ],
      [
        "Ġa",
        "ge"
      ],
      [
        "Ġp",
        "age"
      ],
      [
        "Ġd",
        "ays"
      ],
      [
        "am",
        "ing"
      ],
      [
        "ĠA",
        "p"
      ],
      [
        "ab",
        "ilities"
      ],
      [
        "Ġpl",
        "ants"
      ],
      [
        "ĠĠĠĠĠĠĠĠĠĠĠĠĠĠĠĠ",
        "ĠĠĠĠĠĠĠĠĠĠĠĠĠĠĠĠ"
      ],
      [
        "Ġbelie",
        "f"
      ],
      [
        "Ġassoci",
        "ated"
      ],
      [
        "I",
        "m"
      ],
      [
        "Ġw",
        "ood"
      ],
      [
        "ers",
        "on"
      ],
      [
        "ĠP",
        "lease"
      ],
      [
        "Ġma",
        "jor"
      ],
      [
        "Ġopt",
        "ion"
      ],
      [
        "Ġins",
        "p"
      ],
      [
        "^^",
        "^^"
      ],
      [
        "'",
        "d"
      ],
      [
        "b",
        "on"
      ],
      [
        "Ġme",
        "et"
      ],
      [
        "Ġac",
        "ross"
      ],
      [
        "ac",
        "hes"
      ],
      [
        "Ġdes",
        "cript"
      ],
      [
        "Ġra",
        "nd"
      ],
      [
        "Ġdet",
        "ails"
      ],
      [
        "Ġback",
        "ground"
      ],
      [
        "Ġproper",
        "ties"
      ],
      [
        "Ġbo",
        "ard"
      ],
      [
        "Ġinflu",
        "ence"
      ],
      [
        "u",
        "ra"
      ],
      [
        "is",
        "ions"
      ],
      [
        "Ġwh",
        "ite"
      ],
      [
        "Ġcomput",
        "ing"
      ],
      [
        "Ġfiel",
        "ds"
      ],
      [
        "h",
        "ttps"
      ],
      [
        "Ġl",
        "oss"
      ],
      [
        "ĠW",
        "indows"
      ],
      [
        "Ġcont",
        "inu"
      ],
      [
        "Ġsmall",
        "er"
      ],
      [
        "Ġhist",
        "or"
      ],
      [
        "Ġident",
        "ify"
      ],
      [
        "i",
        "ans"
      ],
      [
        "o",
        "ad"
      ],
      [
        "p",
        "ly"
      ],
      [
        "in",
        "king"
      ],
      [
        "Ġs",
        "chool"
      ],
      [
        "it",
        "ect"
      ],
      [
        "Ġf",
        "it"
      ],
      [
        "us",
        "e"
      ],
      [
        "Ġl",
        "ower"
      ],
      [
        "ĠI",
        "nt"
      ],
      [
        "Ġst",
        "ates"
      ],
      [
        "con",
        "st"
      ],
      [
        "read",
        "y"
      ],
      [
        "A",
        "R"
      ],
      [
        "p",
        "ython"
      ],
      [
        "ĉ",
        "ĉ"
      ],
      [
        "Ġc",
        "ivil"
      ],
      [
        "ar",
        "c"
      ],
      [
        "pp",
        "er"
      ],
      [
        "ag",
        "er"
      ],
      [
        "Ġact",
        "ions"
      ],
      [
        "pri",
        "ate"
      ],
      [
        "I",
        "s"
      ],
      [
        "b",
        "it"
      ],
      [
        "s",
        "on"
      ],
      [
        "Ġre",
        "ason"
      ],
      [
        "id",
        "er"
      ],
      [
        "Ġpro",
        "b"
      ],
      [
        "um",
        "ents"
      ],
      [
        "Ġta",
        "king"
      ],
      [
        "Ġget",
        "ting"
      ],
      [
        "Ġproper",
        "ty"
      ],
      [
        "--------",
        "--------"
      ],
      [
        "Ġscient",
        "ific"
      ],
      [
        "Ġsumm",
        "ary"
      ],
      [
        "Ġscre",
        "en"
      ],
      [
        "is",
        "on"
      ],
      [
        "Ġd",
        "ate"
      ],
      [
        "Ġd",
        "iv"
      ],
      [
        "ĠW",
        "ith"
      ],
      [
        "ĠO",
        "nce"
      ],
      [
        "Ġdiffere",
        "nce"
      ],
      [
        "Ġcol",
        "lect"
      ],
      [
        "Ġph",
        "ot"
      ],
      [
        "âĢ",
        "Ŀ"
      ],
      [
        "Ġoff",
        "ers"
      ],
      [
        "Ġproject",
        "s"
      ],
      [
        "Ġeffic",
        "iency"
      ],
      [
        "l",
        "ist"
      ],
      [
        "p",
        "ing"
      ],
      [
        "u",
        "ild"
      ],
      [
        "Ġa",
        "verage"
      ],
      [
        "Ġl",
        "ength"
      ],
      [
        "Ġre",
        "view"
      ],
      [
        "el",
        "t"
      ],
      [
        "ĠS",
        "o"
      ],
      [
        "Ġse",
        "qu"
      ],
      [
        "Ġsh",
        "ape"
      ],
      [
        "Ġcomp",
        "an"
      ],
      [
        "Ġexperien",
        "ces"
      ],
      [
        "Ġb",
        "ar"
      ],
      [
        "Ġb",
        "ase"
      ],
      [
        "Ġpl",
        "ant"
      ],
      [
        "ĠN",
        "ew"
      ],
      [
        "Ġprogram",
        "s"
      ],
      [
        "Ġdef",
        "in"
      ],
      [
        "Ġoper",
        "ating"
      ],
      [
        "Ġrele",
        "vant"
      ],
      [
        "Ġp",
        "ay"
      ],
      [
        "om",
        "en"
      ],
      [
        "Ġ1",
        "00"
      ],
      [
        "Ġcour",
        "se"
      ],
      [
        "Ġp",
        "ut"
      ],
      [
        "Ġin",
        "nov"
      ],
      [
        "Ġd",
        "est"
      ],
      [
        "ĠC",
        "ons"
      ],
      [
        "Ġab",
        "s"
      ],
      [
        "Ġpr",
        "im"
      ],
      [
        "Ġpr",
        "ice"
      ],
      [
        "Ġprocess",
        "ing"
      ],
      [
        "Ġthrough",
        "out"
      ],
      [
        "Ġsur",
        "face"
      ],
      [
        "Ġvirt",
        "ual"
      ],
      [
        "W",
        "hen"
      ],
      [
        "t",
        "r"
      ],
      [
        "Ġ",
        "Ð"
      ],
      [
        "Ġre",
        "act"
      ],
      [
        "her",
        "s"
      ],
      [
        "ĠĠĠĠĠĠĠĠ",
        "ĠĠĠĠĠĠĠ"
      ],
      [
        "av",
        "ing"
      ],
      [
        "Ġcol",
        "umn"
      ],
      [
        "Ġprocess",
        "es"
      ],
      [
        "Ġexp",
        "ress"
      ],
      [
        "ĠHT",
        "ML"
      ],
      [
        "l",
        "en"
      ],
      [
        "l",
        "og"
      ],
      [
        "ou",
        "d"
      ],
      [
        "olog",
        "ies"
      ],
      [
        "Ġsol",
        "ar"
      ],
      [
        "ÂłÂł",
        "ÂłÂł"
      ],
      [
        "idd",
        "le"
      ],
      [
        "Ġarch",
        "itect"
      ],
      [
        "g",
        "o"
      ],
      [
        "t",
        "al"
      ],
      [
        "it",
        "ch"
      ],
      [
        "Ġb",
        "ed"
      ],
      [
        "Ġl",
        "a"
      ],
      [
        "Ġg",
        "round"
      ],
      [
        "Ġas",
        "pect"
      ],
      [
        "ul",
        "a"
      ],
      [
        "Ġan",
        "cient"
      ],
      [
        "Ġal",
        "ready"
      ],
      [
        "Ġres",
        "pect"
      ],
      [
        "()",
        ";"
      ],
      [
        "Ġbelie",
        "ve"
      ],
      [
        "Ġlevel",
        "s"
      ],
      [
        "Ġc",
        "at"
      ],
      [
        "Ġon",
        "es"
      ],
      [
        "ĠC",
        "ol"
      ],
      [
        "Ġ1",
        "8"
      ],
      [
        "Ġwe",
        "ather"
      ],
      [
        "Ġinter",
        "pre"
      ],
      [
        "Ġhealth",
        "y"
      ],
      [
        "Ġes",
        "pecial"
      ],
      [
        "Ġear",
        "ly"
      ],
      [
        "C",
        "om"
      ],
      [
        "H",
        "e"
      ],
      [
        "W",
        "hy"
      ],
      [
        "p",
        "m"
      ],
      [
        "Ġ",
        "id"
      ],
      [
        "id",
        "s"
      ],
      [
        "Ġbe",
        "com"
      ],
      [
        "Ġma",
        "xim"
      ],
      [
        "ĠB",
        "l"
      ],
      [
        "Ġdiffere",
        "nces"
      ],
      [
        "Ġem",
        "ail"
      ],
      [
        "Ġdec",
        "ision"
      ],
      [
        "Ġappe",
        "ar"
      ],
      [
        "3",
        "0"
      ],
      [
        "f",
        "ect"
      ],
      [
        "Ġc",
        "ross"
      ],
      [
        "Ġsuccess",
        "ful"
      ],
      [
        "Ġs",
        "end"
      ],
      [
        "ro",
        "p"
      ],
      [
        "Ġfor",
        "ce"
      ],
      [
        "Ġne",
        "ar"
      ],
      [
        "res",
        "h"
      ],
      [
        "Ġar",
        "ray"
      ],
      [
        "Ġob",
        "ser"
      ],
      [
        "Ġgra",
        "v"
      ],
      [
        "::",
        "::"
      ],
      [
        "Ġcult",
        "ure"
      ],
      [
        "Ġinc",
        "or"
      ],
      [
        "au",
        "gh"
      ],
      [
        "Ġdatab",
        "ase"
      ],
      [
        "Ġespecial",
        "ly"
      ],
      [
        "!",
        "!"
      ],
      [
        "'",
        ")"
[...]
