{
  "version": "1.0",
  "truncation": null,
  "padding": null,
  "added_tokens": [
    {
      "id": 0,
      "content": "<|unk|>",
      "single_word": false,
      "lstrip": false,
      "rstrip": false,
      "normalized": false,
      "special": true
    },
    {
      "id": 1,
      "content": "<|user|>",
      "single_word": false,
      "lstrip": false,
      "rstrip": false,
      "normalized": false,
      "special": true
    },
    {
      "id": 2,
      "content": "<|assistant|>",
      "single_word": false,
      "lstrip": false,
      "rstrip": false,
      "normalized": false,
      "special": true
    },
    {
      "id": 3,
      "content": "<|end|>",
      "single_word": false,
      "lstrip": false,
      "rstrip": false,
      "normalized": false,
      "special": true
    }
  ],
  "normalizer": null,
  "pre_tokenizer": {
    "type": "ByteLevel",
    "add_prefix_space": false,
    "trim_offsets": true,
    "use_regex": true
  },
  "post_processor": null,
  "decoder": {
    "type": "ByteLevel",
    "add_prefix_space": true,
    "trim_offsets": true,
    "use_regex": true
  },
  "model": {
    "type": "BPE",
    "dropout": null,
    "unk_token": "<|unk|>",
    "continuing_subword_prefix": null,
    "end_of_word_suffix": null,
    "fuse_unk": false,
    "byte_fallback": false,
    "ignore_merges": false,
    "vocab": {
      "<|unk|>": 0,
      "<|user|>": 1,
      "<|assistant|>": 2,
      "<|end|>": 3,
      "!": 4,
      "\"": 5,
      "#": 6,
      "$": 7,
      "%": 8,
      "&": 9,
      "'": 10,
      "(": 11,
      ")": 12,
      "*": 13,
      "+": 14,
      ",": 15,
      "-": 16,
      ".": 17,
      "/": 18,
      "0": 19,
      "1": 20,
      "2": 21,
      "3": 22,
      "4": 23,
      "5": 24,
      "6": 25,
      "7": 26,
      "8": 27,
      "9": 28,
      ":": 29,
      ";": 30,
      "<": 31,
      "=": 32,
      ">": 33,
      "?": 34,
      "@": 35,
      "A": 36,
      "B": 37,
      "C": 38,
      "D": 39,
      "E": 40,
      "F": 41,
      "G": 42,
      "H": 43,
      "I": 44,
      "J": 45,
      "K": 46,
      "L": 47,
      "M": 48,
      "N": 49,
      "O": 50,
      "P": 51,
      "Q": 52,
      "R": 53,
      "S": 54,
      "T": 55,
      "U": 56,
      "V": 57,
      "W": 58,
      "X": 59,
      "Y": 60,
      "Z": 61,
      "[": 62,
      "\\": 63,
      "]": 64,
      "^": 65,
      "_": 66,
      "`": 67,
      "a": 68,
      "b": 69,
      "c": 70,
      "d": 71,
      "e": 72,
      "f": 73,
      "g": 74,
      "h": 75,
      "i": 76,
      "j": 77,
      "k": 78,
      "l": 79,
      "m": 80,
      "n": 81,
      "o": 82,
      "p": 83,
      "q": 84,
      "r": 85,
      "s": 86,
      "t": 87,
      "u": 88,
      "v": 89,
      "w": 90,
      "x": 91,
      "y": 92,
      "z": 93,
      "{": 94,
      "|": 95,
      "}": 96,
      "~": 97,
      "¡": 98,
      "¢": 99,
      "£": 100,
      "¤": 101,
      "¥": 102,
      "¦": 103,
      "§": 104,
      "¨": 105,
      "©": 106,
      "ª": 107,
      "«": 108,
      "¬": 109,
      "®": 110,
      "¯": 111,
      "°": 112,
      "±": 113,
      "²": 114,
      "³": 115,
      "´": 116,
      "µ": 117,
      "¶": 118,
      "·": 119,
      "¸": 120,
      "¹": 121,
      "º": 122,
      "»": 123,
      "¼": 124,
      "½": 125,
      "¾": 126,
      "¿": 127,
      "À": 128,
      "Á": 129,
      "Â": 130,
      "Ã": 131,
      "Ä": 132,
      "Å": 133,
      "Æ": 134,
      "Ç": 135,
      "È": 136,
      "É": 137,
      "Ê": 138,
      "Ë": 139,
      "Ì": 140,
      "Í": 141,
      "Î": 142,
      "Ï": 143,
      "Ð": 144,
      "Ñ": 145,
      "Ò": 146,
      "Ó": 147,
      "Ô": 148,
      "Õ": 149,
      "Ö": 150,
      "×": 151,
      "Ø": 152,
      "Ù": 153,
      "Ú": 154,
      "Û": 155,
      "Ü": 156,
      "Ý": 157,
      "Þ": 158,
      "ß": 159,
      "à": 160,
      "á": 161,
      "â": 162,
      "ã": 163,
      "ä": 164,
      "å": 165,
      "æ": 166,
      "ç": 167,
      "è": 168,
      "é": 169,
      "ê": 170,
      "ë": 171,
      "ì": 172,
      "í": 173,
      "î": 174,
      "ï": 175,
      "ð": 176,
      "ñ": 177,
      "ò": 178,
      "ó": 179,
      "ô": 180,
      "õ": 181,
      "ö": 182,
      "÷": 183,
      "ø": 184,
      "ù": 185,
      "ú": 186,
      "û": 187,
      "ü": 188,
      "ý": 189,
      "þ": 190,
      "ÿ": 191,
      "Ā": 192,
      "ā": 193,
      "Ă": 194,
      "ă": 195,
      "Ą": 196,
      "ą": 197,
      "Ć": 198,
      "ć": 199,
      "Ĉ": 200,
      "ĉ": 201,
      "Ċ": 202,
      "ċ": 203,
      "Č": 204,
      "č": 205,
      "Ď": 206,
      "ď": 207,
      "Đ": 208,
      "đ": 209,
      "Ē": 210,
      "ē": 211,
      "Ĕ": 212,
      "ĕ": 213,
      "Ė": 214,
      "ė": 215,
      "Ę": 216,
      "ę": 217,
      "Ě": 218,
      "ě": 219,
      "Ĝ": 220,
      "ĝ": 221,
      "Ğ": 222,
      "ğ": 223,
      "Ġ": 224,
      "ġ": 225,
      "Ģ": 226,
      "ģ": 227,
      "Ĥ": 228,
      "ĥ": 229,
      "Ħ": 230,
      "ħ": 231,
      "Ĩ": 232,
      "ĩ": 233,
      "Ī": 234,
      "ī": 235,
      "Ĭ": 236,
      "ĭ": 237,
      "Į": 238,
      "į": 239,
      "İ": 240,
      "ı": 241,
      "Ĳ": 242,
      "ĳ": 243,
      "Ĵ": 244,
      "ĵ": 245,
      "Ķ": 246,
      "ķ": 247,
      "ĸ": 248,
      "Ĺ": 249,
      "ĺ": 250,
      "Ļ": 251,
      "ļ": 252,
      "Ľ": 253,
      "ľ": 254,
      "Ŀ": 255,
      "ŀ": 256,
      "Ł": 257,
      "ł": 258,
      "Ń": 259,
      "Ġt": 260,
      "Ġa": 261,
      "in": 262,
      "čĊ": 263,
      "he": 264,
      "re": 265,
      "on": 266,
      "er": 267,
      "Ġthe": 268,
      "at": 269,
      "Ġs": 270,
      "Ġc": 271,
      "nd": 272,
      "or": 273,
      "is": 274,
      "an": 275,
      "ou": 276,
      "es": 277,
      "it": 278,
      "ĠĠ": 279,
      "Ġw": 280,
      "en": 281,
      "Ġp": 282,
      "ing": 283,
      "Ġo": 284,
      "Ġf": 285,
      "Ġm": 286,
      "Ġand": 287,
      "Ġb": 288,
      "al": 289,
      "Ġto": 290,
      "Ġin": 291,
      "le": 292,
      "Ġd": 293,
      "ar": 294,
      "Ġof": 295,
      "ed": 296,
      "ion": 297,
      "ic": 298,
      "as": 299,
      "ro": 300,
      "us": 301,
      "Ġh": 302,
      "Ġth": 303,
      "Ġe": 304,
      "ct": 305,
      "Ġy": 306,
      "om": 307,
      "Ġl": 308,
      "ent": 309,
      "Ġyou": 310,
      "Ġre": 311,
      "ve": 312,
      "Ġn": 313,
      "et": 314,
      "Ġis": 315,
      "<|": 316,
      "|>": 317,
      "il": 318,
      "im": 319,
      "Ġg": 320,
      "ow": 321,
      "el": 322,
      "ĠĠĠĠ": 323,
      "am": 324,
      "ist": 325,
      "st": 326,
      "ce": 327,
      "ch": 328,
      "id": 329,
      "Ġfor": 330,
      "Ġthat": 331,
      "ant": 332,
      "Ġbe": 333,
      "ation": 334,
      "ol": 335,
      "ĠT": 336,
      "ut": 337,
      "ot": 338,
      "ĠI": 339,
      "ig": 340,
      "ra": 341,
      "Ġst": 342,
      "ly": 343,
      "Ġon": 344,
      "if": 345,
      "ith": 346,
      "Ġpro": 347,
      "Ġit": 348,
      "od": 349,
      "ver": 350,
      "Ġas": 351,
      "ay": 352,
      "ul": 353,
      "Ġcon": 354,
      "Ġcan": 355,
      "un": 356,
      "ur": 357,
      "Ġan": 358,
      "Ġwith": 359,
      "Ġor": 360,
      "ĠA": 361,
      "Ġare": 362,
      "ass": 363,
      "se": 364,
      "ge": 365,
      "ir": 366,
      "Ġus": 367,
      "ate": 368,
      "pe": 369,
      "Ġcom": 370,
      "Ġex": 371,
      "ld": 372,
      "ad": 373,
      "um": 374,
      "ke": 375,
      "ĠS": 376,
      "Ġal": 377,
      "ers": 378,
      "Ġwh": 379,
      "Ġhe": 380,
      "qu": 381,
      "ĠĠĠ": 382,
      "ure": 383,
      "ess": 384,
      "Ġyour": 385,
      "Ġv": 386,
      "Ġde": 387,
      "istant": 388,
      "ĠC": 389,
      "ter": 390,
      "ri": 391,
      "ab": 392,
      "end": 393,
      "user": 394,
      "her": 395,
      "assistant": 396,
      "ere": 397,
      "ore": 398,
      "Ġha": 399,
      "op": 400,
      "pl": 401,
      "ĠThe": 402,
      "em": 403,
      "out": 404,
      "'s": 405,
      "ity": 406,
      "ck": 407,
      "Ġsu": 408,
      "ort": 409,
      "est": 410,
      "pt": 411,
      "ould": 412,
      "ment": 413,
      "ain": 414,
      "Ġne": 415,
      "igh": 416,
      "ill": 417,
      "ive": 418,
      "th": 419,
      "ect": 420,
      "os": 421,
      "ĠP": 422,
      "Ġim": 423,
      "ies": 424,
      "Ġ\"": 425,
      "Ġr": 426,
      "Ġle": 427,
      "Ġch": 428,
      "nt": 429,
      "Ġ(": 430,
      "ĠH": 431,
      "age": 432,
      "ple": 433,
      "ĠM": 434,
      "ome": 435,
      "iz": 436,
      "rom": 437,
      "Ġby": 438,
      "ions": 439,
      "ine": 440,
      "ight": 441,
      "Ġhave": 442,
      "iv": 443,
      "Ġme": 444,
      "Ġen": 445,
      "ial": 446,
      "per": 447,
      "Ġse": 448,
      "Ġma": 449,
      "oc": 450,
      "Ġpl": 451,
      "and": 452,
      "Ġnot": 453,
      "Ġsh": 454,
      "res": 455,
      "Ġwor": 456,
      "ical": 457,
      "ide": 458,
      "ame": 459,
      "pp": 460,
      "ud": 461,
      "our": 462,
      "Ġ1": 463,
      "all": 464,
      "Ġu": 465,
      "Ġint": 466,
      "Ġfrom": 467,
      "act": 468,
      "ĠW": 469,
      "ĠD": 470,
      "ĠE": 471,
      "ĠB": 472,
      "Ġab": 473,
      "art": 474,
      "Ġ=": 475,
      "ell": 476,
      "ther": 477,
      "ĠF": 478,
      "og": 479,
      "ile": 480,
      "Ġwe": 481,
      "ĠR": 482,
      "Ġad": 483,
      "``": 484,
      "for": 485,
      "ust": 486,
      "ĠĠĠĠĠĠĠĠ": 487,
      "cl": 488,
      "Ġat": 489,
      "ich": 490,
      "Ġimp": 491,
      "ĠG": 492,
      "Ġcont": 493,
      "Ġcomp": 494,
      "able": 495,
      "are": 496,
      "his": 497,
      "ult": 498,
      "Ġthis": 499,
      "Ġdo": 500,
      "Ġk": 501,
      "ĠL": 502,
      "rou": 503,
      "Ġmore": 504,
      "ard": 505,
      "ib": 506,
      "ag": 507,
      "ations": 508,
      "form": 509,
      "--": 510,
      "ang": 511,
      "Ġtheir": 512,
      "Ġother": 513,
      "ind": 514,
      "The": 515,
      "ep": 516,
      "cess": 517,
      "ry": 518,
      "ue": 519,
      "ction": 520,
      "vel": 521,
      "Ġres": 522,
      "Ġcre": 523,
      "ance": 524,
      "ie": 525,
      "ff": 526,
      "Ġte": 527,
      "low": 528,
      "king": 529,
      "Ġun": 530,
      "Ġwill": 531,
      "ire": 532,
      "Ġwhich": 533,
      "du": 534,
      "ack": 535,
      "Ġwas": 536,
      "Ġsome": 537,
      "so": 538,
      "gh": 539,
      "ans": 540,
      "ence": 541,
      "ase": 542,
      "Ġsc": 543,
      "Ġwhe": 544,
      "ces": 545,
      "Ġhel": 546,
      "Ġuse": 547,
      "Ġ2": 548,
      "Ġqu": 549,
      "ost": 550,
      "Ġspe": 551,
      "ime": 552,
      "ĠThis": 553,
      "Ġgo": 554,
      "Ġsuch": 555,
      "Ġhelp": 556,
      "ated": 557,
      "Ġ-": 558,
      "ite": 559,
      "Ġmod": 560,
      "Ġli": 561,
      "ous": 562,
      "iff": 563,
      "ĠO": 564,
      "ast": 565,
      "ach": 566,
      "Ġdat": 567,
      "Ġman": 568,
      "Ġhas": 569,
      "Ġcl": 570,
      "oo": 571,
      "Ġbut": 572,
      "Ġtra": 573,
      "Ġsy": 574,
      "Ġfe": 575,
      "ory": 576,
      "ign": 577,
      "ong": 578,
      "ĠN": 579,
      "ks": 580,
      "Ġso": 581,
      "hat": 582,
      "Ġj": 583,
      "ap": 584,
      "ice": 585,
      "ific": 586,
      "xt": 587,
      "av": 588,
      "Ġac": 589,
      "Ġif": 590,
      "Ġdiff": 591,
      "Ġthey": 592,
      "Ġwould": 593,
      "clud": 594,
      "ace": 595,
      "ĠU": 596,
      "Ġalso": 597,
      "Ġany": 598,
      "Ġmay": 599,
      "ary": 600,
      "ition": 601,
      "ual": 602,
      "ac": 603,
      "Ġar": 604,
      "Ġcomm": 605,
      "ject": 606,
      "Ġneed": 607,
      "Ġabout": 608,
      "ip": 609,
      "int": 610,
      "ode": 611,
      "Ġout": 612,
      "now": 613,
      "Ġup": 614,
      "Ġinclud": 615,
      "00": 616,
      "ru": 617,
      "ress": 618,
      "Ġro": 619,
      "Ġmy": 620,
      "stem": 621,
      "Ġev": 622,
      "ĠIt": 623,
      "ient": 624,
      "ĠĠĠĠĠĠĠ": 625,
      "Ġlike": 626,
      "one": 627,
      "Ġdis": 628,
      "Ġdata": 629,
      "Ġcons": 630,
      "ors": 631,
      "Ġper": 632,
      "Ġits": 633,
      "Ġpre": 634,
      "ens": 635,
      "Ġhow": 636,
      "nder": 637,
      "Ġfun": 638,
      "Ġthem": 639,
      "Ġprov": 640,
      "Ġused": 641,
      "lo": 642,
      "ĠY": 643,
      "Ġtime": 644,
      "Ġspec": 645,
      "ĠIn": 646,
      "Ġusing": 647,
      "Ġexam": 648,
      "ber": 649,
      "ning": 650,
      "Ġall": 651,
      "Ġdes": 652,
      "etw": 653,
      "Ġcould": 654,
      "Ġone": 655,
      "con": 656,
      "```": 657,
      "Ġknow": 658,
      "Ġsystem": 659,
      "Ġta": 660,
      "ari": 661,
      "Ġtr": 662,
      "ating": 663,
      "put": 664,
      "ram": 665,
      "Ġover": 666,
      "ount": 667,
      "ely": 668,
      "Ġdiffere": 669,
      "ater": 670,
      "Ġinto": 671,
      "Ġthere": 672,
      "Ġsp": 673,
      "ĠJ": 674,
      "Ġimport": 675,
      "ics": 676,
      "ular": 677,
      "ener": 678,
      "led": 679,
      "ft": 680,
      "Ġnew": 681,
      "Ġcol": 682,
      "Ġmake": 683,
      "ild": 684,
      "Ġ3": 685,
      "ail": 686,
      "Ġser": 687,
      "ize": 688,
      "angu": 689,
      "com": 690,
      "Ġcode": 691,
      "ings": 692,
      "Ġmodel": 693,
      "Ġinter": 694,
      "velop": 695,
      "ub": 696,
      "Ġam": 697,
      "In": 698,
      "ord": 699,
      "Ġhis": 700,
      "Ġke": 701,
      "âĶ": 702,
      "ature": 703,
      "ible": 704,
      "Ġwhat": 705,
      "ful": 706,
      "Ġlangu": 707,
      "Ġset": 708,
      "Ġway": 709,
      "Ġpos": 710,
      "Ġunder": 711,
      "âĶĢ": 712,
      "Ġadd": 713,
      "ove": 714,
      "ates": 715,
      "Ġval": 716,
      "âĢ": 717,
      "Ġem": 718,
      "pen": 719,
      "Ġap": 720,
      "ms": 721,
      "Ġprog": 722,
      "ments": 723,
      "Ġapp": 724,
      "Ġthese": 725,
      "ased": 726,
      "Ġwho": 727,
      "very": 728,
      "aus": 729,
      "ally": 730,
      "ick": 731,
      "Ġshould": 732,
      "Ġind": 733,
      "Ġwork": 734,
      "elf": 735,
      "vers": 736,
      "Ġpart": 737,
      "Ġhum": 738,
      "ree": 739,
      "Ġexample": 740,
      "ility": 741,
      "olog": 742,
      "Ġsim": 743,
      "ents": 744,
      "eth": 745,
      "ower": 746,
      "Ġpr": 747,
      "Ġrel": 748,
      "Ġty": 749,
      "ish": 750,
      "Ġeff": 751,
      "Ġlear": 752,
      "ĠčĊ": 753,
      "ons": 754,
      "ĠSt": 755,
      "rib": 756,
      "Ġph": 757,
      "ities": 758,
      "Ġob": 759,
      "Ġgener": 760,
      "Ġnum": 761,
      "Ġdevelop": 762,
      "Ġfunction": 763,
      "Ġeach": 764,
      "get": 765,
      "Ġdifferent": 766,
      "Ġpe": 767,
      "Ġbu": 768,
      "Ġplay": 769,
      "cre": 770,
      "Ġrequ": 771,
      "'t": 772,
      "ll": 773,
      "Ġmany": 774,
      "row": 775,
      "rough": 776,
      "Ġfol": 777,
      "Ġact": 778,
      "ĠYou": 779,
      "ia": 780,
      "âĶĢâĶĢ": 781,
      "les": 782,
      "Ġinv": 783,
      "Ġget": 784,
      "rit": 785,
      "Ġ|": 786,
      "Ġwhen": 787,
      "ph": 788,
      "ark": 789,
      "Ġinst": 790,
      "Ġra": 791,
      "Ġ{": 792,
      "ov": 793,
      "Ġstr": 794,
      "Ġpers": 795,
      "Ġcreate": 796,
      "ose": 797,
      "ound": 798,
      "ys": 799,
      "ĠAI": 800,
      "Ġimportant": 801,
      "Ġsm": 802,
      "Ġprocess": 803,
      "ange": 804,
      "tain": 805,
      "lect": 806,
      "Ġvari": 807,
      "ough": 808,
      "als": 809,
      "ript": 810,
      "----": 811,
      "een": 812,
      "ever": 813,
      "Ġexpl": 814,
      "Ġworld": 815,
      "ath": 816,
      "round": 817,
      "ĠHow": 818,
      "Ġthan": 819,
      "chn": 820,
      "ear": 821,
      "ative": 822,
      "Ġwant": 823,
      "ict": 824,
      "Ġlanguage": 825,
      "Ġfollow": 826,
      "ood": 827,
      "pend": 828,
      "Ġprogram": 829,
      "etween": 830,
      "ne": 831,
      "Ġtw": 832,
      "Ġexper": 833,
      "Ġbetween": 834,
      "Ġprodu": 835,
      "urn": 836,
      "cur": 837,
      "te": 838,
      "What": 839,
      "ak": 840,
      "Ġdet": 841,
      "Ġwhere": 842,
      "ople": 843,
      "ĠIf": 844,
      "Ġthrough": 845,
      "Ġass": 846,
      "plic": 847,
      "ience": 848,
      "erm": 849,
      "ise": 850,
      "ages": 851,
      "()": 852,
      "ced": 853,
      "wn": 854,
      "ĠV": 855,
      "Ġmost": 856,
      "own": 857,
      "ract": 858,
      "ps": 859,
      "formation": 860,
      "stand": 861,
      "ten": 862,
      "ook": 863,
      "Ġtechn": 864,
      "Ġpo": 865,
      "ss": 866,
      "oth": 867,
      "ef": 868,
      "Ġwhile": 869,
      "Ġreg": 870,
      "ential": 871,
      "irst": 872,
      "gg": 873,
      "Ġoff": 874,
      "ious": 875,
      "ices": 876,
      "Ġform": 877,
      "ob": 878,
      "Ġcomput": 879,
      "ting": 880,
      "yth": 881,
      "Ġatt": 882,
      "its": 883,
      "Ġbeen": 884,
      "Ġpeople": 885,
      "tern": 886,
      "Ġadv": 887,
      "Ġtrans": 888,
      "ĠK": 889,
      "Ġcomple": 890,
      "Ġprovide": 891,
      "Ġcal": 892,
      "Ġcur": 893,
      "Ġbec": 894,
      "Ġfile": 895,
      "Ġ'": 896,
      "ife": 897,
      "ds": 898,
      "ause": 899,
      "ble": 900,
      "Ġtwo": 901,
      "Ġno": 902,
      "ality": 903,
      "Ġco": 904,
      "Ġperson": 905,
      "Ġlar": 906,
      "rite": 907,
      "Ġstart": 908,
      "Ġchar": 909,
      "Ġthen": 910,
      "ues": 911,
      "Ġspecific": 912,
      "Ġfind": 913,
      "Ġunderstand": 914,
      "**": 915,
      "ng": 916,
      "Ġsol": 917,
      "Ġincluding": 918,
      "Ġche": 919,
      "ware": 920,
      "cept": 921,
      "erg": 922,
      "Ġinformation": 923,
      "Ġpower": 924,
      "cy": 925,
      "Ġhigh": 926,
      "Ġlist": 927,
      "ural": 928,
      "\",": 929,
      "pect": 930,
      "Ġhuman": 931,
      "reat": 932,
      "Ġpol": 933,
      "Ġgame": 934,
      "Ġ`": 935,
      "Ġwell": 936,
      "Ġallow": 937,
      "ruct": 938,
      "uring": 939,
      "Ġsa": 940,
      "Ġinf": 941,
      "Ġrem": 942,
      "Ġgood": 943,
      "port": 944,
      "ython": 945,
      "Ġ<": 946,
      "Ġquest": 947,
      "Ġconsid": 948,
      "Ġmat": 949,
      "Ġdef": 950,
      "Ġwere": 951,
      "ness": 952,
      "Ġrun": 953,
      "Ġtext": 954,
      "ays": 955,
      "//": 956,
      "oy": 957,
      "Ġtrain": 958,
      "Ġposs": 959,
      "Ġjust": 960,
      "Ġsk": 961,
      "Ġfl": 962,
      "pport": 963,
      "ĠFor": 964,
      "Ġrec": 965,
      "Ġweb": 966,
      "Ġag": 967,
      "Ġown": 968,
      "Ġmain": 969,
      "hes": 970,
      "Ġfirst": 971,
      "ving": 972,
      "iqu": 973,
      "ves": 974,
      "lease": 975,
      "ork": 976,
      "arch": 977,
      "Ġref": 978,
      "iew": 979,
      "eg": 980,
      "Ġret": 981,
      "How": 982,
      "Ġback": 983,
      "Ġdist": 984,
      "ized": 985,
      "Ġkey": 986,
      "ake": 987,
      "Ġpop": 988,
      "Ġsign": 989,
      "alth": 990,
      "Ġimpro": 991,
      "ĠHowever": 992,
      "ered": 993,
      "Ġav": 994,
      "..": 995,
      "ution": 996,
      "Ġour": 997,
      "ically": 998,
      "Ġher": 999,
      "Ġlead": 1000,
      "Ġ5": 1001,
      "Ġperform": 1002,
      "Ġsoc": 1003,
      "Ġopt": 1004,
      "ety": 1005,
      "der": 1006,
      "Ġfact": 1007,
      "Ġdepend": 1008,
      "Ġnumber": 1009,
      "Ġ+": 1010,
      "Ġ4": 1011,
      "hen": 1012,
      "Ġplan": 1013,
      "Ġhad": 1014,
      "Ġdesign": 1015,
      "Ġfil": 1016,
      "Ġhand": 1017,
      "Ġbeing": 1018,
      "Ġstep": 1019,
      "ink": 1020,
      "Ġbuild": 1021,
      "Ġ0": 1022,
      "Ġresp": 1023,
      "Ġgra": 1024,
      "),": 1025,
      "ian": 1026,
      "read": 1027,
      "ify": 1028,
      "Ġbest": 1029,
      "ien": 1030,
      "Ġobject": 1031,
      ");": 1032,
      "eng": 1033,
      "Ġmin": 1034,
      "ĠHere": 1035,
      "dition": 1036,
      "Ġlight": 1037,
      "ved": 1038,
      "Ġide": 1039,
      "Ġtake": 1040,
      "Ġcharact": 1041,
      "Ġloc": 1042,
      "Ġdoes": 1043,
      "Ġpot": 1044,
      "Ġopen": 1045,
      "Ġonly": 1046,
      "fore": 1047,
      "ĠCh": 1048,
      "iron": 1049,
      "Ġmeth": 1050,
      "rent": 1051,
      "Ġdec": 1052,
      "ines": 1053,
      "nce": 1054,
      "ty": 1055,
      "red": 1056,
      "Ġrep": 1057,
      "Ġsub": 1058,
      "Ġtyp": 1059,
      "Ġmed": 1060,
      "ures": 1061,
      "ology": 1062,
      ").": 1063,
      "Ġdown": 1064,
      "Ġinclude": 1065,
      "ĠĠĠĠĠĠĠĠĠĠĠĠĠĠĠĠ": 1066,
      "Ġtas": 1067,
      "Ġbased": 1068,
      "Ġrequire": 1069,
      "ade": 1070,
      "uch": 1071,
      "Ġ20": 1072,
      "ied": 1073,
      "ited": 1074,
      "Ġfi": 1075,
      "Ġlife": 1076,
      "Ġresult": 1077,
      "Ġcar": 1078,
      "Ġlong": 1079,
      "Ġsmall": 1080,
      "Ġexp": 1081,
      "ivid": 1082,
      "Ġart": 1083,
      "Ġsee": 1084,
      "gor": 1085,
      "nect": 1086,
      "Ġpoint": 1087,
      "Ġmethod": 1088,
      "cript": 1089,
      "rain": 1090,
      "Ġbel": 1091,
      "Ġinput": 1092,
      "Ġcommun": 1093,
      "Ġeas": 1094,
      "Ġprovid": 1095,
      "ource": 1096,
      "Ġincre": 1097,
      "ĠAd": 1098,
      "ex": 1099,
      "Ġlearning": 1100,
      "Ġname": 1101,
      "Ġhealth": 1102,
      "viron": 1103,
      "Ġaut": 1104,
      "ather": 1105,
      "Ġcor": 1106,
      "Ġclass": 1107,
      "Ġapplic": 1108,
      "Ġtry": 1109,
      "Ġwater": 1110,
      "Ġoften": 1111,
      "Ġeven": 1112,
      "Ġappro": 1113,
      "apt": 1114,
      "ization": 1115,
      "cial": 1116,
      "Ġins": 1117,
      "ples": 1118,
      "Ġlet": 1119,
      "ming": 1120,
      "Âł": 1121,
      "self": 1122,
      "ern": 1123,
      "Ġent": 1124,
      "kes": 1125,
      "ily": 1126,
      "irect": 1127,
      "Ġprom": 1128,
      "Ġpossible": 1129,
      "ward": 1130,
      "ody": 1131,
      "ĠHe": 1132,
      "Ġcomplex": 1133,
      "::": 1134,
      "ergy": 1135,
      "line": 1136,
      "vent": 1137,
      "ron": 1138,
      "Ġevery": 1139,
      "Ġredu": 1140,
      "Ġeffect": 1141,
      "gan": 1142,
      "Ġext": 1143,
      "Ġvalue": 1144,
      "ives": 1145,
      "Here": 1146,
      "Ġshe": 1147,
      "Ġsur": 1148,
      "Ġbl": 1149,
      "Ġpopular": 1150,
      "any": 1151,
      "Ġfin": 1152,
      "Ġgu": 1153,
      "Ġacc": 1154,
      "ring": 1155,
      "ric": 1156,
      "ts": 1157,
      "Ġlarge": 1158,
      "Ġboth": 1159,
      "ources": 1160,
      "gorith": 1161,
      "10": 1162,
      "fter": 1163,
      "hip": 1164,
      "Ġ6": 1165,
      "ond": 1166,
      "Ġyear": 1167,
      "old": 1168,
      "Ġens": 1169,
      "ĠĠĠĠĠĠĠĠĠĠĠ": 1170,
      "Ġproject": 1171,
      "Ġfew": 1172,
      "ribut": 1173,
      "Ġ[": 1174,
      "Ġlearn": 1175,
      "up": 1176,
      "atures": 1177,
      "):": 1178,
      "Ġstud": 1179,
      "Ġcontro": 1180,
      "Ġpar": 1181,
      "Ġtop": 1182,
      "ax": 1183,
      "Ġfollowing": 1184,
      "'re": 1185,
      "Ġeng": 1186,
      "mat": 1187,
      "ional": 1188,
      "Ġmult": 1189,
      "Ġdi": 1190,
      "Ġproper": 1191,
      "Ġenviron": 1192,
      "Ġknown": 1193,
      "Ġcount": 1194,
      "Ġenergy": 1195,
      "It": 1196,
      "Ġinvol": 1197,
      "lu": 1198,
      "Ġconf": 1199,
      "Ġsupport": 1200,
      "ism": 1201,
      "etter": 1202,
      "To": 1203,
      "Ġmuch": 1204,
      "Ġreal": 1205,
      "Ġimprove": 1206,
      "Ġhist": 1207,
      "Ġalgorith": 1208,
      "Ġvis": 1209,
      "Ġpat": 1210,
      "Ġ.": 1211,
      "Ġmaking": 1212,
      "Ġpotential": 1213,
      "ser": 1214,
      "ertain": 1215,
      "Ġday": 1216,
      "cul": 1217,
      "Ġuser": 1218,
      "ividual": 1219,
      "Ġbeh": 1220,
      "other": 1221,
      "Ġ$": 1222,
      "Ġdon": 1223,
      "ÂłÂł": 1224,
      "lic": 1225,
      "Ġmem": 1226,
      "Ġproble": 1227,
      "'m": 1228,
      "20": 1229,
      "iss": 1230,
      "Ġequ": 1231,
      "Ġ#": 1232,
      "Ġreturn": 1233,
      "Ġ*": 1234,
      "Ġaccess": 1235,
      "Ġaround": 1236,
      "Ġwrit": 1237,
      "Ġend": 1238,
      "ident": 1239,
      "Ġconst": 1240,
      "ĠThey": 1241,
      "Ġ}": 1242,
      "inu": 1243,
      "Ġmight": 1244,
      "Ġsoft": 1245,
      "Ġindividual": 1246,
      "ability": 1247,
      "Ġcurrent": 1248,
      "Ġ19": 1249,
      "vices": 1250,
      "Ġoper": 1251,
      "ĠRe": 1252,
      "Ġcommand": 1253,
      "sw": 1254,
      "Ġbetter": 1255,
      "Ġpartic": 1256,
      "Ġtype": 1257,
      "ational": 1258,
      "ote": 1259,
      "Ġbre": 1260,
      "ets": 1261,
      "Ġread": 1262,
      "ocus": 1263,
      "oid": 1264,
      "Ġmean": 1265,
      "aw": 1266,
      "mer": 1267,
      "hed": 1268,
      "Ġtem": 1269,
      "riend": 1270,
      "Ġright": 1271,
      "dit": 1272,
      "Ġbefore": 1273,
      "Ġdisc": 1274,
      "Ġconsider": 1275,
      "ier": 1276,
      "ĠWhat": 1277,
      "âĸ": 1278,
      "ately": 1279,
      "Ġfeel": 1280,
      "ext": 1281,
      "ĠPro": 1282,
      "resent": 1283,
      "Ġdevelopment": 1284,
      "ĠUn": 1285,
      "Ġsever": 1286,
      "Ġproduct": 1287,
      "Ġele": 1288,
      "Ġmade": 1289,
      "comm": 1290,
      "Ġcommon": 1291,
      "Ġcle": 1292,
      "Ġpur": 1293,
      "Ġprot": 1294,
      "Ġbo": 1295,
      "Ġconnect": 1296,
      "erest": 1297,
      "][": 1298,
      "Ġ10": 1299,
      "Ġed": 1300,
      "Ġdirect": 1301,
      "Ġnetw": 1302,
      "Ġwithout": 1303,
      "Wh": 1304,
      "ock": 1305,
      ".\"": 1306,
      "Ġbelie": 1307,
      "ĠCon": 1308,
      "Ġmus": 1309,
      "Ġmet": 1310,
      "ĠDe": 1311,
      "Ġsystems": 1312,
      "Ġenvironment": 1313,
      "Ġ8": 1314,
      "ren": 1315,
      "Ġmach": 1316,
      "Ġseveral": 1317,
      "Can": 1318,
      "Ġgive": 1319,
      "to": 1320,
      "Ġimpact": 1321,
      "Ġcomputer": 1322,
      "This": 1323,
      "ists": 1324,
      "Ġsom": 1325,
      "Ġcult": 1326,
      "Ġtool": 1327,
      "Ġstill": 1328,
      "__": 1329,
      "cle": 1330,
      "conom": 1331,
      "Ġfiel": 1332,
      "itive": 1333,
      "ually": 1334,
      "Ġve": 1335,
      "ars": 1336,
      "ĠOpen": 1337,
      "âĶĢâĶĢâĶĢâĶĢ": 1338,
      "Ġtraining": 1339,
      "St": 1340,
      "sc": 1341,
      "Ġi": 1342,
      "Ġsure": 1343,
      "Ġpass": 1344,
      "gin": 1345,
      "Ġhere": 1346,
      "Ġinterest": 1347,
      "Ġhard": 1348,
      "Ġsteps": 1349,
      "vice": 1350,
      "ense": 1351,
      "arm": 1352,
      "Ġchang": 1353,
      "Sure": 1354,
      "tt": 1355,
      "Ġpract": 1356,
      "Ġmark": 1357,
      "Ġstate": 1358,
      "Ġchall": 1359,
      "Ġcontain": 1360,
      "ĠĠĠĠĠ": 1361,
      "ĠPython": 1362,
      "Ġself": 1363,
      "âĢĻ": 1364,
      "Ġcontrol": 1365,
      "ner": 1366,
      "Ġbecause": 1367,
      "Ġbas": 1368,
      "air": 1369,
      "Ġmulti": 1370,
      "Ġlim": 1371,
      "Ġcharacter": 1372,
      "ames": 1373,
      "Ġfood": 1374,
      "Ġansw": 1375,
      "ustom": 1376,
      "ique": 1377,
      "(\"": 1378,
      "Ġmon": 1379,
      "Ġmove": 1380,
      "Ġsignific": 1381,
      "cing": 1382,
      "pro": 1383,
      "arth": 1384,
      "ĠAn": 1385,
      "ave": 1386,
      "Ġstre": 1387,
      "ĠAs": 1388,
      "Ġcent": 1389,
      "Ġlo": 1390,
      "Ġprof": 1391,
      "--------": 1392,
      "=\"": 1393,
      "atch": 1394,
      "Ġel": 1395,
      "Ġsimple": 1396,
      "Ġwrite": 1397,
      "yle": 1398,
      "Ġensure": 1399,
      "Ġduring": 1400,
      "Ġable": 1401,
      "Ġsoftware": 1402,
      "name": 1403,
      "Ġkeep": 1404,
      "plement": 1405,
      "Ġscript": 1406,
      "Ġphys": 1407,
      "Ġsame": 1408,
      "ases": 1409,
      "ibr": 1410,
      "ĠEx": 1411,
      "ix": 1412,
      "Ġvery": 1413,
      "Ġrange": 1414,
      "Ġcap": 1415,
      "Ġmov": 1416,
      "indow": 1417,
      "ven": 1418,
      "essage": 1419,
      "Ġlevel": 1420,
      "Ġexperience": 1421,
      "Ġoutput": 1422,
      "imes": 1423,
      "Ġhapp": 1424,
      "ec": 1425,
      "ention": 1426,
      "Ġgrow": 1427,
      "##": 1428,
      "Ġstory": 1429,
      "Ġfocus": 1430,
      "Ġlay": 1431,
      "Ġeffic": 1432,
      "Ġfactors": 1433,
      "ĠThese": 1434,
      "bo": 1435,
      "ior": 1436,
      "Ġsum": 1437,
      "Ġskill": 1438,
      "Ġair": 1439,
      "ince": 1440,
      "Ġfam": 1441,
      "ggest": 1442,
      "day": 1443,
      "tle": 1444,
      "oss": 1445,
      "ci": 1446,
      "Ġagain": 1447,
      "Ġstruct": 1448,
      "Ġtasks": 1449,
      "ument": 1450,
      "Ġexplain": 1451,
      "Ġquestions": 1452,
      "Ġgreat": 1453,
      "ray": 1454,
      "Ġwebs": 1455,
      "You": 1456,
      "Ġmust": 1457,
      "Ġsocial": 1458,
      "Ġsw": 1459,
      "ilities": 1460,
      "ries": 1461,
      "ank": 1462,
      "Ġsuggest": 1463,
      "Ġeconom": 1464,
      "Ġconcept": 1465,
      "ways": 1466,
      "Ġafter": 1467,
      "Ġfound": 1468,
      "Ġrese": 1469,
      "Ġimage": 1470,
      "Ġothers": 1471,
      "Ġbr": 1472,
      "Ġx": 1473,
      "ale": 1474,
      "val": 1475,
      "aterial": 1476,
      "Ġprogramming": 1477,
      "ator": 1478,
      "ata": 1479,
      "iven": 1480,
      "ething": 1481,
      "Ġsignificant": 1482,
      "bers": 1483,
      "Ġpri": 1484,
      "ash": 1485,
      "Ġblo": 1486,
      "verse": 1487,
      "As": 1488,
      "iness": 1489,
      "Ġbi": 1490,
      "Ġiss": 1491,
      "ger": 1492,
      "ton": 1493,
      "ted": 1494,
      "ĠWh": 1495,
      "icult": 1496,
      "Ġavail": 1497,
      "',": 1498,
      "ead": 1499,
      "Ġhim": 1500,
      "Ġperformance": 1501,
      "til": 1502,
      "Ġ7": 1503,
      "Ġtest": 1504,
      "here": 1505,
      "Ġexist": 1506,
      "ĠSome": 1507,
      "If": 1508,
      "Ġthose": 1509,
      "ĠAl": 1510,
      "oose": 1511,
      "po": 1512,
      "Ġtoo": 1513,
      "Ġplace": 1514,
      "Ġresources": 1515,
      "Ġpersonal": 1516,
      "Ġless": 1517,
      "ublic": 1518,
      "Ġenc": 1519,
      "de": 1520,
      "err": 1521,
      "ared": 1522,
      "'ll": 1523,
      "yn": 1524,
      "Ġthough": 1525,
      "000": 1526,
      "Ġmachine": 1527,
      "Ġanal": 1528,
      "Ġdeterm": 1529,
      "ivity": 1530,
      "Ġunderstanding": 1531,
      "Ġcustom": 1532,
      "ĠTo": 1533,
      "ava": 1534,
      "Ġcalled": 1535,
      "Ġwid": 1536,
      "Ġfree": 1537,
      "ull": 1538,
      "ering": 1539,
      "ĠCom": 1540,
      "Ġdifficult": 1541,
      "Ġneeds": 1542,
      "Ġthings": 1543,
      "Ġorgan": 1544,
      "Ġvide": 1545,
      "play": 1546,
      "oice": 1547,
      "Ġvers": 1548,
      "Ġfriend": 1549,
      "Ġshow": 1550,
      "Ġamount": 1551,
      "li": 1552,
      "inal": 1553,
      "ined": 1554,
      "thing": 1555,
      "There": 1556,
      "Ġfeatures": 1557,
      "ross": 1558,
      "Ġelect": 1559,
      "ĠThere": 1560,
      "Ġris": 1561,
      "Ġworks": 1562,
      "Ġaddition": 1563,
      "Ġbehav": 1564,
      "commend": 1565,
      "Ġchange": 1566,
      "ee": 1567,
      "atform": 1568,
      "uture": 1569,
      "Ġchalleng": 1570,
      "view": 1571,
      "Ġmodels": 1572,
      "Ġyears": 1573,
      "Ġsomething": 1574,
      "Ġrest": 1575,
      "ĠAr": 1576,
      "ooking": 1577,
      "nces": 1578,
      "Ġinc": 1579,
      "chie": 1580,
      "Ġorder": 1581,
      "Ġcomb": 1582,
      "Ġgeneral": 1583,
      "Ġvarious": 1584,
      "Ġz": 1585,
      "ins": 1586,
      "ables": 1587,
      "els": 1588,
      "Ġlik": 1589,
      "ants": 1590,
      "ĠUse": 1591,
      "not": 1592,
      "atural": 1593,
      "ĠWe": 1594,
      "ope": 1595,
      "onse": 1596,
      "aster": 1597,
      "Ġrecommend": 1598,
      "ilar": 1599,
      "Ġgrou": 1600,
      "Ġuses": 1601,
      "Ġalways": 1602,
      "Ġquestion": 1603,
      "Ġarg": 1604,
      "ape": 1605,
      "face": 1606,
      "Ġcell": 1607,
      "Ġben": 1608,
      "Ġinflu": 1609,
      "Ġter": 1610,
      "Ġachie": 1611,
      "Ġline": 1612,
      "Ġtechnology": 1613,
      "ateg": 1614,
      "Ġways": 1615,
      "Ġhistory": 1616,
      "://": 1617,
      "par": 1618,
      "Ġimplement": 1619,
      "io": 1620,
      "ling": 1621,
      "less": 1622,
      "ination": 1623,
      "Ġgre": 1624,
      "Ġnetwork": 1625,
      "Ġanswer": 1626,
      "anced": 1627,
      "Ġmaterial": 1628,
      "ication": 1629,
      "rect": 1630,
      "Ġsit": 1631,
      "Ġnow": 1632,
      "ellig": 1633,
      "Ġport": 1634,
      "Ġdra": 1635,
      "Ġsuc": 1636,
      "ired": 1637,
      "Ġinstall": 1638,
      "rame": 1639,
      "uc": 1640,
      "curity": 1641,
      "âĸĪ": 1642,
      "ew": 1643,
      "Ġskills": 1644,
      "Ġavailable": 1645,
      "~~": 1646,
      "orm": 1647,
      "Ġdem": 1648,
      "Ġcontent": 1649,
      "Ġcalcul": 1650,
      "Ġsaf": 1651,
      "Ġbody": 1652,
      "Ġdri": 1653,
      "uss": 1654,
      "Ġstrong": 1655,
      "lish": 1656,
      "usion": 1657,
      "Ġprint": 1658,
      "Ġfuture": 1659,
      "chan": 1660,
      "Ġunique": 1661,
      "11": 1662,
      "Th": 1663,
      "Ġcause": 1664,
      "Ġplatform": 1665,
      "ral": 1666,
      "raph": 1667,
      "uck": 1668,
      "Ġcare": 1669,
      "Ġtell": 1670,
      "reate": 1671,
      "Ġcertain": 1672,
      "ified": 1673,
      "Ġmeans": 1674,
      "Ġcr": 1675,
      "Ġconc": 1676,
      "ĠCan": 1677,
      "Ġvalues": 1678,
      "az": 1679,
      "orld": 1680,
      "Ġlibr": 1681,
      "Ġusers": 1682,
      "Ġleg": 1683,
      "Ġcheck": 1684,
      "aking": 1685,
      "Ġquick": 1686,
      "Ġalgorithm": 1687,
      "Ġpattern": 1688,
      "inux": 1689,
      "Ġest": 1690,
      "ital": 1691,
      "Ġhy": 1692,
      "load": 1693,
      "Ġcolor": 1694,
      "Ġinteract": 1695,
      "ories": 1696,
      "Ġstore": 1697,
      "Ġsize": 1698,
      "Ġcost": 1699,
      "amp": 1700,
      "vern": 1701,
      "oph": 1702,
      "Ġmeas": 1703,
      "Ġallows": 1704,
      "pos": 1705,
      "Ġserver": 1706,
      "Ġfre": 1707,
      "ĠTh": 1708,
      "Ġapplications": 1709,
      "ery": 1710,
      "Ġinteg": 1711,
      "Ġcontin": 1712,
      "Ġwebsite": 1713,
      "aut": 1714,
      "Ġsent": 1715,
      "Ġspace": 1716,
      "Ġidea": 1717,
      "Ġchanges": 1718,
      "uro": 1719,
      "Ġ/": 1720,
      "Ġfield": 1721,
      "Ġresearch": 1722,
      "Ġview": 1723,
      "Ġuntil": 1724,
      "co": 1725,
      "ken": 1726,
      "xim": 1727,
      "Ġcompon": 1728,
      "import": 1729,
      "Ġnecess": 1730,
      "Ġmag": 1731,
      "Ġuni": 1732,
      "Ġsimilar": 1733,
      "hemat": 1734,
      "Ġanim": 1735,
      "ems": 1736,
      "Ġtypes": 1737,
      "Ġprotect": 1738,
      "crib": 1739,
      "Ġdel": 1740,
      "Ġexamples": 1741,
      "Ġrelations": 1742,
      "Ġstand": 1743,
      "Ġnote": 1744,
      "ttps": 1745,
      "Ġmultiple": 1746,
      "ats": 1747,
      "antum": 1748,
      "Ġoptim": 1749,
      "Ġreduce": 1750,
      "Ġident": 1751,
      "Ġsource": 1752,
      "Ġwhy": 1753,
      "ember": 1754,
      "Ġshort": 1755,
      "Ġcontribut": 1756,
      "Ġteam": 1757,
      "Ġtemper": 1758,
      "ug": 1759,
      "Ġbus": 1760,
      "Ġask": 1761,
      "utes": 1762,
      "Ġchild": 1763,
      "Ġbenef": 1764,
      "Ġlog": 1765,
      "ires": 1766,
      "Ġaw": 1767,
      "Ġspeed": 1768,
      "Ġconsidered": 1769,
      "Ġwriting": 1770,
      "ox": 1771,
      "und": 1772,
      "ream": 1773,
      "rodu": 1774,
      "Ġsoci": 1775,
      "Ġlikely": 1776,
      "Ex": 1777,
      "aces": 1778,
      "atic": 1779,
      "Ġgoals": 1780,
      "hor": 1781,
      "Ġsl": 1782,
      "Ġmessage": 1783,
      "ffect": 1784,
      "Ġcase": 1785,
      "Ġanother": 1786,
      "ĠSp": 1787,
      "Ġmaintain": 1788,
      "Ġwar": 1789,
      "Ġmind": 1790,
      "Ġlow": 1791,
      "Ġability": 1792,
      "Ġprevent": 1793,
      "Ġintern": 1794,
      "Ġbecome": 1795,
      "Ġsuccess": 1796,
      "word": 1797,
      "arget": 1798,
      "ason": 1799,
      "Ġnatural": 1800,
      "Ġonline": 1801,
      "Ġcompany": 1802,
      "Ġpolit": 1803,
      "Ġdecis": 1804,
      "Ġpack": 1805,
      "Ġwords": 1806,
      "Ġmarket": 1807,
      "ogn": 1808,
      "Ġscient": 1809,
      "ledge": 1810,
      "23": 1811,
      "PI": 1812,
      "Ġprompt": 1813,
      "Ġengine": 1814,
      "Ġbehavior": 1815,
      "py": 1816,
      "ĠQ": 1817,
      "Ġtheory": 1818,
      "Ġoc": 1819,
      "Ġdid": 1820,
      "Ġthree": 1821,
      "Ġlook": 1822,
      "ulation": 1823,
      "place": 1824,
      "Ġsym": 1825,
      "))": 1826,
      "Ġrele": 1827,
      "ilos": 1828,
      "raft": 1829,
      "ploy": 1830,
      "Ġmeaning": 1831,
      "Ġprofess": 1832,
      "</": 1833,
      "ances": 1834,
      "ours": 1835,
      "ĠEarth": 1836,
      "Ġrole": 1837,
      "Ġess": 1838,
      "amet": 1839,
      "ume": 1840,
      "quen": 1841,
      "ĠPl": 1842,
      "cond": 1843,
      "ological": 1844,
      "Ġdesigned": 1845,
      "Ġrelationship": 1846,
      "Ġlit": 1847,
      "Ġweight": 1848,
      "Ġinvest": 1849,
      "Ġstrateg": 1850,
      "Ġfiles": 1851,
      "Ġeffective": 1852,
      "elligence": 1853,
      "leep": 1854,
      "Ġyourself": 1855,
      "ello": 1856,
      "Ġservices": 1857,
      "Ġrespons": 1858,
      "Ġparticular": 1859,
      "\".": 1860,
      "Ġerr": 1861,
      "Ġdue": 1862,
      "Ġthink": 1863,
      "Ġtools": 1864,
      "pre": 1865,
      "Ġbat": 1866,
      "ĠSh": 1867,
      "Ġhead": 1868,
      "Ġmechan": 1869,
      "Ġproblem": 1870,
      "\":": 1871,
      "^^": 1872,
      "Ġ_": 1873,
      "Ġsing": 1874,
      "Ġsound": 1875,
      "Ġcreating": 1876,
      "Ġhumans": 1877,
      "ditions": 1878,
      "Ġplease": 1879,
      "Ġpublic": 1880,
      "imate": 1881,
      "ĠAss": 1882,
      "Ġdeep": 1883,
      "Ġbuilding": 1884,
      "Ġlocal": 1885,
      "sh": 1886,
      "Ġlaw": 1887,
      "iting": 1888,
      "Ġmot": 1889,
      "Ġland": 1890,
      "Ġgiven": 1891,
      "Ġorig": 1892,
      "orth": 1893,
      "Ġcontext": 1894,
      "Ġappe": 1895,
      "Ġexperien": 1896,
      "Ġstructure": 1897,
      "Ġ\\": 1898,
      "Ġtre": 1899,
      "Ġterm": 1900,
      "itor": 1901,
      "Ġdog": 1902,
      "Ġarea": 1903,
      "ĠShe": 1904,
      "Ġquality": 1905,
      "Ġvariety": 1906,
      "Ġes": 1907,
      "Ġsqu": 1908,
      "Ġcard": 1909,
      "idd": 1910,
      "ĠGo": 1911,
      "Ġrequest": 1912,
      "ium": 1913,
      "ww": 1914,
      "Ġbegin": 1915,
      "vert": 1916,
      "ression": 1917,
      "Ġevent": 1918,
      "Ġresponse": 1919,
      "Ġstudy": 1920,
      "por": 1921,
      "ĠLinux": 1922,
      "ert": 1923,
      "Ġstyle": 1924,
      "Ġpowerful": 1925,
      "ches": 1926,
      "Ġ//": 1927,
      "Ġpa": 1928,
      "icro": 1929,
      "ute": 1930,
      "ots": 1931,
      "izing": 1932,
      "Ġ**": 1933,
      "Ġfur": 1934,
      "Ġenough": 1935,
      "ĠEng": 1936,
      "rypt": 1937,
      "Ġtravel": 1938,
      "Ġtakes": 1939,
      "Ġlanguages": 1940,
      "âĢ¢": 1941,
      "ditionally": 1942,
      "Ġclear": 1943,
      "Hello": 1944,
      "pr": 1945,
      "ouse": 1946,
      "Ġdig": 1947,
      "Ġdoc": 1948,
      "Ġear": 1949,
      "cho": 1950,
      "ĠEn": 1951,
      "\")": 1952,
      "Ġsay": 1953,
      "Ġcaus": 1954,
      "Ġmil": 1955,
      "amed": 1956,
      "Ġpref": 1957,
      "Ġblock": 1958,
      "Ġmo": 1959,
      "Ġknowledge": 1960,
      "Ġcorrect": 1961,
      "olution": 1962,
      "iving": 1963,
      "Ġideas": 1964,
      "Ġbasic": 1965,
      "Ġpress": 1966,
      "Ġmor": 1967,
      "Ġadj": 1968,
      "Ġmanage": 1969,
      "Ġminutes": 1970,
      "Ġprovides": 1971,
      "pose": 1972,
      "irt": 1973,
      "Ġsearch": 1974,
      "Ġeasy": 1975,
      "PT": 1976,
      "land": 1977,
      "Ġsun": 1978,
      "Ġhig": 1979,
      "Ġsecurity": 1980,
      "Ġgovern": 1981,
      "Ġgenerate": 1982,
      "Ġapplication": 1983,
      "vant": 1984,
      "Ġhome": 1985,
      "Ġnext": 1986,
      "Ġmathemat": 1987,
      "Ġavoid": 1988,
      "Ġpoints": 1989,
      "Ġsumm": 1990,
      "back": 1991,
      "Ġtarget": 1992,
      "Ġmass": 1993,
      "omet": 1994,
      "ample": 1995,
      "idence": 1996,
      "Ġrepresent": 1997,
      "Ġphysical": 1998,
      "Ġnon": 1999,
      "Ġphilos": 2000,
      "19": 2001,
      "the": 2002,
      "Ġtri": 2003,
      "Ġjob": 2004,
      "meric": 2005,
      "ctor": 2006,
      "ooks": 2007,
      "ĠUS": 2008,
      "For": 2009,
      "Ġsong": 2010,
      "Ġlab": 2011,
      "Ġgr": 2012,
      "Ġnumbers": 2013,
      "Ġregular": 2014,
      "iques": 2015,
      "js": 2016,
      "ĠIs": 2017,
      "ĠSc": 2018,
      "Ġsomeone": 2019,
      "Ġexplore": 2020,
      "date": 2021,
      "joy": 2022,
      "Ġdr": 2023,
      "Ġwithin": 2024,
      "Ġefficient": 2025,
      "Ġterms": 2026,
      "Ġbusiness": 2027,
      "iled": 2028,
      "Ġdescrib": 2029,
      "Ġremain": 2030,
      "Ġobjects": 2031,
      "AI": 2032,
      "dict": 2033,
      "pri": 2034,
      "Ġsince": 2035,
      "Ġtoget": 2036,
      "ĠĠĠĠĠĠ": 2037,
      "Ġvideo": 2038,
      "Ġtogether": 2039,
      "Ġpain": 2040,
      "ĠSe": 2041,
      "Ġvol": 2042,
      "Ġleft": 2043,
      "Ġspecial": 2044,
      "ails": 2045,
      "Ġrad": 2046,
      "Ġelse": 2047,
      "Ġnecessary": 2048,
      "istic": 2049,
      "aging": 2050,
      "Ġcreated": 2051,
      "ffic": 2052,
      "ĠX": 2053,
      "ĠZ": 2054,
      "alk": 2055,
      "let": 2056,
      "ĠDo": 2057,
      "Ġside": 2058,
      "ĠIm": 2059,
      "ules": 2060,
      "Ġhelps": 2061,
      "ĠJava": 2062,
      "Ġtechniques": 2063,
      "ength": 2064,
      "Ġinvolves": 2065,
      "Over": 2066,
      "Ġold": 2067,
      "ording": 2068,
      "Ġagainst": 2069,
      "ĠAnd": 2070,
      "add": 2071,
      "ibility": 2072,
      "Ġtask": 2073,
      "Ġautom": 2074,
      ",\"": 2075,
      "Write": 2076,
      "Ġ9": 2077,
      "Ġlove": 2078,
      "ips": 2079,
      "au": 2080,
      "be": 2081,
      "Ġturn": 2082,
      "Ġincrease": 2083,
      "Ġproblems": 2084,
      "Ġissues": 2085,
      "Ġsense": 2086,
      "ann": 2087,
      "ctions": 2088,
      "Ġscen": 2089,
      "text": 2090,
      "Ġdepending": 2091,
      "Ġcir": 2092,
      "Ġrunning": 2093,
      "Ġmemory": 2094,
      "erc": 2095,
      "lex": 2096,
      "Ġgl": 2097,
      "Ġquantum": 2098,
      "ysis": 2099,
      "Ġattack": 2100,
      "Ġcharacters": 2101,
      "Ġeconomic": 2102,
      "Yes": 2103,
      "Ġcannot": 2104,
      "Ġareas": 2105,
      "Ġprin": 2106,
      "Ġsubject": 2107,
      "12": 2108,
      "Ġfore": 2109,
      "Ġbal": 2110,
      "Ġsets": 2111,
      "Ġmusic": 2112,
      "asing": 2113,
      "Ġindust": 2114,
      "Ġaffect": 2115,
      "ently": 2116,
      "Ġmakes": 2117,
      "Ġachieve": 2118,
      "('": 2119,
      "An": 2120,
      "ML": 2121,
      "We": 2122,
      "ipe": 2123,
      "lab": 2124,
      "time": 2125,
      "Ġfast": 2126,
      "Ġgen": 2127,
      "illion": 2128,
      "Ġaud": 2129,
      "Ġbrain": 2130,
      "Ġtoday": 2131,
      "Ġhope": 2132,
      "ental": 2133,
      "Ġprev": 2134,
      "Ġposition": 2135,
      "Ġaddress": 2136,
      "app": 2137,
      "ule": 2138,
      "ĠâĢ": 2139,
      "Ġcy": 2140,
      "Ġfall": 2141,
      "Ġlooking": 2142,
      "Ġchoose": 2143,
      "Ġversion": 2144,
      "ml": 2145,
      "Ġframe": 2146,
      "ĠAmeric": 2147,
      "Ġintelligence": 2148,
      "Ġneeded": 2149,
      "Ġelements": 2150,
      "side": 2151,
      "Ġtimes": 2152,
      "Ġcome": 2153,
      "Ġmethods": 2154,
      "ER": 2155,
      "Ġconditions": 2156,
      "Ġhaving": 2157,
      "Ġjo": 2158,
      "Ġanything": 2159,
      "Ġplayers": 2160,
      "Ġapproach": 2161,
      "Ġlibrary": 2162,
      "'ve": 2163,
      "by": 2164,
      "ĠĠĠĠčĊ": 2165,
      "Ġactiv": 2166,
      "ngth": 2167,
      "Ġquickly": 2168,
      "++": 2169,
      "sy": 2170,
      "ze": 2171,
      "Ġsal": 2172,
      "Ġcapt": 2173,
      "esp": 2174,
      "oms": 2175,
      "Ġimm": 2176,
      "board": 2177,
      "Ġadjust": 2178,
      "Please": 2179,
      "path": 2180,
      "Ġworking": 2181,
      "ditional": 2182,
      "Ġgroup": 2183,
      "],": 2184,
      "based": 2185,
      "Ġchoice": 2186,
      "oci": 2187,
      "ĠWhen": 2188,
      "ients": 2189,
      "come": 2190,
      "ties": 2191,
      "Ġpath": 2192,
      "ĠCreate": 2193,
      "Ġgoal": 2194,
      "acy": 2195,
      "new": 2196,
      "Ġindividuals": 2197,
      "Ġfamily": 2198,
      "Ġtemperature": 2199,
      "Con": 2200,
      "fort": 2201,
      "Ġpie": 2202,
      "Ġpast": 2203,
      "verage": 2204,
      "Ġtrack": 2205,
      "Ġloop": 2206,
      "urope": 2207,
      "oh": 2208,
      "Ġbro": 2209,
      "oney": 2210,
      "ĠUnited": 2211,
      "Ġsingle": 2212,
      "light": 2213,
      "ane": 2214,
      "aries": 2215,
      "Ġet": 2216,
      "ury": 2217,
      "izes": 2218,
      "Ġfurther": 2219,
      "15": 2220,
      "ancial": 2221,
      "oun": 2222,
      "Ġwide": 2223,
      "Ġbook": 2224,
      "Ġey": 2225,
      "Ġsuper": 2226,
      "Ġsecond": 2227,
      "Ġscre": 2228,
      "Ġadvant": 2229,
      "Ġalgorithms": 2230,
      "Ġadditional": 2231,
      "ird": 2232,
      "...": 2233,
      "Ġcommunity": 2234,
      "ĠWhile": 2235,
      "aring": 2236,
      "ĠAPI": 2237,
      "Ġscience": 2238,
      "ÂłÂłÂłÂł": 2239,
      "Ġaction": 2240,
      "Ġvalid": 2241,
      "Ġoffer": 2242,
      "Ġadvanced": 2243,
      "Ġpolic": 2244,
      "Ġoptions": 2245,
      "Ġmedia": 2246,
      "Ġresults": 2247,
      "ĠAdditionally": 2248,
      "orn": 2249,
      "ides": 2250,
      "ĠMake": 2251,
      "Ġinstead": 2252,
      "Ġpriv": 2253,
      "Ġrisk": 2254,
      "Ġsitu": 2255,
      "ĠAssistant": 2256,
      "of": 2257,
      "Ġnamed": 2258,
      "Ġword": 2259,
      "Ġtypically": 2260,
      "Ġchallenges": 2261,
      "Ġsleep": 2262,
      "ises": 2263,
      "Ġbot": 2264,
      "str": 2265,
      "Ġdetermine": 2266,
      "Ġsociety": 2267,
      "Ġhighly": 2268,
      "Ġcountry": 2269,
      "OS": 2270,
      "Ġpresent": 2271,
      "Ġlast": 2272,
      "Ġnature": 2273,
      "istance": 2274,
      "ogle": 2275,
      "indows": 2276,
      "Overall": 2277,
      "And": 2278,
      "ah": 2279,
      "ground": 2280,
      "oot": 2281,
      "Ġcity": 2282,
      "Ġcrit": 2283,
      "Ġenjoy": 2284,
      "ĠAdd": 2285,
      "wards": 2286,
      "ush": 2287,
      "Ġneg": 2288,
      "Ġtrue": 2289,
      "Ġprofessional": 2290,
      "Ġtable": 2291,
      "Ġplayer": 2292,
      "Ġattention": 2293,
      "Ġaccount": 2294,
      "âĸĪâĸĪ": 2295,
      "Ġoccur": 2296,
      "over": 2297,
      "ask": 2298,
      "Ġharm": 2299,
      "Ġgames": 2300,
      "rand": 2301,
      "lying": 2302,
      "ung": 2303,
      "Ġcolle": 2304,
      "ube": 2305,
      "Ġmatter": 2306,
      "Ġaway": 2307,
      "iod": 2308,
      "me": 2309,
      "Ġsens": 2310,
      "Ġgain": 2311,
      "Ġmodern": 2312,
      "Ġpolitical": 2313,
      "my": 2314,
      "ration": 2315,
      "ese": 2316,
      "Ġpres": 2317,
      "Ġdeb": 2318,
      "erence": 2319,
      "Ġincludes": 2320,
      "Ġfunctions": 2321,
      "Ġfar": 2322,
      "aming": 2323,
      "Ġarch": 2324,
      "Ġrequires": 2325,
      "Ġdirectory": 2326,
      "Ch": 2327,
      "bal": 2328,
      "ik": 2329,
      "Ġexec": 2330,
      "ĠEurope": 2331,
      "Ġservice": 2332,
      "Ġstring": 2333,
      "Ġassoci": 2334,
      "Ġgraph": 2335,
      "Ġphilosoph": 2336,
      "ON": 2337,
      "def": 2338,
      "inally": 2339,
      "oura": 2340,
      "Ġexc": 2341,
      "umn": 2342,
      "cket": 2343,
      "ption": 2344,
      "Ġnever": 2345,
      "ĠEm": 2346,
      "ĠBe": 2347,
      "Ġkind": 2348,
      "Pro": 2349,
      "So": 2350,
      "set": 2351,
      "inter": 2352,
      "ilt": 2353,
      "Ġevents": 2354,
      "Ġrecogn": 2355,
      "Ġeasier": 2356,
      "Ġcells": 2357,
      "Ġuniverse": 2358,
      "Ad": 2359,
      "ites": 2360,
      "Ġrece": 2361,
      "ĠChe": 2362,
      "erences": 2363,
      "Ġevidence": 2364,
      "Ġmaterials": 2365,
      "ht": 2366,
      "Ġcour": 2367,
      "Ġeth": 2368,
      "ift": 2369,
      "Ġrout": 2370,
      "ension": 2371,
      "Ġparts": 2372,
      "Ġproduce": 2373,
      "oes": 2374,
      "icate": 2375,
      "Ġconvers": 2376,
      "osed": 2377,
      "ĠHT": 2378,
      "Ġfinancial": 2379,
      "Ġlayer": 2380,
      "ius": 2381,
      "head": 2382,
      "Ġmar": 2383,
      "Ġinit": 2384,
      "iment": 2385,
      "Ġvary": 2386,
      "Ġminim": 2387,
      "Ġdark": 2388,
      "Ġstay": 2389,
      "ulate": 2390,
      "pecial": 2391,
      "Ġexpect": 2392,
      "ĠSet": 2393,
      "ĠGod": 2394,
      "Ġprogress": 2395,
      "Ġcountries": 2396,
      "55": 2397,
      "ining": 2398,
      "roid": 2399,
      "une": 2400,
      "Ġexerc": 2401,
      "Ġdistance": 2402,
      "iency": 2403,
      "Ġbenefits": 2404,
      "Ġhigher": 2405,
      "bs": 2406,
      "bol": 2407,
      "data": 2408,
      "jor": 2409,
      "nov": 2410,
      "Ġdone": 2411,
      "Ġimages": 2412,
      "ĠBy": 2413,
      "Ġemot": 2414,
      "Ġtrained": 2415,
      "Ġparamet": 2416,
      "Ġproducts": 2417,
      "Ġclean": 2418,
      "Ġstandard": 2419,
      "LE": 2420,
      "craft": 2421,
      "Ġcall": 2422,
      "Ġful": 2423,
      "Ġfac": 2424,
      "Ġglo": 2425,
      "Ġdevices": 2426,
      "ĠWorld": 2427,
      "These": 2428,
      "ĠInst": 2429,
      "QL": 2430,
      "Ġball": 2431,
      "Ġrather": 2432,
      "arent": 2433,
      "pportun": 2434,
      "Ġgrowth": 2435,
      "https": 2436,
      "rid": 2437,
      "work": 2438,
      "orks": 2439,
      "ĠTr": 2440,
      "ived": 2441,
      "Ġcompet": 2442,
      "Ġfeed": 2443,
      "Ġconsum": 2444,
      "Ġlimit": 2445,
      "Ġfriends": 2446,
      "irtual": 2447,
      "Ġ:": 2448,
      "Ġsort": 2449,
      "Ġslow": 2450,
      "ished": 2451,
      "ency": 2452,
      "imately": 2453,
      "ĠMy": 2454,
      "ivil": 2455,
      "ificial": 2456,
      "Ġperiod": 2457,
      "Ġdetect": 2458,
      "Ġleading": 2459,
      "Ġdepends": 2460,
      "Ġbreak": 2461,
      "Ġpractice": 2462,
      "Ġessential": 2463,
      "Ġdocument": 2464,
      "One": 2465,
      "rad": 2466,
      "Ġstat": 2467,
      "ĠBut": 2468,
      "Ġtraditional": 2469,
      "Ġseries": 2470,
      "Ġcomponents": 2471,
      "che": 2472,
      "file": 2473,
      "man": 2474,
      "ystem": 2475,
      "Ġflow": 2476,
      "Ġyoung": 2477,
      "utions": 2478,
      "Ġadapt": 2479,
      "Ġrob": 2480,
      "Ġconsist": 2481,
      "log": 2482,
      "Ġbrow": 2483,
      "Ġreach": 2484,
      "Ġroom": 2485,
      "Ġtaking": 2486,
      "Ġtrying": 2487,
      "eep": 2488,
      "Ġsources": 2489,
      "Ġopp": 2490,
      "Ġdam": 2491,
      "Ġitems": 2492,
      "ĠDis": 2493,
      "Ġ==": 2494,
      "Ġaccur": 2495,
      "Ġformat": 2496,
      "Ġrequirements": 2497,
      "Ġelement": 2498,
      "Ġanalysis": 2499,
      "Ġpatterns": 2500,
      "Ġmeasure": 2501,
      "PU": 2502,
      "cient": 2503,
      "Ġ][": 2504,
      "Ġpredict": 2505,
      "ney": 2506,
      "akes": 2507,
      "Ġcontinue": 2508,
      "Ġprevious": 2509,
      "rast": 2510,
      "we": 2511,
      "yr": 2512,
      "Ġ&": 2513,
      "Ġâ": 2514,
      "Ġhours": 2515,
      "Ġant": 2516,
      "Ġpositive": 2517,
      "âĢĿ": 2518,
      "Ġblack": 2519,
      "Ġcultural": 2520,
      "cies": 2521,
      "from": 2522,
      "gest": 2523,
      "ised": 2524,
      "itle": 2525,
      "Ġpay": 2526,
      "Ġlot": 2527,
      "Ġlive": 2528,
      "Ġaltern": 2529,
      "ender": 2530,
      "Ġneural": 2531,
      "Ġseen": 2532,
      "Ġoverall": 2533,
      "Ġrelated": 2534,
      "Ġsmo": 2535,
      "Ġstarted": 2536,
      "Ġsaid": 2537,
      "Ġstrength": 2538,
      "Ġgovernment": 2539,
      "ault": 2540,
      "cious": 2541,
      "Ġmoney": 2542,
      "alking": 2543,
      "Ġalong": 2544,
      "ĠCl": 2545,
      "Ġeffort": 2546,
      "AM": 2547,
      "ma": 2548,
      "ones": 2549,
      "Ġflo": 2550,
      "Ġleast": 2551,
      "Ġabove": 2552,
      "ĠStates": 2553,
      "Ġrand": 2554,
      "Ġregard": 2555,
      "Ġsmaller": 2556,
      "Ġblue": 2557,
      "Ġpurpose": 2558,
      "Ġthought": 2559,
      "But": 2560,
      "SS": 2561,
      "cc": 2562,
      "ãģ": 2563,
      "Ġrules": 2564,
      "Ġdoing": 2565,
      "Ġactive": 2566,
      "Ġconcern": 2567,
      "chool": 2568,
      "priate": 2569,
      "ura": 2570,
      "itect": 2571,
      "Ġopportun": 2572,
      "Ġfig": 2573,
      "Ġshare": 2574,
      "Ġdatab": 2575,
      "ensive": 2576,
      "Ġidentify": 2577,
      "Ġprinci": 2578,
      "oad": 2579,
      "Ġpost": 2580,
      "Ġoil": 2581,
      "Ġface": 2582,
      "Ġbig": 2583,
      "roll": 2584,
      "Ġloss": 2585,
      "Ġstop": 2586,
      "key": 2587,
      "abilities": 2588,
      "Ġshape": 2589,
      "Ġintrodu": 2590,
      "Ġwhether": 2591,
      "ints": 2592,
      "Ġemploy": 2593,
      "Ġproduction": 2594,
      "Ġlocation": 2595,
      "Ġproperties": 2596,
      "Ġwidely": 2597,
      ":**": 2598,
      "ailed": 2599,
      "Ġage": 2600,
      "Ġfish": 2601,
      "Ġvariable": 2602,
      "Ġscientific": 2603,
      "bon": 2604,
      "son": 2605,
      "ters": 2606,
      "ators": 2607,
      "uration": 2608,
      "ĠChat": 2609,
      "Ġmajor": 2610,
      "Ġuseful": 2611,
      "Ġconcepts": 2612,
      "use": 2613,
      "ĠAp": 2614,
      "uments": 2615,
      "resh": 2616,
      "Ġsurface": 2617,
      "AR": 2618,
      "uild": 2619,
      "oring": 2620,
      "Ġdang": 2621,
      "Ġstates": 2622,
      "plain": 2623,
      "Ġobser": 2624,
      "Ġprocessing": 2625,
      "Ġut": 2626,
      "Ġcop": 2627,
      "Ġpython": 2628,
      "Ġdate": 2629,
      "Ġreason": 2630,
      "Ġconse": 2631,
      "Ġrequired": 2632,
      "Ġassociated": 2633,
      "Ġfit": 2634,
      "Ġdays": 2635,
      "ider": 2636,
      "clusion": 2637,
      "Ġgoing": 2638,
      "aves": 2639,
      "Ġprim": 2640,
      "Ġthroughout": 2641,
      "Ġhappen": 2642,
      "ĠGoogle": 2643,
      "Ġarchitect": 2644,
      "ping": 2645,
      "ĉĉ": 2646,
      "Ġpan": 2647,
      "Ġdatas": 2648,
      "ĠNew": 2649,
      "ribution": 2650,
      "Ġtransform": 2651,
      "Ġhistor": 2652,
      "Ġprior": 2653,
      "Ġcourse": 2654,
      "Ġforce": 2655,
      "empt": 2656,
      "ograph": 2657,
      "Ġcontinu": 2658,
      "Ġacross": 2659,
      "Ġprojects": 2660,
      "Ġbelief": 2661,
      "like": 2662,
      "Ġrelevant": 2663,
      "ohn": 2664,
      "Is": 2665,
      "Script": 2666,
      "sel": 2667,
      "ym": 2668,
      "anks": 2669,
      "Ġlower": 2670,
      "Ġreact": 2671,
      "ids": 2672,
      "igate": 2673,
      "ĠCons": 2674,
      "ĠWith": 2675,
      "Ġrespect": 2676,
      "const": 2677,
      "();": 2678,
      "Ġcommunication": 2679,
      "quences": 2680,
      "ĠEnglish": 2681,
      "AT": 2682,
      "ek": 2683,
      "go": 2684,
      "lict": 2685,
      "num": 2686,
      "source": 2687,
      "Ġdest": 2688,
      "Ġdiv": 2689,
      "Ġegg": 2690,
      "Ġsepar": 2691,
      "ager": 2692,
      "Ġdifference": 2693,
      "Ġdeveloped": 2694,
      "ready": 2695,
      "Ġespecial": 2696,
      "Ġsummary": 2697,
      "ait": 2698,
      "fact": 2699,
      "ges": 2700,
      "mit": 2701,
      "python": 2702,
      "ison": 2703,
      "Ġnight": 2704,
      "ĠInt": 2705,
      "Ġaspect": 2706,
      "Ġ12": 2707,
      "Ġ18": 2708,
      "Ġdisplay": 2709,
      "Ġperspect": 2710,
      "Ġdetails": 2711,
      "Ġallowing": 2712,
      "Ġprovided": 2713,
      "âĶĢâĶĢâĶĢâĶĢâĶĢâĶĢâĶĢâĶĢ": 2714,
      "Ġlevels": 2715,
      "Ġefficiency": 2716,
      "Ġlittle": 2717,
      "Ġerror": 2718,
      "'d": 2719,
      "fect": 2720,
      "inking": 2721,
      "Ġschool": 2722,
      "Ġcivil": 2723,
      "Ġpow": 2724,
      "Ġbase": 2725,
      "ula": 2726,
      "Ġinfluence": 2727,
      "Ġexperiences": 2728,
      "Ġpaper": 2729,
      "ĠHTML": 2730,
      "Ġespecially": 2731,
      "30": 2732,
      "GPT": 2733,
      "dom": 2734,
      "Ġtips": 2735,
      "erous": 2736,
      "Ġput": 2737,
      "Ġinnov": 2738,
      "asons": 2739,
      "Ġlength": 2740,
      "Ġonce": 2741,
      "Ġprob": 2742,
      "erson": 2743,
      "ĠPlease": 2744,
      "avor": 2745,
      "Ġ30": 2746,
      "Ġemail": 2747,
      "ologies": 2748,
      "Ġactions": 2749,
      "Ġoption": 2750,
      "Ġinsp": 2751,
      "\">": 2752,
      "60": 2753,
      "bit": 2754,
      "iel": 2755,
      "Ġcat": 2756,
      "ither": 2757,
      "arc": 2758,
      "rop": 2759,
      "Ġge": 2760,
      "Ġwhite": 2761,
      "Ġroot": 2762,
      "Ġphot": 2763,
      "Ġprocesses": 2764,
      "Ġstarting": 2765,
      "Ġexpress": 2766,
      "Ġconfig": 2767,
      "Ġoperating": 2768,
      "html": 2769,
      "RE": 2770,
      "aur": 2771,
      "ians": 2772,
      "Ġbed": 2773,
      "aling": 2774,
      "Ġground": 2775,
      "ĠBl": 2776,
      "Ġabs": 2777,
      "Ġweather": 2778,
      "Ġconscious": 2779,
      "Ġinterpre": 2780,
      "Ġdefin": 2781,
      "Ġappropriate": 2782,
      "----------------": 2783,
      "ynam": 2784,
      "Ġanaly": 2785,
      "')": 2786,
      "Ġaverage": 2787,
      "Ġ100": 2788,
      "ĠRust": 2789,
      "Ġcompan": 2790,
      "Ġ200": 2791,
      "Ġcollect": 2792,
      "Ġgetting": 2793,
      "Ġbackground": 2794,
      "Ġbelieve": 2795,
      "Ġrandom": 2796,
      "care": 2797,
      "part": 2798,
      "Ġmeet": 2799,
      "Ġplants": 2800,
      "Ġsolar": 2801,
      "Ġproperty": 2802,
      "ission": 2803,
      "Ġculture": 2804,
      "Ġdraw": 2805,
      "ormal": 2806,
      "Ġsafe": 2807,
      "Ġsuccessful": 2808,
      "When": 2809,
      "col": 2810,
      "Ġcross": 2811,
      "itch": 2812,
      "Ġwood": 2813,
      "Ġreview": 2814,
      "Ġones": 2815,
      "Ġalready": 2816,
      "Ġlarger": 2817,
      "Ġincor": 2818,
      "iddle": 2819,
      "Ġscreen": 2820,
      "AN": 2821,
      "List": 2822,
      "Ġtreat": 2823,
      "oud": 2824,
      "itation": 2825,
      "ĠSo": 2826,
      "Ġnear": 2827,
      "ocol": 2828,
      "soft": 2829,
      "aches": 2830,
      "Ġarray": 2831,
      "Ġhealthy": 2832,
      "::::": 2833,
      "Ġfields": 2834,
      "Com": 2835,
      "IN": 2836,
      "down": 2837,
      "lt": 2838,
      "ply": 2839,
      "omen": 2840,
      "Ġbecom": 2841,
      "ĠĠĠĠĠĠĠĠĠĠĠĠĠĠĠ": 2842,
      "ĠOnce": 2843,
      "Ġroll": 2844,
      "Ġdescript": 2845,
      "Ġtransl": 2846,
      "Ġmedical": 2847,
      "Ġdiscuss": 2848,
      "50": 2849,
      "Im": 2850,
      "tal": 2851,
      "Ġder": 2852,
      "ster": 2853,
      "ĠPh": 2854,
      "Ġmaxim": 2855,
      "Ġsynt": 2856,
      "Ġoffers": 2857,
      "Ġinvolve": 2858,
      "Ġlimited": 2859,
      "Ġestab": 2860,
      "Ġetc": 2861,
      "Ġpage": 2862,
      "Ġvi": 2863,
      "Ġvirtual": 2864,
      "aving": 2865,
      "Ġdifferences": 2866,
      "Ġcolors": 2867,
      "Ġassistant": 2868,
      "Ġcomputing": 2869,
      "Ġconstant": 2870,
      "Ġeduc": 2871,
      "Ġbran": 2872,
      "Ġbatter": 2873,
      "ulations": 2874,
      "Ġheat": 2875,
      "Ġheart": 2876,
      "izations": 2877,
      "Ġplant": 2878,
      "ĠOne": 2879,
      "Ġcolumn": 2880,
      "Ġamong": 2881,
      "Ġbecame": 2882,
      "ception": 2883,
      "Ġproviding": 2884,
      "Ġappear": 2885,
      "Ġsquare": 2886,
      "Ġearly": 2887,
      "Ġactivities": 2888,
      "He": 2889,
      "ST": 2890,
      "list": 2891,
      "ror": 2892,
      "volution": 2893,
      "Ġwindow": 2894,
      "Ġpsy": 2895,
      "Ġbar": 2896,
      "Ġlives": 2897,
      "Ġexact": 2898,
      "ights": 2899,
      "elling": 2900,
      "Ġplanet": 2901,
      "Ġequation": 2902,
      "Ġboard": 2903,
      "Why": 2904,
      "Ġanimals": 2905,
      "icrosoft": 2906,
      "ĠCheck": 2907,
      "14": 2908,
      "ID": 2909,
      "ero": 2910,
      "Ġfull": 2911,
      "etic": 2912,
      "Ġste": 2913,
      "ĠSer": 2914,
      "atively": 2915,
      "Ġentire": 2916,
      "Ġsurv": 2917,
      "Ġdecision": 2918,
      "Ġcirc": 2919,
      "64": 2920,
      "ina": 2921,
      "Ġsend": 2922,
      "ision": 2923,
      "Ġla": 2924,
      "Ġred": 2925,
      "elt": 2926,
      "ĠCal": 2927,
      "outh": 2928,
      "Ġsupp": 2929,
      "Ġsequ": 2930,
      "ocal": 2931,
      "cles": 2932,
      "Ġhelpful": 2933,
      "aps": 2934,
      "ification": 2935,
      "Ġspecies": 2936,
      "Ġattempt": 2937,
      "Ġcomplete": 2938,
      "Ġdownload": 2939,
      "Ġeffects": 2940,
      "Ġguid": 2941,
      "Ġdatabase": 2942,
      "tings": 2943,
      "},": 2944,
      "Ġid": 2945,
      "Ġbring": 2946,
      "oman": 2947,
      "quality": 2948,
      "Ġgenerally": 2949,
      "Ġfollows": 2950,
      "Ġdecisions": 2951,
      "Ġsymbol": 2952,
      "augh": 2953,
      "Ġglobal": 2954,
      "JJ": 2955,
      "sp": 2956,
      "size": 2957,
      "tr": 2958,
      "Ġ>": 2959,
      "oration": 2960,
      "Ġbit": 2961,
      "unt": 2962,
      "Ġang": 2963,
      "Ġancient": 2964,
      "ĠCol": 2965,
      "hers": 2966,
      "However": 2967,
      "Ġinside": 2968,
      "Ġwritten": 2969,
      "Ġcurrently": 2970,
      "Ġparticularly": 2971,
      "Ġmanagement": 2972,
      "eed": 2973,
      "Ġlat": 2974,
      "Ġcondition": 2975,
      "unch": 2976,
      "ĠRes": 2977,
      "force": 2978,
      "Ġadvent": 2979,
      "ront": 2980,
      "Thank": 2981,
      "pass": 2982,
      "hel": 2983,
      "Ġsn": 2984,
      "Ġdom": 2985,
      "Ġlater": 2986,
      "iles": 2987,
      "osing": 2988,
      "sole": 2989,
      "ĠOn": 2990,
      "ĠYour": 2991,
      "Ġgrav": 2992,
      "Ġpractices": 2993,
      "Ġoriginal": 2994,
      "Ġ?": 2995,
      "itud": 2996,
      "Ġfaster": 2997,
      "alu": 2998,
      "Ġdream": 2999,
      "arily": 3000,
      "Ġlif": 3001,
      "Ġselect": 3002,
      "duct": 3003,
      "Ġupd": 3004,
      "versity": 3005,
      "phas": 3006,
      "Ġpackage": 3007,
      "ĠAmerican": 3008,
      "cure": 3009,
      "dr": 3010,
      "na": 3011,
      "Ġaim": 3012,
      "era": 3013,
      "Ġusually": 3014,
      "rupt": 3015,
      "Ġsolve": 3016,
      "Ġsolution": 3017,
      "Ġdistribution": 3018,
      "Ġhappy": 3019,
      "Ġissue": 3020,
      "Ġdrive": 3021,
      "Ġinternet": 3022,
      "Ġdigital": 3023,
      "selves": 3024,
      ".,": 3025,
      "mon": 3026,
      "Ġreplace": 3027,
      "rap": 3028,
      "Ġcomfort": 3029,
      "umb": 3030,
      "ĠPr": 3031,
      "ĠWindows": 3032,
      "Ġdise": 3033,
      "Ġhandle": 3034,
      "redients": 3035,
      "Ġbehind": 3036,
      "ĠDevelop": 3037,
      "Ġinfluen": 3038,
      "Ġrelationships": 3039,
      "Ġsituation": 3040,
      "epend": 3041,
      "mod": 3042,
      "script": 3043,
      "Ġcore": 3044,
      "Ġwon": 3045,
      "arr": 3046,
      "osp": 3047,
      "resp": 3048,
      "Ġprograms": 3049,
      "Ġcool": 3050,
      "Ġlonger": 3051,
      "Ġchallenging": 3052,
      "Ġsafety": 3053,
      "Ġbalance": 3054,
      "Ġconsequences": 3055,
      "??": 3056,
      "My": 3057,
      "aim": 3058,
      "uce": 3059,
      "Ġing": 3060,
      "Ġtim": 3061,
      "Ġsat": 3062,
      "Ġfund": 3063,
      "Ġliving": 3064,
      "Ġreally": 3065,
      "imens": 3066,
      "Ġstru": 3067,
      "emember": 3068,
      "ĠMan": 3069,
      "ĠLet": 3070,
      "Ġclient": 3071,
      "Ġexplan": 3072,
      "Ġletter": 3073,
      "Ġconflict": 3074,
      "Ġinteresting": 3075,
      "ĠJavaScript": 3076,
      "ĠâĢľ": 3077,
      ".)": 3078,
      "ipp": 3079,
      "Ġill": 3080,
      "Ġ--": 3081,
      "Ġbooks": 3082,
      "icial": 3083,
      "Ġnut": 3084,
      "Ġheight": 3085,
      "Ġrate": 3086,
      "ival": 3087,
      "Ġspread": 3088,
      "Ġtopic": 3089,
      "Ġvisual": 3090,
      "Ġoperations": 3091,
      "Ġhardware": 3092,
      "Ġcustomer": 3093,
      "Ġaudience": 3094,
      "cer": 3095,
      "yond": 3096,
      "Ġcases": 3097,
      "unction": 3098,
      "Ġscore": 3099,
      "Ġclose": 3100,
      "Ġrock": 3101,
      "Ġdesired": 3102,
      "Ġplaying": 3103,
      "ounter": 3104,
      "Ġdamage": 3105,
      "18": 3106,
      "ball": 3107,
      "iet": 3108,
      "sing": 3109,
      "Â°": 3110,
      "Ġcook": 3111,
      "Ġmillion": 3112,
      "Ġhost": 3113,
      "Ġnu": 3114,
      "Ġnav": 3115,
      "istics": 3116,
      "ended": 3117,
      "ĠGerm": 3118,
      "Ġrow": 3119,
      "Ġperfect": 3120,
      "ĠJohn": 3121,
      "Ġsimply": 3122,
      "Ġflu": 3123,
      "ĠĠĠĠĠĠĠĠĠĠĠĠĠĠĠĠĠĠĠĠĠĠĠĠĠĠĠĠĠĠĠĠ": 3124,
      "Ġfix": 3125,
      "Ġartificial": 3126,
      "Ġreducing": 3127,
      "Ġcontains": 3128,
      "Ġmechanics": 3129,
      "Ġmotiv": 3130,
      "ĠChatGPT": 3131,
      "Ġarchitecture": 3132,
      "US": 3133,
      "yg": 3134,
      "Ġaware": 3135,
      "hent": 3136,
      "Ġnode": 3137,
      "Ġbeaut": 3138,
      "Ġsecure": 3139,
      "ffee": 3140,
      "Ġbuy": 3141,
      "Ġbuilt": 3142,
      "Ġincreasing": 3143,
      "Ġindustry": 3144,
      "Note": 3145,
      "cent": 3146,
      "Ġult": 3147,
      "Ġbud": 3148,
      "Ġever": 3149,
      "Ġearth": 3150,
      "Ġlack": 3151,
      "Ġshap": 3152,
      "Ġabilities": 3153,
      "Ġupon": 3154,
      "Ġspecif": 3155,
      "Ġprice": 3156,
      "Ġchem": 3157,
      "Ġdistribut": 3158,
      "Ġconnection": 3159,
      "Ġcenter": 3160,
      "Ġload": 3161,
      "Ġgroups": 3162,
      "Ġcapture": 3163,
      "Ġinitial": 3164,
      "ED": 3165,
      "ler": 3166,
      "Ġfour": 3167,
      "Ġfire": 3168,
      "Ġtowards": 3169,
      "Ġcomes": 3170,
      "Ġheav": 3171,
      "ĠNe": 3172,
      "clude": 3173,
      "Ġemphas": 3174,
      "Ġrelig": 3175,
      "Ġactivity": 3176,
      "plications": 3177,
      "Ġeasily": 3178,
      "ĠQu": 3179,
      "Ġnegative": 3180,
      "Ġprinciples": 3181,
      "body": 3182,
      "Ġmix": 3183,
      "Ġded": 3184,
      "Ġeither": 3185,
      "uth": 3186,
      "rie": 3187,
      "Ġled": 3188,
      "ĠOr": 3189,
      "Ġapply": 3190,
      "ĠStart": 3191,
      "Ġdeveloping": 3192,
      "Ġdevelopers": 3193,
      "ructions": 3194,
      "Ġ</": 3195,
      "Ġreflect": 3196,
      "Ġauthor": 3197,
      "~~~~": 3198,
      "Ġplatforms": 3199,
      "www": 3200,
      "Ġmathematical": 3201,
      "Ġfeedback": 3202,
      "Ġaccurate": 3203,
      "22": 3204,
      "Al": 3205,
      "base": 3206,
      "itary": 3207,
      "Ġdynam": 3208,
      "Ġdevice": 3209,
      "apan": 3210,
      "Ġreli": 3211,
      "Ġsmart": 3212,
      "Ġhealthcare": 3213,
      "Ġeveryone": 3214,
      "ĠCont": 3215,
      "Ġveget": 3216,
      "Ġmagic": 3217,
      "ourage": 3218,
      "rict": 3219,
      "where": 3220,
      "world": 3221,
      "Ġfight": 3222,
      "rag": 3223,
      "ĠLe": 3224,
      "Ġcommit": 3225,
      "Ġitself": 3226,
      "aily": 3227,
      "Ġexperiment": 3228,
      "Ġrefers": 3229,
      "Ġeverything": 3230,
      "Ġtopics": 3231,
      "rench": 3232,
      "Ġmonitor": 3233,
      "Ġmovement": 3234,
      "Ġmovie": 3235,
      "Ġcalculate": 3236,
      "Ġcomponent": 3237,
      "Ġchildren": 3238,
      "Ġstrategies": 3239,
      "Ġpreferences": 3240,
      "Ġfully": 3241,
      "13": 3242,
      "Do": 3243,
      "Your": 3244,
      "ele": 3245,
      "gre": 3246,
      "Ġver": 3247,
      "Ġworth": 3248,
      "alf": 3249,
      "Ġthing": 3250,
      "Ġreasons": 3251,
      "ili": 3252,
      "ister": 3253,
      "odes": 3254,
      "Ġdecl": 3255,
      "ops": 3256,
      "Ġ15": 3257,
      "inder": 3258,
      "Ġfeature": 3259,
      "ĠName": 3260,
      "Ġevol": 3261,
      "Ġevalu": 3262,
      "Ġtax": 3263,
      "Ġproperly": 3264,
      "Ġgreen": 3265,
      "IT": 3266,
      "gar": 3267,
      "pm": 3268,
      "Ġlink": 3269,
      "Ġgas": 3270,
      "ĠThen": 3271,
      "Ġchat": 3272,
      "Ġund": 3273,
      "ĠGet": 3274,
      "Ġoutside": 3275,
      "Ġsave": 3276,
      "Ġfinal": 3277,
      "Ġdirectly": 3278,
      "Ġeyes": 3279,
      "By": 3280,
      "ising": 3281,
      "Ġtotal": 3282,
      "Ġhot": 3283,
      "Ġthread": 3284,
      "Ġsuit": 3285,
      "ĠGree": 3286,
      "Ġcompared": 3287,
      "aste": 3288,
      "Ġappl": 3289,
      "Ġmatch": 3290,
      "Ġcomplexity": 3291,
      "Ġexistence": 3292,
      "Ġrecommended": 3293,
      "Ġbeliefs": 3294,
      "EN": 3295,
      "friend": 3296,
      "ged": 3297,
      "len": 3298,
      "zz": 3299,
      "Ġaf": 3300,
      "ino": 3301,
      "het": 3302,
      "Ġcut": 3303,
      "Ġwatch": 3304,
      "Ġop": 3305,
      "Ġfru": 3306,
      "Ġbad": 3307,
      "Ġhouse": 3308,
      "Ġrepl": 3309,
      "ĠTry": 3310,
      "Ġstress": 3311,
      "ection": 3312,
      "Ġimag": 3313,
      "Ġclos": 3314,
      "Ġinvolved": 3315,
      "Ġpurch": 3316,
      "Ġdrag": 3317,
      "Ġsequence": 3318,
      "ners": 3319,
      "Ġtree": 3320,
      "input": 3321,
      "eria": 3322,
      "Ġcast": 3323,
      "orage": 3324,
      "Ġmom": 3325,
      "Ġmess": 3326,
      "Ġreport": 3327,
      "Ġforms": 3328,
      "Ġbeyond": 3329,
      "Ġcredit": 3330,
      "Ġmanip": 3331,
      "ords": 3332,
      "Ġvariables": 3333,
      "!\"": 3334,
      "With": 3335,
      "izz": 3336,
      "Ġmodify": 3337,
      "Ġjour": 3338,
      "Ġemerg": 3339,
      "Ġindex": 3340,
      "Ġassist": 3341,
      "Ġnovel": 3342,
      "Ġapproxim": 3343,
      "Ġdemon": 3344,
      "Ġdescribe": 3345,
      "Ġparameters": 3346,
      "Ġcompanies": 3347,
      "32": 3348,
      "Could": 3349,
      "fer": 3350,
      "iate": 3351,
      "spe": 3352,
      "inary": 3353,
      "itions": 3354,
      "Ġparent": 3355,
      "Ġhol": 3356,
      "Ġhttps": 3357,
      "ump": 3358,
      "ĠSu": 3359,
      "ĠGit": 3360,
      "Ġsche": 3361,
      "Ġthemselves": 3362,
      "Ġsimpl": 3363,
      "Ġdetailed": 3364,
      "Ġrefer": 3365,
      "Ġcommonly": 3366,
      "Ġpassword": 3367,
      "Ġelectric": 3368,
      "Ġlegal": 3369,
      "Ġincorpor": 3370,
      "Ġstrugg": 3371,
      "De": 3372,
      "rong": 3373,
      "Ġcam": 3374,
      "illing": 3375,
      "ĠPC": 3376,
      "Ġenem": 3377,
      "Ġspend": 3378,
      "ĠNo": 3379,
      "Ġprec": 3380,
      "Ġimportance": 3381,
      "Ġlocated": 3382,
      "Ġargument": 3383,
      "Ġlaws": 3384,
      "print": 3385,
      "Ġbott": 3386,
      "':": 3387,
      "That": 3388,
      "ls": 3389,
      "ype": 3390,
      "eration": 3391,
      "Ġcup": 3392,
      "Ġcamp": 3393,
      "enu": 3394,
      "Ġfine": 3395,
      "Ġmount": 3396,
      "Ġdaily": 3397,
      "asc": 3398,
      "urance": 3399,
      "ĠAt": 3400,
      "ĠDef": 3401,
      "ĠBrit": 3402,
      "Ġaccept": 3403,
      "Ġspell": 3404,
      "Ġcoffee": 3405,
      "Ġcheese": 3406,
      "ructure": 3407,
      "Ġdoesn": 3408,
      "Ġdiet": 3409,
      "Ġmonth": 3410,
      "Ġpressure": 3411,
      "Ġpolicy": 3412,
      "ltimately": 3413,
      "40": 3414,
      "80": 3415,
      "Re": 3416,
      "min": 3417,
      "med": 3418,
      "wh": 3419,
      "Ġmental": 3420,
      "ows": 3421,
      "ĠTw": 3422,
      "raw": 3423,
      "ement": 3424,
      "ĠWar": 3425,
      "Ġspeak": 3426,
      "astic": 3427,
      "aced": 3428,
      "nown": 3429,
      "Ġlisten": 3430,
      "Ġpotentially": 3431,
      "Ġreturns": 3432,
      "Ġgreater": 3433,
      "Ġadvantage": 3434,
      "Ġdataset": 3435,
      "Ġconsciousness": 3436,
      "Name": 3437,
      "Some": 3438,
      "])": 3439,
      "host": 3440,
      "uel": 3441,
      "Ġinj": 3442,
      "Ġ16": 3443,
      "Ġ=>": 3444,
      "Ġcreatures": 3445,
      "Ġmode": 3446,
      "Ġinterface": 3447,
      "Ġremember": 3448,
      "Ġfilm": 3449,
      "Ġauthent": 3450,
      "Ġnetworks": 3451,
      "Ġvideos": 3452,
      "^^^^": 3453,
      "Ġopportunities": 3454,
      "Ġhistorical": 3455,
      "itude": 3456,
      "16": 3457,
      "inct": 3458,
      "Ġcrypt": 3459,
      "Ġwall": 3460,
      "Ġpick": 3461,
      "Ġflex": 3462,
      "Ġhab": 3463,
      "ĠSystem": 3464,
      "Ġcreates": 3465,
      "Ġtechnologies": 3466,
      "object": 3467,
      "Ġremove": 3468,
      "Ġsuggestions": 3469,
      "Ġframework": 3470,
      "Ġconcerns": 3471,
      "Ġviol": 3472,
      "but": 3473,
      "dir": 3474,
      "train": 3475,
      "war": 3476,
      "icious": 3477,
      "asy": 3478,
      "Ġnormal": 3479,
      "Ġvul": 3480,
      "Ġchick": 3481,
      "Ġchann": 3482,
      "ĠMod": 3483,
      "Ġweek": 3484,
      "Ġcreation": 3485,
      "Ġtrad": 3486,
      "Ġformula": 3487,
      "Ġreference": 3488,
      "Ġstructures": 3489,
      "Ġcombination": 3490,
      "Ġimplementation": 3491,
      "Ġpiece": 3492,
      "Ġpsych": 3493,
      "Ġbudget": 3494,
      "LL": 3495,
      "UR": 3496,
      "ging": 3497,
      "ny": 3498,
      "ole": 3499,
      "Ġtun": 3500,
      "ativity": 3501,
      "Ġdeath": 3502,
      "Ġupdate": 3503,
      "Ġsetting": 3504,
      "**:": 3505,
      "Ġsolutions": 3506,
      "Ġsky": 3507,
      "Ġfactor": 3508,
      "type": 3509,
      "Ġstrategy": 3510,
      "Ġterminal": 3511,
      "Ġethical": 3512,
      "aff": 3513,
      "do": 3514,
      "met": 3515,
      "top": 3516,
      "Ġfail": 3517,
      "Ġmis": 3518,
      "level": 3519,
      "Ġhor": 3520,
      "Ġreality": 3521,
      "Ġforward": 3522,
      "Ġconclusion": 3523,
      "ĠPer": 3524,
      "Ġ11": 3525,
      "Ġcreative": 3526,
      "Ġdefine": 3527,
      "Ġkeyboard": 3528,
      "Ġsurround": 3529,
      "While": 3530,
      "Ġphysics": 3531,
      "Ġintegr": 3532,
      "br": 3533,
      "div": 3534,
      "pare": 3535,
      "Ġbir": 3536,
      "alle": 3537,
      "Ġthreat": 3538,
      "Ġeat": 3539,
      "opt": 3540,
      "Ġneur": 3541,
      "Ġkil": 3542,
      "Ġclimate": 3543,
      "ĠJapan": 3544,
      "Ġstudents": 3545,
      "Ġbelieved": 3546,
      "Ġinterests": 3547,
      "Ġinterested": 3548,
      "Ġscene": 3549,
      "bra": 3550,
      "su": 3551,
      "uff": 3552,
      "ups": 3553,
      "ĠÐ": 3554,
      "isms": 3555,
      "Ġfict": 3556,
      "Ġmut": 3557,
      "ĠInd": 3558,
      "Ġprote": 3559,
      "ably": 3560,
      "Ġseem": 3561,
      "Ġking": 3562,
      "Ġunit": 3563,
      "Ġcollab": 3564,
      "Ġcomputers": 3565,
      "ĠKeep": 3566,
      "Ġremov": 3567,
      "Ġflight": 3568,
      "Ġbreath": 3569,
      "Ġcontinues": 3570,
      "fficient": 3571,
      "Create": 3572,
      "II": 3573,
      "OR": 3574,
      "Remember": 3575,
      "ees": 3576,
      "lished": 3577,
      "oe": 3578,
      "rist": 3579,
      "what": 3580,
      "Ġcru": 3581,
      "Ġcatch": 3582,
      "enge": 3583,
      "Ġlic": 3584,
      "Ġstorage": 3585,
      "Ġvoice": 3586,
      "izer": 3587,
      "ustain": 3588,
      "irection": 3589,
      "Ġbutton": 3590,
      "ensity": 3591,
      "arian": 3592,
      "Ġinstance": 3593,
      "Ġrespond": 3594,
      "Ġmoving": 3595,
      "value": 3596,
      "Ġmilitary": 3597,
      "Ġcollection": 3598,
      "Ġroutine": 3599,
      "Ġconversation": 3600,
      "ĠTrans": 3601,
      "Ġsmooth": 3602,
      "iam": 3603,
      "pire": 3604,
      "right": 3605,
      "yles": 3606,
      "Ġtheories": 3607,
      "orry": 3608,
      "Ġfive": 3609,
      "alse": 3610,
      "Ġhold": 3611,
      "Ġthird": 3612,
      "eline": 3613,
      "Ġbegan": 3614,
      "Ġdep": 3615,
      "ĠMar": 3616,
      "ĠFinally": 3617,
      "ĠRed": 3618,
      "Ġtaken": 3619,
      "Ġtrust": 3620,
      "Ġexpand": 3621,
      "Ġcommunities": 3622,
      "Ġregularly": 3623,
      "Ġexecut": 3624,
      "!!": 3625,
      "100": 3626,
      "En": 3627,
      "ai": 3628,
      "ike": 3629,
      "write": 3630,
      "att": 3631,
      "org": 3632,
      "ouch": 3633,
      "itting": 3634,
      "Ġban": 3635,
      "Ġinform": 3636,
      "chain": 3637,
      "oding": 3638,
      "Ġvac": 3639,
      "rix": 3640,
      "ached": 3641,
      "overed": 3642,
      "Ġgenerated": 3643,
      "Ġtransport": 3644,
      "Ġrecipe": 3645,
      "Ġpromote": 3646,
      "Ġequal": 3647,
      "Ġenvironmental": 3648,
      "Ġorganization": 3649,
      "Ġmeasures": 3650,
      "Ġfrequ": 3651,
      "Ġremains": 3652,
      "Ġnucle": 3653,
      "Cl": 3654,
      "TT": 3655,
      "bl": 3656,
      "ont": 3657,
      "Ġtheore": 3658,
      "Ġsustain": 3659,
      "Ġmit": 3660,
      "Ġlines": 3661,
      "Ġnames": 3662,
      "amb": 3663,
      "string": 3664,
      "rack": 3665,
      "ĠMicrosoft": 3666,
      "Ġsecre": 3667,
      "Ġadding": 3668,
      "Ġplayed": 3669,
      "Ġassum": 3670,
      "Ġrecent": 3671,
      "Ġresponses": 3672,
      "idden": 3673,
      "Ġrequests": 3674,
      "Ġvolume": 3675,
      "\";": 3676,
      "af": 3677,
      "ech": 3678,
      "Ġwarm": 3679,
      "icles": 3680,
      "Ġgod": 3681,
      "rial": 3682,
      "Ġweak": 3683,
      "ensor": 3684,
      "Ġvalu": 3685,
      "ĠYouT": 3686,
      "Ġ+=": 3687,
      "Ġcarbon": 3688,
      "Ġpromot": 3689,
      "Ġguide": 3690,
      "2023": 3691,
      "Ġconnected": 3692,
      "Ġcentury": 3693,
      "Ġrisks": 3694,
      "Ġcareful": 3695,
      "ccording": 3696,
      "ield": 3697,
      "No": 3698,
      "`.": 3699,
      "sv": 3700,
      "Ġsus": 3701,
      "Ġsample": 3702,
      "orial": 3703,
      "Ġrepe": 3704,
      "Ġgir": 3705,
      "ĠAfter": 3706,
      "ĠFr": 3707,
      "Ġclaim": 3708,
      "ruction": 3709,
      "Ġspir": 3710,
      "Ġindepend": 3711,
      "Ġregion": 3712,
      "Ġlargest": 3713,
      "Ġdemand": 3714,
      "Ġcontribute": 3715,
      "Ġeffectively": 3716,
      "Ġadvantages": 3717,
      "Ġexercise": 3718,
      "Ġvulner": 3719,
      "17": 3720,
      "Ar": 3721,
      "SC": 3722,
      "can": 3723,
      "gs": 3724,
      "rim": 3725,
      "Ġmi": 3726,
      "Ġment": 3727,
      "Ġmel": 3728,
      "Ġmiss": 3729,
      "Ġmention": 3730,
      "room": 3731,
      "ctors": 3732,
      "idth": 3733,
      "Ġrise": 3734,
      "inecraft": 3735,
      "angle": 3736,
      "Ġteach": 3737,
      "Ġmyth": 3738,
      "lock": 3739,
      "Ġactually": 3740,
      "####": 3741,
      "Ġblood": 3742,
      "Ġrestrict": 3743,
      "Ġsympt": 3744,
      "Ġliter": 3745,
      "Ġprivate": 3746,
      "Ġeggs": 3747,
      "Ġbranch": 3748,
      "Let": 3749,
      "On": 3750,
      "ae": 3751,
      "vide": 3752,
      "Ġvel": 3753,
      "Ġwalk": 3754,
      "Ġfan": 3755,
      "Ġgar": 3756,
      "rade": 3757,
      "ayer": 3758,
      "ored": 3759,
      "Ġrule": 3760,
      "Ġenh": 3761,
      "ternal": 3762,
      "Ġadvice": 3763,
      "Ġmedium": 3764,
      "Ġincreased": 3765,
      "Ġparticles": 3766,
      "Ġfeeling": 3767,
      "Ġcapital": 3768,
      "Ġcapabilities": 3769,
      "Ġfrequen": 3770,
      "Ġerrors": 3771,
      "Ġphilosophy": 3772,
      "Ġingredients": 3773,
      "hy": 3774,
      "Ġos": 3775,
      "alled": 3776,
      "Ġreps": 3777,
      "ĠAm": 3778,
      "ĠSw": 3779,
      "ried": 3780,
      "rive": 3781,
      "pth": 3782,
      "ively": 3783,
      "Ġknew": 3784,
      "Ġquery": 3785,
      "ously": 3786,
      "acing": 3787,
      "cont": 3788,
      "Ġwhole": 3789,
      "Ġphr": 3790,
      "Ġfilter": 3791,
      "Ġcontainer": 3792,
      "Ġtesting": 3793,
      "Ġexisting": 3794,
      "ĠEuropean": 3795,
      "Ġalternative": 3796,
      "ĠConsider": 3797,
      "Ġchemical": 3798,
      "25": 3799,
      "['": 3800,
      "].": 3801,
      "how": 3802,
      "void": 3803,
      "atory": 3804,
      "anish": 3805,
      "Ġmicro": 3806,
      "Ġmiddle": 3807,
      "Ġbow": 3808,
      "Ġdirection": 3809,
      "uries": 3810,
      "ades": 3811,
      "aged": 3812,
      "Ġquite": 3813,
      "Ġadvance": 3814,
      "Ġhumanity": 3815,
      "Ġsubst": 3816,
      "Ġguit": 3817,
      "Ġcommands": 3818,
      "Ġelectron": 3819,
      "ĠWeb": 3820,
      "Ġdeli": 3821,
      "Ġengineering": 3822,
      "Ġrobot": 3823,
      "Ġconfiguration": 3824,
      "Ġsupply": 3825,
      "book": 3826,
      "mosp": 3827,
      "nam": 3828,
      "ðŁ": 3829,
      "Ġwa": 3830,
      "Ġrein": 3831,
      "Ġreward": 3832,
      "Ġgram": 3833,
      "term": 3834,
      "ĠDes": 3835,
      "ĠEl": 3836,
      "ĠRuss": 3837,
      "ĠLear": 3838,
      "epper": 3839,
      "ĠOver": 3840,
      "Ġaccom": 3841,
      "Ġconsult": 3842,
      "Ġactual": 3843,
      "Ġnoise": 3844,
      "....": 3845,
      "Ġmembers": 3846,
      "Ġrights": 3847,
      "Ġlayers": 3848,
      "Ġmoral": 3849,
      "ometry": 3850,
      "Ġcritical": 3851,
      "Ġconsistent": 3852,
      "Ġbrowser": 3853,
      "Ġchicken": 3854,
      "den": 3855,
      "mar": 3856,
      "ned": 3857,
      "oon": 3858,
      "Ġur": 3859,
      "Ġri": 3860,
      "Ġtalking": 3861,
      "Ġwrong": 3862,
      "adem": 3863,
      "Ġdead": 3864,
      "ĠPre": 3865,
      "Ġweap": 3866,
      "ĠReg": 3867,
      "ĠĠĠĠĠĠĠĠĠ": 3868,
      "Ġatmosp": 3869,
      "Ġcold": 3870,
      "Ġtechnical": 3871,
      "Ġhands": 3872,
      "Ġaccording": 3873,
      "Ġbox": 3874,
      "Ġ80": 3875,
      "Ġradius": 3876,
      "Ġprivacy": 3877,
      "Ġgraphics": 3878,
      "Ġdangerous": 3879,
      "Ġaspects": 3880,
      "Ġinfluenced": 3881,
      "Ġvaluable": 3882,
      "AD": 3883,
      "ok": 3884,
      "yl": 3885,
      "ony": 3886,
      "erate": 3887,
      "Ġpip": 3888,
      "ils": 3889,
      "Ġgold": 3890,
      "iful": 3891,
      "Ġpropos": 3892,
      "Ġmap": 3893,
      "ĠGu": 3894,
      "apter": 3895,
      "Ġobtain": 3896,
      "Ġinstructions": 3897,
      "Ġengaging": 3898,
      "Ġstatement": 3899,
      "Ġattacks": 3900,
      "Ġsalt": 3901,
      "Ġphilosophical": 3902,
      "Ġeducation": 3903,
      "Ġsymptoms": 3904,
      "21": 3905,
      "PE": 3906,
      "bed": 3907,
      "ped": 3908,
      "ugg": 3909,
      "orate": 3910,
      "Ġmaster": 3911,
      "aly": 3912,
      "Ġdry": 3913,
      "Ġhar": 3914,
      "Ġyet": 3915,
      "Ġlate": 3916,
      "etimes": 3917,
      "Ġgaming": 3918,
      "Ġstock": 3919,
      "Ġconsole": 3920,
      "unk": 3921,
      "asses": 3922,
      "Ġalign": 3923,
      "plate": 3924,
      "ĠMon": 3925,
      "Ġcontact": 3926,
      "Ġ25": 3927,
      "Ġtraffic": 3928,
      "order": 3929,
      "Ġadded": 3930,
      "Ġfinding": 3931,
      "Ġallowed": 3932,
      "Ġextension": 3933,
      "Ġengage": 3934,
      "____": 3935,
      "Ġvector": 3936,
      "Ġchanging": 3937,
      "Ġchallenge": 3938,
      "Ġwebsites": 3939,
      "Ġeconomy": 3940,
      "Ġperspective": 3941,
      "ĠGreek": 3942,
      "Ġmoment": 3943,
      "Ġdemonstr": 3944,
      "button": 3945,
      "From": 3946,
      "Now": 3947,
      "bi": 3948,
      "way": 3949,
      "ying": 3950,
      "Ġspl": 3951,
      "Ġfresh": 3952,
      "image": 3953,
      "Ġgot": 3954,
      "ĠTake": 3955,
      "Ġusage": 3956,
      "Ġchain": 3957,
      "ĠFrench": 3958,
      "Ġsoon": 3959,
      "Ġrot": 3960,
      "ĠVal": 3961,
      "Ġcultures": 3962,
      "Ġamounts": 3963,
      "Ġlinear": 3964,
      "Ġlibraries": 3965,
      "espite": 3966,
      "Ġbroad": 3967,
      "Ġemotions": 3968,
      "Ġsatis": 3969,
      "Ġguitar": 3970,
      "45": 3971,
      "='": 3972,
      "dis": 3973,
      "iation": 3974,
      "pot": 3975,
      "sk": 3976,
      "width": 3977,
      "Ġtaste": 3978,
      "orrow": 3979,
      "olve": 3980,
      "unning": 3981,
      "Ġmac": 3982,
      "resents": 3983,
      "Ġgoes": 3984,
      "Ġhowever": 3985,
      "Ġserve": 3986,
      "Ġcover": 3987,
      "Ġimproving": 3988,
      "Ġrepresents": 3989,
      "Ġresulting": 3990,
      "point": 3991,
      "Ġresponsible": 3992,
      "Ġeye": 3993,
      "Ġpriorit": 3994,
      "70": 3995,
      "aks": 3996,
      "hing": 3997,
      "hib": 3998,
      "net": 3999,
      "nel": 4000,
      "rem": 4001,
      "itter": 4002,
      "used": 4003,
      "Ġthinking": 4004,
      "ether": 4005,
      "ĠAut": 4006,
      "iring": 4007,
      "que": 4008,
      "though": 4009,
      "Ġ13": 4010,
      "ĠGPU": 4011,
      "Ġscal": 4012,
      "Ġfeet": 4013,
      "Ġkeys": 4014,
      "Ġgeneration": 4015,
      "ĠChoose": 4016,
      "Ġcentral": 4017,
      "Ġbright": 4018,
      "Ġencrypt": 4019,
      "Ġcustomers": 4020,
      "Ġmilk": 4021,
      "Ġexpected": 4022,
      "Ġpowers": 4023,
      "Ġbecomes": 4024,
      "ĠYouTube": 4025,
      "77": 4026,
      "?\"": 4027,
      "hood": 4028,
      "known": 4029,
      "main": 4030,
      "Ã©": 4031,
      "onent": 4032,
      "atives": 4033,
      "Ġfing": 4034,
      "Ġhun": 4035,
      "amples": 4036,
      "style": 4037,
      "ĠThat": 4038,
      "unc": 4039,
      "ership": 4040,
      "ĠMany": 4041,
      "Ġseason": 4042,
      "Ġanyone": 4043,
      "Ġcoll": 4044,
      "Ġapart": 4045,
      "Ġinfin": 4046,
      "Ġfilled": 4047,
      "Ġ2023": 4048,
      "Ġpassed": 4049,
      "ĠSpanish": 4050,
      "Ġcaused": 4051,
      "Ġmole": 4052,
      "ography": 4053,
      "Ġopin": 4054,
      "ĠDefine": 4055,
      "Ġcrucial": 4056,
      "Are": 4057,
      "Er": 4058,
      "wise": 4059,
      "Ġsch": 4060,
      "Ġbrand": 4061,
      "Ġden": 4062,
      "icle": 4063,
      "Ġrelease": 4064,
      "step": 4065,
      "Ġconvert": 4066,
      "Ġimplications": 4067,
      "agraph": 4068,
      "dule": 4069,
      "Ġscale": 4070,
      "ifications": 4071,
      "Ġnews": 4072,
      "Ġexpert": 4073,
      "Ġtransfer": 4074,
      "Ġextra": 4075,
      "Ġstudent": 4076,
      "Step": 4077,
      "Ġorigin": 4078,
      "Ġprefer": 4079,
      "Ġmoon": 4080,
      "Ġscenari": 4081,
      "Ġfigure": 4082,
      "Ġdescription": 4083,
      "life": 4084,
      "oin": 4085,
      "Ġtur": 4086,
      "rel": 4087,
      "Ġfront": 4088,
      "Ġdial": 4089,
      "Ġdivid": 4090,
      "omic": 4091,
      "ĠCSS": 4092,
      "rief": 4093,
      "Ġhair": 4094,
      "Ġsugar": 4095,
      "ĠMark": 4096,
      "Ġplot": 4097,
      "ractice": 4098,
      "Ġregulations": 4099,
      "Ġvisit": 4100,
      "Ġfeelings": 4101,
      "Ġfamous": 4102,
      "Ġeventually": 4103,
      "Ġcauses": 4104,
      "Ġinnovation": 4105,
      "Ġgravity": 4106,
      "Ġapproximately": 4107,
      "24": 4108,
      "99": 4109,
      "ET": 4110,
      "Ð¾": 4111,
      "Ġ%": 4112,
      "Ġir": 4113,
      "ret": 4114,
      "onic": 4115,
      "eral": 4116,
      "iced": 4117,
      "ĠAf": 4118,
      "Ġrich": 4119,
      "ĠFl": 4120,
      "ĠVis": 4121,
      "Ġdefault": 4122,
      "Ġdiverse": 4123,
      "ĠComp": 4124,
      "Ġorganizations": 4125,
      "Ġcosts": 4126,
      "Ġcontributions": 4127,
      "Ġpolicies": 4128,
      "Ġlimitations": 4129,
      "Ġstatus": 4130,
      "Ġprimary": 4131,
      "Ġmaximum": 4132,
      "Ġestablish": 4133,
      "Ġneurons": 4134,
      "Ġgirl": 4135,
      "Ass": 4136,
      "Se": 4137,
      "most": 4138,
      "rig": 4139,
      "ufact": 4140,
      "inst": 4141,
      "Ġsil": 4142,
      "Ġsorry": 4143,
      "Ġcit": 4144,
      "ingu": 4145,
      "Ġfat": 4146,
      "Ġfoot": 4147,
      "Ġmer": 4148,
      "Ġtomat": 4149,
      "Ġlapt": 4150,
      "illed": 4151,
      "Ġdev": 4152,
      "pload": 4153,
      "ĠBuild": 4154,
      "ĠRem": 4155,
      "Ġphone": 4156,
      "earch": 4157,
      "ĠKing": 4158,
      "Ġrecord": 4159,
      "hens": 4160,
      "Ġgradu": 4161,
      "Ġensuring": 4162,
      "rency": 4163,
      "Ġwidth": 4164,
      "Ġarguments": 4165,
      "Ġpieces": 4166,
      "Ġseparate": 4167,
      "Ġanalyze": 4168,
      "Ġspecifically": 4169,
      "iliar": 4170,
      "Ġjourney": 4171,
      "Int": 4172,
      "overy": 4173,
      "sum": 4174,
      "reg": 4175,
      "onds": 4176,
      "atically": 4177,
      "itory": 4178,
      "Ġphen": 4179,
      "Ġpepper": 4180,
      "Ġfavor": 4181,
      "Ġmist": 4182,
      "Ġbound": 4183,
      "ley": 4184,
      "Ġdou": 4185,
      "Ġreve": 4186,
      "Ġnp": 4187,
      "oll": 4188,
      "Ġstyles": 4189,
      "ums": 4190,
      "ĠSun": 4191,
      "ĠCould": 4192,
      "ĠRoman": 4193,
      "Ġmodule": 4194,
      "Ġclick": 4195,
      "acity": 4196,
      "tenance": 4197,
      "Ġaccessible": 4198,
      "Ġmetal": 4199,
      "ĠOpenAI": 4200,
      "ĠAlso": 4201,
      "Ġocc": 4202,
      "Ġimmed": 4203,
      "Ġreceive": 4204,
      "Ġinterpret": 4205,
      "']": 4206,
      "CT": 4207,
      "Certain": 4208,
      "Id": 4209,
      "gram": 4210,
      "hest": 4211,
      "rest": 4212,
      "estern": 4213,
      "Ġbur": 4214,
      "Ġgives": 4215,
      "ided": 4216,
      "Ġconv": 4217,
      "ĠAre": 4218,
      "Ġalien": 4219,
      "Ġvast": 4220,
      "Ġcho": 4221,
      "ocity": 4222,
      "Ġnotes": 4223,
      "ĠDr": 4224,
      "Ġpret": 4225,
      "connect": 4226,
      "Ġrace": 4227,
      "Ġattract": 4228,
      "Ġattribut": 4229,
      "hesis": 4230,
      "Ġdiag": 4231,
      "Ġvision": 4232,
      "Ġmuscle": 4233,
      "Ġpractical": 4234,
      "Ġshows": 4235,
      "Ġelectr": 4236,
      "Ġlegs": 4237,
      "Ġsentence": 4238,
      "Ġtrend": 4239,
      "Ġtrees": 4240,
      "Ġmathematics": 4241,
      "Ġdisease": 4242,
      "Ġfundam": 4243,
      "Ġnavigate": 4244,
      "Ġvegetables": 4245,
      "Ġprotein": 4246,
      "Error": 4247,
      "AS": 4248,
      "cos": 4249,
      "oint": 4250,
      "she": 4251,
      "vest": 4252,
      "array": 4253,
      "Ġhalf": 4254,
      "omy": 4255,
      "Ġlost": 4256,
      "Ġluck": 4257,
      "ĠSk": 4258,
      "Ġsup": 4259,
      "ĠMe": 4260,
      "ĠMat": 4261,
      "Ġplaces": 4262,
      "ache": 4263,
      "Ġevil": 4264,
      "Ġtransition": 4265,
      "Ġflat": 4266,
      "Ġretrie": 4267,
      "ĠChrist": 4268,
      "Ġenter": 4269,
      "issions": 4270,
      "ocket": 4271,
      "Ġmachines": 4272,
      "Ġsometimes": 4273,
      "Cont": 4274,
      "Ġcomfortable": 4275,
      "Ġexplanation": 4276,
      "Ġatmosphere": 4277,
      "Certainly": 4278,
      "Once": 4279,
      "`,": 4280,
      "fig": 4281,
      "flow": 4282,
      "mers": 4283,
      "uzz": 4284,
      "Ġtend": 4285,
      "eries": 4286,
      "Ġpush": 4287,
      "Ġfair": 4288,
      "Ġincom": 4289,
      "ĠTV": 4290,
      "rac": 4291,
      "ĠAlex": 4292,
      "irm": 4293,
      "osition": 4294,
      "ĠMax": 4295,
      "android": 4296,
      "Ġshad": 4297,
      "Ġkn": 4298,
      "Ġacadem": 4299,
      "Ġoutline": 4300,
      "Ġmyself": 4301,
      "Ġspecified": 4302,
      "Ġtruth": 4303,
      "Ġsettings": 4304,
      "Ġunderlying": 4305,
      "Ġrelatively": 4306,
      "Ġfunctionality": 4307,
      "rows": 4308,
      "ought": 4309,
      "Ġcomplet": 4310,
      "Ġpopulation": 4311,
      "ifying": 4312,
      "Ġincred": 4313,
      "poon": 4314,
      "roduction": 4315,
      "Ġscientists": 4316,
      "Ġrepresentation": 4317,
      "uracy": 4318,
      "allel": 4319,
      "90": 4320,
      "Data": 4321,
      "OM": 4322,
      "Of": 4323,
      "SQL": 4324,
      "code": 4325,
      "grad": 4326,
      "yp": 4327,
      "Ġsite": 4328,
      "ĠSS": 4329,
      "Ġvoc": 4330,
      "Ġrh": 4331,
      "Ġrough": 4332,
      "Ġresource": 4333,
      "ĠNorth": 4334,
      "Inter": 4335,
      "Ġcurve": 4336,
      "Ġchess": 4337,
      "nesses": 4338,
      "Ġ50": 4339,
      "Ġseek": 4340,
      "Ġextract": 4341,
      "Ġenvironments": 4342,
      "Ġstream": 4343,
      "ĠComput": 4344,
      "Ġprompts": 4345,
      "Ġexercises": 4346,
      "Ġfloat": 4347,
      "ĠApple": 4348,
      "Ġreliable": 4349,
      "Ġmessages": 4350,
      "Open": 4351,
      "Tr": 4352,
      "db": 4353,
      "hold": 4354,
      "mission": 4355,
      "}{": 4356,
      "Ġic": 4357,
      "reci": 4358,
      "Ġcame": 4359,
      "ana": 4360,
      "Ġwent": 4361,
      "ened": 4362,
      "leg": 4363,
      "iding": 4364,
      "Ġforces": 4365,
      "ulated": 4366,
      "Ġconver": 4367,
      "umin": 4368,
      "uman": 4369,
      "Ġdecre": 4370,
      "ĠPy": 4371,
      "ĠMed": 4372,
      "ightly": 4373,
      "ellow": 4374,
      "Ġmanufact": 4375,
      "Ġworkout": 4376,
      "Ġprices": 4377,
      "Ġrelax": 4378,
      "Ġinvent": 4379,
      "Ġdetail": 4380,
      "Ġruns": 4381,
      "Who": 4382,
      "Ġcapable": 4383,
      "Explain": 4384,
      "Ġlandsc": 4385,
      "weight": 4386,
      "Ġprobability": 4387,
      "ocolate": 4388,
      "Ġbattery": 4389,
      "Ġphenomen": 4390,
      "ris": 4391,
      "xi": 4392,
      "Ġtut": 4393,
      "inks": 4394,
      "Ġwin": 4395,
      "Ġwild": 4396,
      "Ġfant": 4397,
      "Ġine": 4398,
      "lection": 4399,
      "Ġdict": 4400,
      "ascript": 4401,
      "Ġhidden": 4402,
      "Ġep": 4403,
      "iling": 4404,
      "Ġstars": 4405,
      "ĠAll": 4406,
      "ada": 4407,
      "illa": 4408,
      "Ġmeant": 4409,
      "Ġenable": 4410,
      "ĠEach": 4411,
      "Ġdoctor": 4412,
      "Ġunits": 4413,
      "Ġspeech": 4414,
      "avascript": 4415,
      "ipment": 4416,
      "Ġserious": 4417,
      "Ġappreci": 4418,
      "Ġinstalled": 4419,
      "Ġassistance": 4420,
      "Ġofficial": 4421,
      "Ġopening": 4422,
      "Ġcarry": 4423,
      "Ġaccuracy": 4424,
      "Ġlearned": 4425,
      "Ġsupports": 4426,
      "iveness": 4427,
      "Ġzero": 4428,
      "poses": 4429,
      "Ġunivers": 4430,
      "Ġanimal": 4431,
      "Ġlogic": 4432,
      "Ġreleased": 4433,
      "Ġcausing": 4434,
      "Ġjobs": 4435,
      "rastructure": 4436,
      "ĠâĪ": 4437,
      "Ġadventure": 4438,
      "Ġbeautiful": 4439,
      "\");": 4440,
      "Hi": 4441,
      "IM": 4442,
      "oke": 4443,
      "orch": 4444,
      "encies": 4445,
      "Ġpair": 4446,
      "Ġfelt": 4447,
      "Ġmath": 4448,
      "Ġhat": 4449,
      "Ġstories": 4450,
      "Ġitem": 4451,
      "ĠSim": 4452,
      "Ġhear": 4453,
      "Ġmeat": 4454,
      "ĠData": 4455,
      "class": 4456,
      "ibilities": 4457,
      "Ġmanager": 4458,
      "ĠIntern": 4459,
      "ounds": 4460,
      "Ġready": 4461,
      "String": 4462,
      "Ġresearc": 4463,
      "ĠTherefore": 4464,
      "Ġsounds": 4465,
      "Ġmotion": 4466,
      "Ġguidance": 4467,
      "Ġlatest": 4468,
      "friendly": 4469,
      "Ġprioritize": 4470,
      "'},": 4471,
      "Pl": 4472,
      "cel": 4473,
      "csv": 4474,
      "df": 4475,
      "frame": 4476,
      "Ã¼": 4477,
      "Ġcro": 4478,
      "Ġfill": 4479,
      "Ġmill": 4480,
      "alax": 4481,
      "Ġdimens": 4482,
      "arge": 4483,
      "etime": 4484,
      "Ġpros": 4485,
      "ĠSQL": 4486,
      "Ġalt": 4487,
      "Ġvill": 4488,
      "ĠCO": 4489,
      "aby": 4490,
      "osure": 4491,
      "ository": 4492,
      "ĠMinecraft": 4493,
      "Ġseed": 4494,
      "pped": 4495,
      "ĠFe": 4496,
      "ford": 4497,
      "Ġcompre": 4498,
      "ĠList": 4499,
      "ĠLook": 4500,
      "ibly": 4501,
      "Ġcloud": 4502,
      "xture": 4503,
      "Ġarr": 4504,
      "Ġraise": 4505,
      "Ġinfrastructure": 4506,
      "Ġcars": 4507,
      "Ġpopularity": 4508,
      "Ġparticip": 4509,
      "Ġfoods": 4510,
      "Ġthoughts": 4511,
      "Ġdetermined": 4512,
      "Ġestimate": 4513,
      "Ġhyd": 4514,
      "Ġreligious": 4515,
      "Ġapplied": 4516,
      "Ġschedule": 4517,
      "Ġcamera": 4518,
      "Ġchannel": 4519,
      "HT": 4520,
      "TP": 4521,
      "title": 4522,
      "Ġ__": 4523,
      "Ġtables": 4524,
      "Ġcogn": 4525,
      "ene": 4526,
      "Ġmenu": 4527,
      "Ġband": 4528,
      "icy": 4529,
      "icking": 4530,
      "rol": 4531,
      "Ġlyr": 4532,
      "eli": 4533,
      "elines": 4534,
      "elcome": 4535,
      "ulating": 4536,
      "ession": 4537,
      "ĠCar": 4538,
      "ĠCent": 4539,
      "rier": 4540,
      "ains": 4541,
      "ĠMay": 4542,
      "Ġsea": 4543,
      "ĠGener": 4544,
      "Ġcontrast": 4545,
      "Ġqual": 4546,
      "Ġthemes": 4547,
      "ordin": 4548,
      "ĠStud": 4549,
      "Ġobst": 4550,
      "Ġwanted": 4551,
      "plication": 4552,
      "efore": 4553,
      "Ġdefined": 4554,
      "oyal": 4555,
      "Ġclassic": 4556,
      "Ġmember": 4557,
      "Ġreading": 4558,
      "Ġbias": 4559,
      "lik": 4560,
      "coin": 4561,
      "Ġprotection": 4562,
      "Ġoptimize": 4563,
      "Ġsociet": 4564,
      "Ġtrip": 4565,
      "ridge": 4566,
      "Ġstrengths": 4567,
      "Ġsyntax": 4568,
      "forcement": 4569,
      "Ġfruit": 4570,
      "Ġpurchase": 4571,
      "CE": 4572,
      "[\"": 4573,
      "des": 4574,
      "free": 4575,
      "ratic": 4576,
      "zer": 4577,
      "Ġcraft": 4578,
      "ancing": 4579,
      "Ġbra": 4580,
      "Ġbrief": 4581,
      "asure": 4582,
      "ceed": 4583,
      "idity": 4584,
      "Ġstatic": 4585,
      "plies": 4586,
      "ptions": 4587,
      "ĠPe": 4588,
      "ĠPower": 4589,
      "Ġleave": 4590,
      "anging": 4591,
      "Ġmanner": 4592,
      "Ġtrig": 4593,
      "Ġindic": 4594,
      "Ġpeace": 4595,
      "Ġrain": 4596,
      "oved": 4597,
      "Ġimproved": 4598,
      "Ġplanning": 4599,
      "Ġclasses": 4600,
      "Ġshell": 4601,
      "Ġmovies": 4602,
      "ossible": 4603,
      "Ġsuggests": 4604,
      "Ġhimself": 4605,
      "points": 4606,
      "Ġdogs": 4607,
      "Ġblocks": 4608,
      "Ġcorrectly": 4609,
      "Another": 4610,
      "Ġcircum": 4611,
      "Ġsuitable": 4612,
      "Ġbottom": 4613,
      "Ġvelocity": 4614,
      "85": 4615,
      "Line": 4616,
      "View": 4617,
      "count": 4618,
      "event": 4619,
      "hol": 4620,
      "local": 4621,
      "mark": 4622,
      "ql": 4623,
      "your": 4624,
      "zing": 4625,
      "Ġvert": 4626,
      "Ġtalk": 4627,
      "include": 4628,
      "Ġsides": 4629,
      "Ġpadd": 4630,
      "Ġmob": 4631,
      "Ġbact": 4632,
      "Ġbillion": 4633,
      "ara": 4634,
      "Ġlooks": 4635,
      "etch": 4636,
      "Ġgather": 4637,
      "olf": 4638,
      "Ġstar": 4639,
      "Ġord": 4640,
      "section": 4641,
      "Ġhero": 4642,
      "Ġchocolate": 4643,
      "ĠDon": 4644,
      "Ġwear": 4645,
      "Ġcompare": 4646,
      "ressive": 4647,
      "Ġgets": 4648,
      "Ġgoods": 4649,
      "Ġideal": 4650,
      "inese": 4651,
      "Ġrepository": 4652,
      "Ġartists": 4653,
      "Ġcommunicate": 4654,
      "Ġoperation": 4655,
      "Ġediting": 4656,
      "Ġfocused": 4657,
      "box": 4658,
      "Ġhypot": 4659,
      "Ġinteractions": 4660,
      "Ġbattle": 4661,
      "ÂłÂłÂłÂłÂłÂłÂłÂł": 4662,
      "Ġsituations": 4663,
      "Ġemotional": 4664,
      "Ġcompetition": 4665,
      "Ġutil": 4666,
      "Ġcontinued": 4667,
      "password": 4668,
      "Ġspirit": 4669,
      "Finally": 4670,
      "RL": 4671,
      "Sc": 4672,
      "bles": 4673,
      "eper": 4674,
      "sm": 4675,
      "Ġtrou": 4676,
      "Ġtouch": 4677,
      "Ġcos": 4678,
      "Ġwind": 4679,
      "Ġpen": 4680,
      "Ġpand": 4681,
      "alt": 4682,
      "asp": 4683,
      "rog": 4684,
      "Ġeating": 4685,
      "iration": 4686,
      "Ġexcept": 4687,
      "ĠSm": 4688,
      "abet": 4689,
      "plot": 4690,
      "osen": 4691,
      "Ġmeal": 4692,
      "Ġnothing": 4693,
      "Ġshown": 4694,
      "pping": 4695,
      "ards": 4696,
      "ĠOur": 4697,
      "ĠUp": 4698,
      "ĠJS": 4699,
      "Ġsettle": 4700,
      "Ġexploring": 4701,
      "Ġtechnique": 4702,
      "Ġskin": 4703,
      "Ġflour": 4704,
      "Ġmaintenance": 4705,
      "Ġbelow": 4706,
      "Ġcorresp": 4707,
      "Ġconstruct": 4708,
      "Ġ},": 4709,
      "Which": 4710,
      "Ġmeters": 4711,
      "Ġcapacity": 4712,
      "ĠArt": 4713,
      "json": 4714,
      "being": 4715,
      "Ġforest": 4716,
      "label": 4717,
      "Ġvalidation": 4718,
      "Ġpresence": 4719,
      "Ġconsumption": 4720,
      "Ġprimarily": 4721,
      "Ġtreatment": 4722,
      "Ġderiv": 4723,
      "ĠGermany": 4724,
      "Ġdynamic": 4725,
      "Ġmixture": 4726,
      "Ġtutorial": 4727,
      "Ġdimensions": 4728,
      "Ġlyrics": 4729,
      "AL": 4730,
      "Get": 4731,
      "Text": 4732,
      "ey": 4733,
      "function": 4734,
      "frac": 4735,
      "pat": 4736,
      "pack": 4737,
      "ĠÎ": 4738,
      "erv": 4739,
      "Ġpin": 4740,
      "Ġpub": 4741,
      "Ġox": 4742,
      "Ġtown": 4743,
      "Ġhom": 4744,
      "istry": 4745,
      "Ġstri": 4746,
      "sect": 4747,
      "gebra": 4748,
      "Ġexists": 4749,
      "osis": 4750,
      "Ġleaves": 4751,
      "ĠWrite": 4752,
      "ellent": 4753,
      "client": 4754,
      "Ġcontract": 4755,
      "ryst": 4756,
      "Ġsport": 4757,
      "Ġfunctional": 4758,
      "Ġrap": 4759,
      "Ġsolid": 4760,
      "Ġsaw": 4761,
      "Ġstudies": 4762,
      "Ġpurposes": 4763,
      "Ġvectors": 4764,
      "Ġanswers": 4765,
      "Ġswitch": 4766,
      "Ġtook": 4767,
      "azi": 4768,
      "Ġestim": 4769,
      "Ġweights": 4770,
      "Ġharmful": 4771,
      "Ġinspired": 4772,
      "untu": 4773,
      "affe": 4774,
      "Ġnuclear": 4775,
      "ĠAfric": 4776,
      "65": 4777,
      "AP": 4778,
      "Base": 4779,
      "Ultimately": 4780,
      "ched": 4781,
      "lation": 4782,
      "mun": 4783,
      "ued": 4784,
      "vas": 4785,
      "Ġtab": 4786,
      "Ġfuel": 4787,
      "Ġble": 4788,
      "Ġdu": 4789,
      "oder": 4790,
      "ĠHer": 4791,
      "Ġsex": 4792,
      "Ġ14": 4793,
      "Ġupload": 4794,
      "Ġdoor": 4795,
      "ague": 4796,
      "Ġuns": 4797,
      "Ġcloth": 4798,
      "Ġcommer": 4799,
      "conds": 4800,
      "Ġstrings": 4801,
      "Ġpersonality": 4802,
      "Ġsauce": 4803,
      "Ġclassical": 4804,
      "Ġentertain": 4805,
      "Ġequipment": 4806,
      "Ġmoves": 4807,
      "Ġrestaur": 4808,
      "Ġcareer": 4809,
      "Ġslightly": 4810,
      "Ġinternational": 4811,
      "Ġexperienced": 4812,
      "Ġhighest": 4813,
      "Ġlabor": 4814,
      "Ġefficiently": 4815,
      "Ġcycle": 4816,
      "Ġminimum": 4817,
      "Ġperspectives": 4818,
      "ĠCalcul": 4819,
      "izza": 4820,
      "ĠBritish": 4821,
      "Ġfrequency": 4822,
      "Ġaccompl": 4823,
      "75": 4824,
      "She": 4825,
      "more": 4826,
      "run": 4827,
      "Ġtru": 4828,
      "Ġdin": 4829,
      "ĠIN": 4830,
      "Ġasking": 4831,
      "ĠApp": 4832,
      "Ġcoming": 4833,
      "Ġdeploy": 4834,
      "Ġdepth": 4835,
      "ĠCo": 4836,
      "emale": 4837,
      "Ġsuff": 4838,
      "ests": 4839,
      "ĠMin": 4840,
      "Ġnoting": 4841,
      "Ġadult": 4842,
      "Ġclar": 4843,
      "Ġspaces": 4844,
      "rought": 4845,
      "Ġhighlight": 4846,
      "egin": 4847,
      "Ġleader": 4848,
      "Ġlocations": 4849,
      "Ġreduced": 4850,
      "Ġparagraph": 4851,
      "Ġparallel": 4852,
      "Ġtests": 4853,
      "Ġencourage": 4854,
      "Ġbehavi": 4855,
      "Ġstored": 4856,
      "Ġintegers": 4857,
      "Ġmagn": 4858,
      "Ġessay": 4859,
      "Ġbeginning": 4860,
      "vantages": 4861,
      "Ġdrink": 4862,
      "Add": 4863,
      "ĠInstall": 4864,
      "Ġangle": 4865,
      "ĠTwitter": 4866,
      "Ġhabit": 4867,
      "Ġfavorite": 4868,
      "Ġcomprehens": 4869,
      ")^": 4870,
      "First": 4871,
      "HE": 4872,
      "SV": 4873,
      "ha": 4874,
      "page": 4875,
      "pair": 4876,
      "rs": 4877,
      "ran": 4878,
      "Ġsav": 4879,
      "Ġbul": 4880,
      "Ġbank": 4881,
      "icks": 4882,
      "Ġhit": 4883,
      "omb": 4884,
      "vere": 4885,
      "imin": 4886,
      "stream": 4887,
      "ĠTe": 4888,
      "Ġstd": 4889,
      "Ġorbit": 4890,
      "Ġvibr": 4891,
      "Ġshared": 4892,
      "clus": 4893,
      "Ġcompar": 4894,
      "Ġcompil": 4895,
      "iber": 4896,
      "Ġunable": 4897,
      "Ġclim": 4898,
      "Ġtrade": 4899,
      "Ġsoil": 4900,
      "Ġovercome": 4901,
      "Ġremote": 4902,
      "Ġdistinct": 4903,
      "Ġ40": 4904,
      "Ġpotat": 4905,
      "Ġmedic": 4906,
      "Ġdiscover": 4907,
      "âĸĦ": 4908,
      "ĠUnion": 4909,
      "ocker": 4910,
      "ĠExpl": 4911,
      "Ġswe": 4912,
      "ync": 4913,
      "Ġimplementing": 4914,
      "Ġfreed": 4915,
      "Ġidentity": 4916,
      "lands": 4917,
      "Ġdescribed": 4918,
      "Ġautomatically": 4919,
      "Ġdocumentation": 4920,
      "ĠDisc": 4921,
      "Image": 4922,
      "Ġsurvive": 4923,
      "Ġmentioned": 4924,
      "aper": 4925,
      "bre": 4926,
      "ira": 4927,
      "press": 4928,
      "Ð°": 4929,
      "herent": 4930,
      "itution": 4931,
      "ĠĠčĊ": 4932,
      "Ġple": 4933,
      "Ġfalse": 4934,
      "Ġmal": 4935,
      "uses": 4936,
      "Ġstable": 4937,
      "Ġonto": 4938,
      "ĠAc": 4939,
      "ĠAust": 4940,
      "ĠPol": 4941,
      "ĠPractice": 4942,
      "Ġseems": 4943,
      "ocur": 4944,
      "ĠWestern": 4945,
      "ansion": 4946,
      "api": 4947,
      "Inst": 4948,
      "creen": 4949,
      "Ġfollowed": 4950,
      "Ġstarts": 4951,
      "ĠChinese": 4952,
      "Ġinsurance": 4953,
      "onding": 4954,
      "Ġ[]": 4955,
      "Ġreader": 4956,
      "Ġedge": 4957,
      "scale": 4958,
      "Ġgrowing": 4959,
      "Ġincome": 4960,
      "Ġdemoc": 4961,
      "Ġblockchain": 4962,
      "ĠAmerica": 4963,
      "yright": 4964,
      "Ġobserv": 4965,
      "speed": 4966,
      "ĠFrance": 4967,
      "ĠLearning": 4968,
      "Ġcitiz": 4969,
      "\"\"": 4970,
      "DO": 4971,
      "Des": 4972,
      "IG": 4973,
      "aign": 4974,
      "cor": 4975,
      "cast": 4976,
      "map": 4977,
      "td": 4978,
      "Ġer": 4979,
      "Ġast": 4980,
      "erve": 4981,
      "Ġcooking": 4982,
      "Ġpet": 4983,
      "Ġborn": 4984,
      "Ġdensity": 4985,
      "Ġgender": 4986,
      "output": 4987,
      "ills": 4988,
      "ĠMag": 4989,
      "ĠGe": 4990,
      "arden": 4991,
      "berry": 4992,
      "Ġdesire": 4993,
      "Ġtape": 4994,
      "Ġworkers": 4995,
      "Ġplays": 4996,
      "Ġpoll": 4997,
      "Ġconsidering": 4998,
      "Ġboot": 4999,
      "ttp": 5000,
      "Ġbiases": 5001,
      "Ġachieved": 5002,
      "Ġtemperatures": 5003,
      "Ġesc": 5004,
      "Ġjoin": 5005,
      "Ġefforts": 5006,
      "going": 5007,
      "ĠBlack": 5008,
      "Ġdefinition": 5009,
      "Ġupdates": 5010,
      "Ġfrequently": 5011,
      "Ġrhyth": 5012,
      "CP": 5013,
      "Chor": 5014,
      "Qu": 5015,
      "off": 5016,
      "sub": 5017,
      "tra": 5018,
      "uk": 5019,
      "writ": 5020,
      "ĠÂ": 5021,
      "Ġtall": 5022,
      "Ġwalking": 5023,
      "Ġmother": 5024,
      "Ġbread": 5025,
      "eterm": 5026,
      "stract": 5027,
      "ĠId": 5028,
      "odies": 5029,
      "ections": 5030,
      "osaur": 5031,
      "ĠMart": 5032,
      "Ġplastic": 5033,
      "Ġimpossible": 5034,
      "ĠGPT": 5035,
      "ĠLat": 5036,
      "index": 5037,
      "Ġcred": 5038,
      "Ġteas": 5039,
      "Ġwilling": 5040,
      "ĠOther": 5041,
      "ĠOff": 5042,
      "achine": 5043,
      "ĠUsing": 5044,
      "Ġarm": 5045,
      "Ġroad": 5046,
      "Ġrocket": 5047,
      "ĠJust": 5048,
      "Ġservers": 5049,
      "Ġparty": 5050,
      "Ġinstr": 5051,
      "Ġassume": 5052,
      "Ġpoor": 5053,
      "entials": 5054,
      "Ġsolving": 5055,
      "Ġsignal": 5056,
      "Ġreply": 5057,
      "Ġrepair": 5058,
      "Ġseeking": 5059,
      "Ġpatient": 5060,
      "Ġdiscovered": 5061,
      "Ġstret": 5062,
      "Ġcombined": 5063,
      "Ġargue": 5064,
      "Ġcris": 5065,
      "Ġmagical": 5066,
      "Ġasked": 5067,
      "Ġmorning": 5068,
      "Ġsongs": 5069,
      "Ġlabel": 5070,
      "Ġbusinesses": 5071,
      "Ġrecognition": 5072,
      "Ġcampaign": 5073,
      "Ġcryptocur": 5074,
      "Ġflexible": 5075,
      "Ġenhance": 5076,
      "Ġlaptop": 5077,
      "Ġacademic": 5078,
      "Ġcompletely": 5079,
      "Ġcommercial": 5080,
      "->": 5081,
      "200": 5082,
      "BS": 5083,
      "Give": 5084,
      "Ph": 5085,
      "UT": 5086,
      "bell": 5087,
      "making": 5088,
      "sort": 5089,
      "tun": 5090,
      "Ðµ": 5091,
      "Ġcounter": 5092,
      "orous": 5093,
      "itches": 5094,
      "Ġfo": 5095,
      "Ġdance": 5096,
      "owered": 5097,
      "cend": 5098,
      "Ġstage": 5099,
      "Ġprop": 5100,
      "ĠAN": 5101,
      "Ġusern": 5102,
      "Ġalgebra": 5103,
      "Ġvar": 5104,
      "Ġcompat": 5105,
      "roup": 5106,
      "Ġsyn": 5107,
      "Ġdesk": 5108,
      "Ġassign": 5109,
      "Ġdefe": 5110,
      "Ġflav": 5111,
      "Ġflavor": 5112,
      "Ġago": 5113,
      "Ġsigns": 5114,
      "Ġexposure": 5115,
      "Ġparad": 5116,
      "aws": 5117,
      "Ġstatements": 5118,
      "Ġcenturies": 5119,
      "Ġrecommendations": 5120,
      "Ġsentient": 5121,
      "Ġoptimization": 5122,
      "Ġinternal": 5123,
      "Ġinvestment": 5124,
      "ĠScience": 5125,
      "Ġsubjective": 5126,
      "Ġforeign": 5127,
      "ĠEmpire": 5128,
      "Ġrecognize": 5129,
      "Ġparameter": 5130,
      "Ġcopy": 5131,
      "Ġgeometry": 5132,
      "Ġabsol": 5133,
      "Ġbecoming": 5134,
      "Hey": 5135,
      "Ġexactly": 5136,
      "Ġfixed": 5137,
      "Ġultimately": 5138,
      "Ġshapes": 5139,
      "Ġhoriz": 5140,
      "Ġlicense": 5141,
      "Ġsecret": 5142,
      "Ġfantasy": 5143,
      "Chorus": 5144,
      "');": 5145,
      "78": 5146,
      "acles": 5147,
      "kay": 5148,
      "message": 5149,
      "rm": 5150,
      "sol": 5151,
      "Ġsou": 5152,
      "Ġfans": 5153,
      "Ġbird": 5154,
      "lean": 5155,
      "icing": 5156,
      "eter": 5157,
      "ams": 5158,
      "ĠAccording": 5159,
      "Ġexternal": 5160,
      "ĠSouth": 5161,
      "Ġvir": 5162,
      "Ġvia": 5163,
      "Ġdeal": 5164,
      "ĠPort": 5165,
      "Ġleaving": 5166,
      "Ġchosen": 5167,
      "ĠDoc": 5168,
      "ĠLED": 5169,
      "ags": 5170,
      "Ġwaste": 5171,
      "Ġhelped": 5172,
      "anguage": 5173,
      "Ġworked": 5174,
      "Ġgenerating": 5175,
      "rown": 5176,
      "Ġsold": 5177,
      "Ġcontrovers": 5178,
      "Ġdiam": 5179,
      "Ġlayout": 5180,
      "Ġstores": 5181,
      "Ġdidn": 5182,
      "Ġfulf": 5183,
      "Ġemployees": 5184,
      "::::::::": 5185,
      "Ġestablished": 5186,
      "ĠGerman": 5187,
      "Ġsustainable": 5188,
      "Ġschol": 5189,
      "Ġfundamental": 5190,
      "Ġcognitive": 5191,
      "Ġbacteria": 5192,
      "DE": 5193,
      "Reg": 5194,
      "Since": 5195,
      "Un": 5196,
      "iant": 5197,
      "iers": 5198,
      "lines": 5199,
      "no": 5200,
      "oom": 5201,
      "ta": 5202,
      "ÑĤ": 5203,
      "Ġsand": 5204,
      "Ġcin": 5205,
      "Ġcou": 5206,
      "Ġpad": 5207,
      "Ġpizza": 5208,
      "Ġoce": 5209,
      "Ġmouth": 5210,
      "enty": 5211,
      "Ġnational": 5212,
      "Ġnodes": 5213,
      "uls": 5214,
      "Ġconvent": 5215,
      "Ġdeg": 5216,
      "resident": 5217,
      "Ġintended": 5218,
      "actions": 5219,
      "ĠRE": 5220,
      "ĠGreat": 5221,
      "Ġtele": 5222,
      "Ġbutter": 5223,
      "ĠNot": 5224,
      "ĠNational": 5225,
      "Ġmyster": 5226,
      "ĠYork": 5227,
      "Ġoverview": 5228,
      "Ġregions": 5229,
      "Ġpossibility": 5230,
      "Ġleads": 5231,
      "Ġexpensive": 5232,
      "Ġinsights": 5233,
      "Ġimprovement": 5234,
      "Ġbiological": 5235,
      "ĠWhy": 5236,
      "notation": 5237,
      "Thanks": 5238,
      "ERT": 5239,
      "ĠInstead": 5240,
      "Ġopportunity": 5241,
      "Ġfishing": 5242,
      "Ġappearance": 5243,
      "Ġupdated": 5244,
      "trained": 5245,
      "Ġbowl": 5246,
      "Ġresearchers": 5247,
      "GB": 5248,
      "ban": 5249,
      "bot": 5250,
      "equ": 5251,
      "fast": 5252,
      "lam": 5253,
      "uate": 5254,
      "uary": 5255,
      "Ġign": 5256,
      "Ġtour": 5257,
      "iny": 5258,
      "Ġsnow": 5259,
      "Ġsizes": 5260,
      "Ġwelcome": 5261,
      "Ġtow": 5262,
      "Ġlived": 5263,
      "Ġstra": 5264,
      "Ġstick": 5265,
      "Ġproport": 5266,
      "ured": 5267,
      "Ġdeeper": 5268,
      "opping": 5269,
      "opped": 5270,
      "osite": 5271,
      "ĠPar": 5272,
      "ĠBit": 5273,
      "ĠFirst": 5274,
      "ĠFocus": 5275,
      "Ġwealth": 5276,
      "ĠGame": 5277,
      "Ġcreativity": 5278,
      "Ġquant": 5279,
      "ĠUnder": 5280,
      "Ġincluded": 5281,
      "enses": 5282,
      "Ġapps": 5283,
      "Ġnumerous": 5284,
      "Ġattend": 5285,
      "Ġagent": 5286,
      "Ġplane": 5287,
      "Ġ011": 5288,
      "Ġtyping": 5289,
      "Ġexpression": 5290,
      "Ġfinally": 5291,
      "Ġaccel": 5292,
      "Ġ60": 5293,
      "Ġbreaking": 5294,
      "ĠProvide": 5295,
      "token": 5296,
      "Ġlimits": 5297,
      "Ġmovements": 5298,
      "Ġfamiliar": 5299,
      "Ġinstallation": 5300,
      "Ġinteger": 5301,
      "Ġdelicious": 5302,
      "Ġspecialized": 5303,
      "Ġcyber": 5304,
      "aughter": 5305,
      "Ġevolved": 5306,
      "Ġmanipulate": 5307,
      "Ġenemies": 5308,
      "Ġspells": 5309,
      "Ġauthentication": 5310,
      "Ġphrase": 5311,
      "likely": 5312,
      "ĠJSON": 5313,
      "48": 5314,
      "Gener": 5315,
      "bash": 5316,
      "ca": 5317,
      "hand": 5318,
      "rust": 5319,
      "Ġiron": 5320,
      "Ġ...": 5321,
      "Ġtone": 5322,
      "init": 5323,
      "Ġwait": 5324,
      "Ġoven": 5325,
      "Ġdie": 5326,
      "Ġdough": 5327,
      "root": 5328,
      "stood": 5329,
      "Ġstability": 5330,
      "Ġproced": 5331,
      "Ġconve": 5332,
      "ĠCPU": 5333,
      "Ġrat": 5334,
      "Ġrates": 5335,
      "Ġmax": 5336,
      "Ġsharing": 5337,
      "ĠBefore": 5338,
      "ĠFace": 5339,
      "ĠGood": 5340,
      "Ġfear": 5341,
      "ressed": 5342,
      "Ġindicate": 5343,
      "current": 5344,
      "Ġmatrix": 5345,
      "Ġobjective": 5346,
      "ĠChina": 5347,
      "ĠĠĠĠĠĠĠĠĠĠĠĠĠĠĠĠĠĠĠ": 5348,
      "raining": 5349,
      "Ġinputs": 5350,
      "Ġrealistic": 5351,
      "ĠRead": 5352,
      "ĠUni": 5353,
      "Ġimpacts": 5354,
      "ĠAnother": 5355,
      "Ġoutputs": 5356,
      "###": 5357,
      "Ġversat": 5358,
      "Ġhyper": 5359,
      "ourses": 5360,
      "Ġmiles": 5361,
      "Ġsummar": 5362,
      "Ġbalanced": 5363,
      "Ġreceived": 5364,
      "Ġflowers": 5365,
      "Ġregarding": 5366,
      "ĠResearch": 5367,
      "Ġlifest": 5368,
      "Ġheavy": 5369,
      "Ġelectricity": 5370,
      "Ġenemy": 5371,
      "Ġrapid": 5372,
      "Ġaccomplish": 5373,
      "Be": 5374,
      "IP": 5375,
      "Message": 5376,
      "PG": 5377,
      "Time": 5378,
      "ares": 5379,
      "bing": 5380,
      "efficient": 5381,
      "fitting": 5382,
      "gu": 5383,
      "lin": 5384,
      "px": 5385,
      "ua": 5386,
      "ÏĢ": 5387,
      "Ġq": 5388,
      "Ġrom": 5389,
      "ĨĴ": 5390,
      "Ġtk": 5391,
      "Ġtitle": 5392,
      "inf": 5393,
      "erse": 5394,
      "Ġson": 5395,
      "Ġcryst": 5396,
      "Ġpict": 5397,
      "Ġfer": 5398,
      "lear": 5399,
      "Ġhon": 5400,
      "Ġthick": 5401,
      "antic": 5402,
      "otic": 5403,
      "unge": 5404,
      "sem": 5405,
      "ĠSince": 5406,
      "Ġalone": 5407,
      "Ġalmost": 5408,
      "Ġheard": 5409,
      "Ġvan": 5410,
      "ĠPri": 5411,
      "ĠHigh": 5412,
      "Ġplans": 5413,
      "ĠĠĠĠĠĠĠĠĠĠĠĠ": 5414,
      "ĠGra": 5415,
      "Ġunlikely": 5416,
      "Ġ->": 5417,
      "Ġdiffer": 5418,
      "ĠUb": 5419,
      "Ġevolution": 5420,
      "Ġspecify": 5421,
      "Ġoffice": 5422,
      "Ġcoordin": 5423,
      "Ġapproaches": 5424,
      "ĠRevolution": 5425,
      "Ġtemplate": 5426,
      "Ġconnections": 5427,
      "Ġveh": 5428,
      "process": 5429,
      "ecause": 5430,
      "Ġviews": 5431,
      "Ġmarketing": 5432,
      "Ġphilosop": 5433,
      "ĠâĨĴ": 5434,
      "Ġcopyright": 5435,
      "Ġhappened": 5436,
      "Ġsurvival": 5437,
      "Ġfluid": 5438,
      "ygame": 5439,
      "Ġparents": 5440,
      "ĠSuper": 5441,
      "Ġinjury": 5442,
      "Ġbirds": 5443,
      "ĠJapanese": 5444,
      "ĠRussia": 5445,
      "elihood": 5446,
      "AA": 5447,
      "Dear": 5448,
      "HP": 5449,
      "Sh": 5450,
      "Tell": 5451,
      "iately": 5452,
      "rt": 5453,
      "ãĤ": 5454,
      "Ġtensor": 5455,
      "ref": 5456,
      "Ġcub": 5457,
      "Ġcert": 5458,
      "itate": 5459,
      "Ġwife": 5460,
      "Ġwomen": 5461,
      "Ġbinary": 5462,
      "Ġnor": 5463,
      "start": 5464,
      "raints": 5465,
      "Ġstack": 5466,
      "Ġongoing": 5467,
      "Ġdeck": 5468,
      "Ġchance": 5469,
      "ĠHis": 5470,
      "ĠHar": 5471,
      "izard": 5472,
      "ĠEU": 5473,
      "ĠRep": 5474,
      "---": 5475,
      "Ġqueries": 5476,
      "Ġoutcome": 5477,
      "Ġroots": 5478,
      "ĠIts": 5479,
      "Ġprime": 5480,
      "ĠString": 5481,
      "ĠVR": 5482,
      "Ġtechnological": 5483,
      "Ġformal": 5484,
      "Ġgrad": 5485,
      "Ġgrand": 5486,
      "iences": 5487,
      "Ġdecided": 5488,
      "redict": 5489,
      "ernel": 5490,
      "Ġentry": 5491,
      "ricult": 5492,
      "Ġprotocol": 5493,
      "Ġedit": 5494,
      "Ġfoundation": 5495,
      "azon": 5496,
      "Example": 5497,
      "Ġmaintaining": 5498,
      "Ġprofession": 5499,
      "ĠPlay": 5500,
      "ĠPlace": 5501,
      "Ġcards": 5502,
      "Ġmassive": 5503,
      "Ġexecute": 5504,
      "Ġintroduced": 5505,
      "response": 5506,
      "Ġdistributed": 5507,
      "Ġfictional": 5508,
      "Ġgarlic": 5509,
      "Ġsatisf": 5510,
      "Ġlandscape": 5511,
      "Ġtruly": 5512,
      "Ġdegree": 5513,
      "\"]": 5514,
      "OT": 5515,
      "Out": 5516,
      "build": 5517,
      "car": 5518,
      "eled": 5519,
      "java": 5520,
      "lib": 5521,
      "Ġil": 5522,
      "ĠðŁ": 5523,
      "Ġagg": 5524,
      "Ġtherm": 5525,
      "Ġsem": 5526,
      "Ġsell": 5527,
      "Ġcele": 5528,
      "Ġwings": 5529,
      "Ġpull": 5530,
      "Ġod": 5531,
      "icated": 5532,
      "asazi": 5533,
      "ros": 5534,
      "Ġthus": 5535,
      "Ġyellow": 5536,
      "Ġrender": 5537,
      "Ġreplic": 5538,
      "idents": 5539,
      "igation": 5540,
      "urt": 5541,
      "ĠSat": 5542,
      "Ġvs": 5543,
      "plays": 5544,
      "Ġseconds": 5545,
      "Ġplenty": 5546,
      "Ġshot": 5547,
      "Ġabstract": 5548,
      "ĠRun": 5549,
      "Ġcontra": 5550,
      "Ġkid": 5551,
      "ĠLa": 5552,
      "agon": 5553,
      "Ġ22": 5554,
      "Ġhelping": 5555,
      "Ġconsists": 5556,
      "Ġexperts": 5557,
      "().": 5558,
      "Ġoffering": 5559,
      "ĠKore": 5560,
      "Ġjustice": 5561,
      "Ġextend": 5562,
      "ĠReact": 5563,
      "Ġbreed": 5564,
      "Ġtempor": 5565,
      "Ġdiscrim": 5566,
      "ĠAnasazi": 5567,
      "Ġencounter": 5568,
      "Ġimplemented": 5569,
      "Ġstronger": 5570,
      "Ġinteractive": 5571,
      "Ġbenefit": 5572,
      "Ġstudying": 5573,
      "Ġpaid": 5574,
      "Ġsaying": 5575,
      "Ġmorality": 5576,
      "Ġsunlight": 5577,
      "Ġolder": 5578,
      "Ġglass": 5579,
      "espread": 5580,
      "Ġdebate": 5581,
      "Ġopponent": 5582,
      "Ġcivilization": 5583,
      "imensional": 5584,
      "Ġbeauty": 5585,
      "Ġincreasingly": 5586,
      "Ġafford": 5587,
      "hetic": 5588,
      "Ġviolence": 5589,
      "Ġtunnel": 5590,
      "ĠRegular": 5591,
      "Ġimmediately": 5592,
      "Ġdiagn": 5593,
      "Ġcomprehensive": 5594,
      "((": 5595,
      "03": 5596,
      "At": 5597,
      "Cons": 5598,
      "FT": 5599,
      "Feed": 5600,
      "IA": 5601,
      "NA": 5602,
      "Socket": 5603,
      "game": 5604,
      "mut": 5605,
      "powered": 5606,
      "rate": 5607,
      "uit": 5608,
      "Ġtal": 5609,
      "inant": 5610,
      "Ġcab": 5611,
      "Ġcoc": 5612,
      "Ġcities": 5613,
      "Ġcourses": 5614,
      "itial": 5615,
      "icians": 5616,
      "roy": 5617,
      "Ġhour": 5618,
      "Ġloyal": 5619,
      "Ġrev": 5620,
      "Ġisol": 5621,
      "elon": 5622,
      "change": 5623,
      "Ġanime": 5624,
      "ĠAvoid": 5625,
      "send": 5626,
      "Ġcomment": 5627,
      "ĠSol": 5628,
      "aint": 5629,
      "Ġchopped": 5630,
      "ĠMer": 5631,
      "ĠDuring": 5632,
      "ĠElect": 5633,
      "ĠFind": 5634,
      "Ġcontents": 5635,
      "Ġunex": 5636,
      "ĠJan": 5637,
      "comes": 5638,
      "Ġproduced": 5639,
      "Ġassets": 5640,
      "Ġcompute": 5641,
      "Ġkeyword": 5642,
      "Ġobjectives": 5643,
      "Ġlights": 5644,
      "Ġdecide": 5645,
      "Ġcarro": 5646,
      "Ġparticle": 5647,
      "Ġeditor": 5648,
      "Ġwidespread": 5649,
      "Ġcombat": 5650,
      "Ġcontributed": 5651,
      "Ġpackages": 5652,
      "Ġgrid": 5653,
      "ĠImplement": 5654,
      "Ġindustries": 5655,
      "Ġstandards": 5656,
      "Ġaccurately": 5657,
      "Ġreactions": 5658,
      "Ġlaunch": 5659,
      "model": 5660,
      "ygen": 5661,
      "Ġevaluate": 5662,
      "Ġsimpler": 5663,
      "Ġlistening": 5664,
      "Ġweapons": 5665,
      "Ġsplit": 5666,
      "Ġretrieve": 5667,
      "Ġobstacles": 5668,
      "Ġmysterious": 5669,
      "Ġilleg": 5670,
      "76": 5671,
      "After": 5672,
      "Ele": 5673,
      "Set": 5674,
      "ln": 5675,
      "person": 5676,
      "rics": 5677,
      "ship": 5678,
      "year": 5679,
      "ÑĢ": 5680,
      "Ġtact": 5681,
      "Ġcrack": 5682,
      "orough": 5683,
      "Ġwoman": 5684,
      "Ġfasc": 5685,
      "Ġinher": 5686,
      "ica": 5687,
      "using": 5688,
      "etary": 5689,
      "Ġbeans": 5690,
      "ĠTest": 5691,
      "ĠII": 5692,
      "Ġconduct": 5693,
      "Ġexcess": 5694,
      "kend": 5695,
      "Ġdegre": 5696,
      "orty": 5697,
      "oses": 5698,
      "Ġchords": 5699,
      "ĠDespite": 5700,
      "ĠEnd": 5701,
      "ĠFin": 5702,
      "ĠFrom": 5703,
      "Ġhash": 5704,
      "Ġclosed": 5705,
      "ĠNone": 5706,
      "ĠURL": 5707,
      "acher": 5708,
      "Ġcouldn": 5709,
      "ĠStar": 5710,
      "Ġraw": 5711,
      "Ġstrange": 5712,
      "Ġexploration": 5713,
      "Ġpoem": 5714,
      "Ġcomputational": 5715,
      "Ġdistract": 5716,
      "Ġperformed": 5717,
      "Ġlightweight": 5718,
      "Ġ199": 5719,
      "Ġprofit": 5720,
      "Ġhappens": 5721,
      "Ġdriving": 5722,
      "ucket": 5723,
      "Ġconcise": 5724,
      "Ġappears": 5725,
      "Ġcircle": 5726,
      "Ġregardless": 5727,
      "Ġbatteries": 5728,
      "Ġdiseases": 5729,
      "Ġemphasizes": 5730,
      "Ġmonths": 5731,
      "Ġcollaboration": 5732,
      "Ġrestrictions": 5733,
      "Ġliterature": 5734,
      "holders": 5735,
      "Ġtutorials": 5736,
      "Ġrhythm": 5737,
      "Ġteaspoon": 5738,
      "ĠUbuntu": 5739,
      "Ġdegrees": 5740,
      "28": 5741,
      "35": 5742,
      "ES": 5743,
      "Use": 5744,
      "bar": 5745,
      "ding": 5746,
      "direct": 5747,
      "Ã¤": 5748,
      "Ġ!": 5749,
      "Ġtit": 5750,
      "Ġten": 5751,
      "height": 5752,
      "Ġpig": 5753,
      "Ġfly": 5754,
      "Ġinsect": 5755,
      "left": 5756,
      "Ġdwar": 5757,
      "Ġrevolution": 5758,
      "Ġnice": 5759,
      "Ġgiving": 5760,
      "ĠAg": 5761,
      "Ġcomments": 5762,
      "oping": 5763,
      "ĠMac": 5764,
      "ĠWork": 5765,
      "ĠDi": 5766,
      "ĠDiff": 5767,
      "ĠBoth": 5768,
      "ogram": 5769,
      "eps": 5770,
      "Ġresistance": 5771,
      "ief": 5772,
      "Ġscr": 5773,
      "ĠOb": 5774,
      "ĠOut": 5775,
      "Ġjoy": 5776,
      "Ġdish": 5777,
      "Ġempt": 5778,
      "Ġemissions": 5779,
      "ishing": 5780,
      "Ġbucket": 5781,
      "standing": 5782,
      "pected": 5783,
      "example": 5784,
      "Ġletters": 5785,
      "Ġguess": 5786,
      "Ġequival": 5787,
      "âĸĢ": 5788,
      "Ġcontaining": 5789,
      "Ġswitches": 5790,
      "Ġbrid": 5791,
      "eek": 5792,
      "Ġinfluential": 5793,
      "Ġintegration": 5794,
      "Ġteams": 5795,
      "Ġmeaningful": 5796,
      "ameter": 5797,
      "Ġdocuments": 5798,
      "Ġoccurs": 5799,
      "Ġreviews": 5800,
      "Ġrolls": 5801,
      "Ġdreams": 5802,
      "Ġexplanations": 5803,
      "Ġfailure": 5804,
      "Ġindependent": 5805,
      "display": 5806,
      "Ġdialog": 5807,
      "Ġcrops": 5808,
      "Ġfreedom": 5809,
      "Ġlifestyle": 5810,
      "([": 5811,
      "82": 5812,
      "AC": 5813,
      "ELE": 5814,
      "Make": 5815,
      "Where": 5816,
      "](": 5817,
      "dden": 5818,
      "dimensional": 5819,
      "pan": 5820,
      "qrt": 5821,
      "such": 5822,
      "whel": 5823,
      "ypt": 5824,
      "Ġice": 5825,
      "Ġtight": 5826,
      "Ġax": 5827,
      "Ġaid": 5828,
      "real": 5829,
      "Ġsen": 5830,
      "Ġwave": 5831,
      "ences": 5832,
      "Ġfather": 5833,
      "Ġburn": 5834,
      "alysis": 5835,
      "Ġtoken": 5836,
      "Ġinject": 5837,
      "Ġthorough": 5838,
      "img": 5839,
      "imal": 5840,
      "Ġgalax": 5841,
      "ĠAng": 5842,
      "advantages": 5843,
      "ores": 5844,
      "Ġsudden": 5845,
      "ĠPart": 5846,
      "ĠMain": 5847,
      "Ġseg": 5848,
      "Ġshift": 5849,
      "allow": 5850,
      "ĠRet": 5851,
      "Ġadvert": 5852,
      "Ġadopt": 5853,
      "duino": 5854,
      "Ġmodified": 5855,
      "Ġliqu": 5856,
      "Ġmanaging": 5857,
      "ĠNow": 5858,
      "ensions": 5859,
      "loat": 5860,
      "Ġspot": 5861,
      "Ġinterf": 5862,
      "âĢĶ": 5863,
      "crete": 5864,
      "():": 5865,
      "Ġcalend": 5866,
      "Ġpoly": 5867,
      "Ġagre": 5868,
      "Ġlighting": 5869,
      "Ġtypical": 5870,
      "Ġcontroll": 5871,
      "cules": 5872,
      "Ġconstraints": 5873,
      "ĠConnect": 5874,
      "ginx": 5875,
      "Ġchanged": 5876,
      "Ġcharacteristics": 5877,
      "Ġaircraft": 5878,
      "ashing": 5879,
      "Ġprinting": 5880,
      "Ġanimation": 5881,
      "Exception": 5882,
      "ĠSpace": 5883,
      "ĠPlan": 5884,
      "ĠEnc": 5885,
      "Ġgenetic": 5886,
      "Ġmargin": 5887,
      "ĠIntelligence": 5888,
      "Ġprobably": 5889,
      "Ġabsor": 5890,
      "Ġtranslation": 5891,
      "ĠService": 5892,
      "hello": 5893,
      "Ġnutri": 5894,
      "Ġcooked": 5895,
      "Ġmotivated": 5896,
      "Ġawareness": 5897,
      "Ġearthqu": 5898,
      "Ġthreads": 5899,
      "Ġincorporating": 5900,
      "Ġtrading": 5901,
      "Ġsurrounding": 5902,
      "Ġkingdom": 5903,
      "Ġweaknesses": 5904,
      "hydr": 5905,
      "Ġopinions": 5906,
      "Ġgradually": 5907,
      "Ġphenomenon": 5908,
      "Ġpotatoes": 5909,
      "ĠAustral": 5910,
      "IGHT": 5911,
      "ĠIdent": 5912,
      "38": 5913,
      "Not": 5914,
      "Pipe": 5915,
      "SI": 5916,
      "Verse": 5917,
      "ka": 5918,
      "public": 5919,
      "tical": 5920,
      "zy": 5921,
      "Ġahead": 5922,
      "inations": 5923,
      "onut": 5924,
      "erator": 5925,
      "Ġcm": 5926,
      "Ġcas": 5927,
      "Ġcand": 5928,
      "orter": 5929,
      "itutions": 5930,
      "Ġwaves": 5931,
      "Ġpipe": 5932,
      "Ġpuzz": 5933,
      "Ġpygame": 5934,
      "Ġfox": 5935,
      "Ġbanks": 5936,
      "lete": 5937,
      "edy": 5938,
      "Ġhob": 5939,
      "Ġgarden": 5940,
      "anted": 5941,
      "ĠTime": 5942,
      "ĠTuring": 5943,
      "ĠIP": 5944,
      "Ġstim": 5945,
      "Ġstir": 5946,
      "Ġonion": 5947,
      "Ġcancer": 5948,
      "Ġann": 5949,
      "Ġheld": 5950,
      "Ġvict": 5951,
      "Ġdepart": 5952,
      "ĠPHP": 5953,
      "Ġru": 5954,
      "ĠMarch": 5955,
      "Ġmeets": 5956,
      "Ġkit": 5957,
      "ĠLanguage": 5958,
      "Ġ24": 5959,
      "Ġjson": 5960,
      "Ġoutcomes": 5961,
      "Ġprep": 5962,
      "Ġprepare": 5963,
      "etwork": 5964,
      "Ġoverwhel": 5965,
      "Ġdeveloper": 5966,
      "Ġfolder": 5967,
      "Ġsmell": 5968,
      "Ġwants": 5969,
      "())": 5970,
      "Ġdesigns": 5971,
      "Ġarticle": 5972,
      "vironment": 5973,
      "Ġvisible": 5974,
      "ĠDev": 5975,
      "Ġgreatly": 5976,
      "ĠArch": 5977,
      "ĠCanada": 5978,
      "Ġnecessarily": 5979,
      "cribe": 5980,
      "ĠEngine": 5981,
      "ĠImpro": 5982,
      "Ġindustrial": 5983,
      "Ġgenre": 5984,
      "âĸĪâĸĪâĸĪâĸĪ": 5985,
      "Ġminimize": 5986,
      "Ġfacing": 5987,
      "Ġbrown": 5988,
      "partial": 5989,
      "Ġsuccessfully": 5990,
      "Ġconstantly": 5991,
      "Ġpsychology": 5992,
      "Ġbirth": 5993,
      "Ġfinger": 5994,
      "Ġtrends": 5995,
      "Ġcircumst": 5996,
      "Ġclothing": 5997,
      "Ġusername": 5998,
      "Element": 5999,
      "79": 6000,
      "EY": 6001,
      "LI": 6002,
      "];": 6003,
      "cm": 6004,
      "cal": 6005,
      "da": 6006,
      "ded": 6007,
      "house": 6008,
      "ky": 6009,
      "la": 6010,
      "zen": 6011,
      "zero": 6012,
      "Ġou": 6013,
      "Ġaer": 6014,
      "reme": 6015,
      "Ġsection": 6016,
      "Ġcake": 6017,
      "Ġcaffe": 6018,
      "Ġpun": 6019,
      "Ġmid": 6020,
      "Ġboss": 6021,
      "arant": 6022,
      "Ġreput": 6023,
      "raid": 6024,
      "ifier": 6025,
      "Ġprove": 6026,
      "Ġiter": 6027,
      "urther": 6028,
      "ĠAct": 6029,
      "ategor": 6030,
      "open": 6031,
      "ĠPI": 6032,
      "Ġrice": 6033,
      "Ġchord": 6034,
      "perty": 6035,
      "udo": 6036,
      "ĠGraph": 6037,
      "Ġkids": 6038,
      "ibi": 6039,
      "anges": 6040,
      "Ġunf": 6041,
      "aching": 6042,
      "Ġtraditions": 6043,
      "Ġju": 6044,
      "ĠUltimately": 6045,
      "Ġdisplays": 6046,
      "Ġfunny": 6047,
      "ĠInitial": 6048,
      "ĠJames": 6049,
      "Ġinterview": 6050,
      "Ġunderstood": 6051,
      "Ġadds": 6052,
      "Ġrare": 6053,
      "Ġstrict": 6054,
      "Ġtexture": 6055,
      "Ġhandling": 6056,
      "Ġ2021": 6057,
      "Ġextrem": 6058,
      "Ġbreaks": 6059,
      "Ġbasis": 6060,
      "Ġcharacterized": 6061,
      "Ġavailability": 6062,
      "error": 6063,
      "Ġwider": 6064,
      "position": 6065,
      "cohol": 6066,
      "Ġbeneficial": 6067,
      "Ġlogical": 6068,
      "Ġtriangle": 6069,
      "Ġdrum": 6070,
      "Ġradio": 6071,
      "ĠAndroid": 6072,
      "Ġautomated": 6073,
      "Ġturned": 6074,
      "Ġjoke": 6075,
      "Ġexcellent": 6076,
      "Ġdetection": 6077,
      "Ġfigures": 6078,
      "Ġdestination": 6079,
      "Ġinnovative": 6080,
      "--------------------------------": 6081,
      "Ġbranches": 6082,
      "Ġguidelines": 6083,
      "Ġconflicts": 6084,
      "Ġfiction": 6085,
      "Ġtransportation": 6086,
      "Ġcarefully": 6087,
      "ĠAmazon": 6088,
      "xiety": 6089,
      "Ġmobile": 6090,
      "rogen": 6091,
      "Ġscholars": 6092,
      "Ġstraight": 6093,
      "Ġcelebr": 6094,
      "';": 6095,
      "Act": 6096,
      "All": 6097,
      "File": 6098,
      "OP": 6099,
      "SP": 6100,
      "case": 6101,
      "fl": 6102,
      "fall": 6103,
      "hab": 6104,
      "kens": 6105,
      "ux": 6106,
      "uber": 6107,
      "ugin": 6108,
      "vis": 6109,
      "var": 6110,
      "rength": 6111,
      "onna": 6112,
      "Ġcoding": 6113,
      "ishes": 6114,
      "item": 6115,
      "Ġwinter": 6116,
      "Ġfab": 6117,
      "icit": 6118,
      "asion": 6119,
      "entral": 6120,
      "Ġreached": 6121,
      "Ġnet": 6122,
      "Ġgall": 6123,
      "Ġstunning": 6124,
      "Ġproof": 6125,
      "ĠSpe": 6126,
      "ĠHol": 6127,
      "ĠMove": 6128,
      "ands": 6129,
      "Ġnotable": 6130,
      "ĠĠĠĠĠĠĠĠĠĠ": 6131,
      "Ġkernel": 6132,
      "Ġresolve": 6133,
      "Ġcream": 6134,
      "Ġunc": 6135,
      "Ġclub": 6136,
      "ĠNode": 6137,
      "append": 6138,
      "iped": 6139,
      "Ġperce": 6140,
      "Ġprepar": 6141,
      "Ġtail": 6142,
      "ĠJew": 6143,
      "Ġphase": 6144,
      "blem": 6145,
      "Ġlisted": 6146,
      "Ġrecip": 6147,
      "Ġownership": 6148,
      "exic": 6149,
      "ĠProgram": 6150,
      "ĠConst": 6151,
      "Ġcontrolled": 6152,
      "Ġkeeping": 6153,
      "Ġgreatest": 6154,
      "Ġsignificantly": 6155,
      "ĠCommun": 6156,
      "Ġlikelihood": 6157,
      "Ġsites": 6158,
      "Ġconcent": 6159,
      "Ġpolitics": 6160,
      "Ġexperiencing": 6161,
      "ometimes": 6162,
      "Ġdrinking": 6163,
      "Ġfasting": 6164,
      "Ġexciting": 6165,
      "Ġminimal": 6166,
      "Ġfloor": 6167,
      "Ġintroduce": 6168,
      "Ġdatasets": 6169,
      "Ġdivide": 6170,
      "Ġpowder": 6171,
      "Ġinspiration": 6172,
      "Ġtranslate": 6173,
      "aught": 6174,
      "Ġdecline": 6175,
      "Ġcloser": 6176,
      "Ġstruggling": 6177,
      "Ġspending": 6178,
      "Ġdepression": 6179,
      "Ġexecuted": 6180,
      "Ġtheorem": 6181,
      "Ġdeliver": 6182,
      "Ġreinforcement": 6183,
      "Ġmolecules": 6184,
      "Ġdivided": 6185,
      "Ð¾Ð": 6186,
      "Ġdouble": 6187,
      "Ġappreciate": 6188,
      "Ġcorresponding": 6189,
      "Ġderivative": 6190,
      "Ġflavors": 6191,
      "ĠBitcoin": 6192,
      "Ġcontradict": 6193,
      "ĠJanuary": 6194,
      "Ġscratch": 6195,
      "Ġempty": 6196,
      "''": 6197,
      "34": 6198,
      "36": 6199,
      "Ap": 6200,
      "TH": 6201,
      "YPE": 6202,
      "gent": 6203,
      "grade": 6204,
      "ios": 6205,
      "join": 6206,
      "pip": 6207,
      "parent": 6208,
      "rc": 6209,
      "inated": 6210,
      "inating": 6211,
      "eras": 6212,
      "Ġwat": 6213,
      "Ġpy": 6214,
      "Ġfarm": 6215,
      "Ġfemale": 6216,
      "Ġtold": 6217,
      "Ġdim": 6218,
      "Ġhous": 6219,
      "Ġyog": 6220,
      "illet": 6221,
      "ĠText": 6222,
      "igma": 6223,
      "rapy": 6224,
      "Ġanxiety": 6225,
      "ĠAnt": 6226,
      "peare": 6227,
      "ĠSur": 6228,
      "abul": 6229,
      "plan": 6230,
      "Ġrig": 6231,
      "ĠMost": 6232,
      "ĠMoon": 6233,
      "ĠMexic": 6234,
      "result": 6235,
      "Ġ1000": 6236,
      "ĠWill": 6237,
      "ĠEd": 6238,
      "Ġadop": 6239,
      "ĠLL": 6240,
      "ĠLo": 6241,
      "ĠLife": 6242,
      "Ġscan": 6243,
      "Ġarri": 6244,
      "ruption": 6245,
      "Ġalloc": 6246,
      "Ġoverl": 6247,
      "Ġserves": 6248,
      "Ġpositions": 6249,
      "Ġsimulation": 6250,
      "oviet": 6251,
      "Ġpersist": 6252,
      "Ġprogrammers": 6253,
      "Ġassess": 6254,
      "Ġrecovery": 6255,
      "Ġagricult": 6256,
      "Ġsheet": 6257,
      "Ġmultip": 6258,
      "Ġvisited": 6259,
      "server": 6260,
      "State": 6261,
      "Ġmarkets": 6262,
      "ĠExplain": 6263,
      "Ġhappiness": 6264,
      "bohydr": 6265,
      "ĠArduino": 6266,
      "Ġcombine": 6267,
      "elligent": 6268,
      "Ġprotected": 6269,
      "Ġoptimal": 6270,
      "Ġinvesting": 6271,
      "Ġmechanical": 6272,
      "Ġdigit": 6273,
      "Ġmoist": 6274,
      "Ġpainting": 6275,
      "Ġfalling": 6276,
      "Ġsensitive": 6277,
      "ATE": 6278,
      "JJJJ": 6279,
      "Ġfighting": 6280,
      "Ġafraid": 6281,
      "Ġclosely": 6282,
      "Ġdepict": 6283,
      "Ġencryption": 6284,
      "Ġscenario": 6285,
      "Ġtomatoes": 6286,
      "Ġincredible": 6287,
      "Ġpandas": 6288,
      "aspberry": 6289,
      "Ġsweet": 6290,
      "Ġcoconut": 6291,
      "Ġcircumstances": 6292,
      "bohydrates": 6293,
      "Date": 6294,
      "Hub": 6295,
      "Val": 6296,
      "haps": 6297,
      "ipl": 6298,
      "live": 6299,
      "screen": 6300,
      "uum": 6301,
      "Ġaff": 6302,
      "information": 6303,
      "Ġsamples": 6304,
      "anc": 6305,
      "itors": 6306,
      "Ġmold": 6307,
      "Ġdf": 6308,
      "Ġdrop": 6309,
      "Ġthrow": 6310,
      "Ġlingu": 6311,
      "Ġnull": 6312,
      "idate": 6313,
      "ols": 6314,
      "ithub": 6315,
      "oday": 6316,
      "Ġconqu": 6317,
      "Ġconven": 6318,
      "umber": 6319,
      "Ġvit": 6320,
      "this": 6321,
      "ĠPi": 6322,
      "Ġchuck": 6323,
      "Ġplugin": 6324,
      "Ġ17": 6325,
      "click": 6326,
      "Ġunp": 6327,
      "ĠYes": 6328,
      "ĠInter": 6329,
      "Ġserving": 6330,
      "âĢľ": 6331,
      "ethod": 6332,
      "Ġmatches": 6333,
      "Ġdefines": 6334,
      "Ġrecently": 6335,
      "Ġsignals": 6336,
      "Ġfacts": 6337,
      "Ġplanets": 6338,
      "cription": 6339,
      "Ġclassification": 6340,
      "Ġguarant": 6341,
      "Ġconstruction": 6342,
      "Ġproductivity": 6343,
      "Ġversions": 6344,
      "Ġfriendly": 6345,
      "ĠArray": 6346,
      "Ġterrain": 6347,
      "ategory": 6348,
      "Ġcalculated": 6349,
      "ometers": 6350,
      "Ġlabels": 6351,
      "AION": 6352,
      "Ġroute": 6353,
      "akespeare": 6354,
      "Ġprinciple": 6355,
      "Ġinterpreted": 6356,
      "Ġdrawing": 6357,
      "Ġentirely": 6358,
      "Ġattempts": 6359,
      "ĠJohnson": 6360,
      "Ġdedicated": 6361,
      "ENT": 6362,
      "Ġwatching": 6363,
      "Ġreplaced": 6364,
      "Ġimagine": 6365,
      "Ġemergency": 6366,
      "minist": 6367,
      "Ġmythology": 6368,
      "Ġwaiting": 6369,
      "Ġgrammar": 6370,
      "Ġexpertise": 6371,
      "Ġreveal": 6372,
      "Ġpretty": 6373,
      "Ġcomparison": 6374,
      "Ġstretch": 6375,
      "Ġcrisis": 6376,
      "Ġcouple": 6377,
      "Ġequivalent": 6378,
      "abulary": 6379,
      "={": 6380,
      "Person": 6381,
      "UI": 6382,
      "cat": 6383,
      "hop": 6384,
      "link": 6385,
      "mas": 6386,
      "tem": 6387,
      "test": 6388,
      "uis": 6389,
      "Ġsad": 6390,
      "itational": 6391,
      "itarian": 6392,
      "enc": 6393,
      "Ġfro": 6394,
      "Ġandroid": 6395,
      "Ġbrought": 6396,
      "lets": 6397,
      "ications": 6398,
      "ician": 6399,
      "uster": 6400,
      "Ġye": 6401,
      "Ġgift": 6402,
      "eless": 6403,
      "Ġbeef": 6404,
      "ĠID": 6405,
      "unately": 6406,
      "Ġalph": 6407,
      "Ġalcohol": 6408,
      "eren": 6409,
      "ĠHave": 6410,
      "rompt": 6411,
      "Ġsevere": 6412,
      "Ġshar": 6413,
      "Ġworry": 6414,
      "ĠEconom": 6415,
      "Ġwee": 6416,
      "ĠRick": 6417,
      "Ġcompile": 6418,
      "formance": 6419,
      "Ġcreators": 6420,
      "Ġunknown": 6421,
      "Ġsocket": 6422,
      "Ġacqu": 6423,
      "Ġproven": 6424,
      "Ġcolon": 6425,
      "Ġempire": 6426,
      "Ġrelativity": 6427,
      "create": 6428,
      "phone": 6429,
      "Ġinstant": 6430,
      "Ġfinds": 6431,
      "Ġmeditation": 6432,
      "Ġdiversity": 6433,
      "Ġmemor": 6434,
      "commod": 6435,
      "Ġpursu": 6436,
      "Ġmuscles": 6437,
      "Ġmetric": 6438,
      "Ġpassion": 6439,
      "Ġharder": 6440,
      "Ġcontrols": 6441,
      "Ġstreaming": 6442,
      "Ġswim": 6443,
      "Ġpersonalized": 6444,
      "Ġdifficulty": 6445,
      "Ġoptimized": 6446,
      "Ġspeeds": 6447,
      "Ġmechanisms": 6448,
      "Ġbeginner": 6449,
      "Ġpawn": 6450,
      "Ġturns": 6451,
      "ĠâĢĵ": 6452,
      "Ġcyl": 6453,
      "Ġbrother": 6454,
      "Ġcriteria": 6455,
      "Ġcollege": 6456,
      "Ġslowly": 6457,
      "Ġadapted": 6458,
      "Ġfitness": 6459,
      "number": 6460,
      "Ġrows": 6461,
      "Ġfruits": 6462,
      "ĠTransform": 6463,
      "Ġsupplies": 6464,
      "Ġoxygen": 6465,
      "Ġbehaviors": 6466,
      "Ġabsolute": 6467,
      "Ġhorizon": 6468,
      "Ġratio": 6469,
      "Ġunexpected": 6470,
      "Ġillegal": 6471,
      "Ġextremely": 6472,
      "Day": 6473,
      "Great": 6474,
      "Ob": 6475,
      "Type": 6476,
      "VID": 6477,
      "bucket": 6478,
      "dri": 6479,
      "distance": 6480,
      "fit": 6481,
      "long": 6482,
      "length": 6483,
      "ober": 6484,
      "tuce": 6485,
      "ws": 6486,
      "Ġtong": 6487,
      "Ġcups": 6488,
      "Ġcategor": 6489,
      "Ġwire": 6490,
      "Ġwizard": 6491,
      "Ġmen": 6492,
      "Ġmask": 6493,
      "Ġbub": 6494,
      "alan": 6495,
      "Ġdura": 6496,
      "Ġthous": 6497,
      "Ġloved": 6498,
      "Ġrenew": 6499,
      "Ġghost": 6500,
      "istory": 6501,
      "Ġforg": 6502,
      "utch": 6503,
      "ĠAv": 6504,
      "ĠSub": 6505,
      "ĠSoviet": 6506,
      "Ġvoid": 6507,
      "orem": 6508,
      "ema": 6509,
      "Ġneuro": 6510,
      "ĠHuman": 6511,
      "ĠMore": 6512,
      "Ġshoot": 6513,
      "Ġshorter": 6514,
      "ĠEven": 6515,
      "ĠFou": 6516,
      "ĠFlu": 6517,
      "ĠRob": 6518,
      "ffball": 6519,
      "Ġtea": 6520,
      "Ġ26": 6521,
      "asts": 6522,
      "Ġclients": 6523,
      "ĠInf": 6524,
      "orders": 6525,
      "Ġsetup": 6526,
      "Ġemit": 6527,
      "Ġrelative": 6528,
      "Ġinstitutions": 6529,
      "Ġthank": 6530,
      "Ġproducing": 6531,
      "Ġtransmit": 6532,
      "Ġcalm": 6533,
      "Ġcoop": 6534,
      "Ġowner": 6535,
      "ĠChar": 6536,
      "ĠChange": 6537,
      "Ġauto": 6538,
      "Ġextensive": 6539,
      "Start": 6540,
      "Ġsignificance": 6541,
      "Ġmoved": 6542,
      "Ġfocusing": 6543,
      "Ġcrime": 6544,
      "Ġsentences": 6545,
      "Ġwarri": 6546,
      "Ġbeginners": 6547,
      "prise": 6548,
      "Ġtried": 6549,
      "ĠUSB": 6550,
      "Ġaffected": 6551,
      "Ġactivation": 6552,
      "OST": 6553,
      "Ġgained": 6554,
      "Ġethics": 6555,
      "Ġfaced": 6556,
      "Ġperiods": 6557,
      "Ġopposite": 6558,
      "Ġdestroy": 6559,
      "color": 6560,
      "Ġgravitational": 6561,
      "Ġspecifies": 6562,
      "ĠQuantum": 6563,
      "Ġdedication": 6564,
      "~~~~~~~~": 6565,
      "Ġcasting": 6566,
      "Ġprecise": 6567,
      "Ġaccepted": 6568,
      "while": 6569,
      "Ġrepeated": 6570,
      "Ġadvancements": 6571,
      "Ġinfinite": 6572,
      "related": 6573,
      "Ġmerge": 6574,
      "Ġelectrical": 6575,
      "Ġvocabulary": 6576,
      "True": 6577,
      "Ġmanufacture": 6578,
      "Ġsexual": 6579,
      "ĠCalculate": 6580,
      "Ġcitizens": 6581,
      "Ġparadox": 6582,
      "ĠFacebook": 6583,
      "Ġprepared": 6584,
      "39": 6585,
      "According": 6586,
      "Based": 6587,
      "CH": 6588,
      "DR": 6589,
      "Dis": 6590,
      "Keep": 6591,
      "Mod": 6592,
      "Pr": 6593,
      "RI": 6594,
      "SO": 6595,
      "Ser": 6596,
      "Sub": 6597,
      "bow": 6598,
      "cers": 6599,
      "chen": 6600,
      "doc": 6601,
      "ev": 6602,
      "gans": 6603,
      "iver": 6604,
      "iance": 6605,
      "math": 6606,
      "pg": 6607,
      "rated": 6608,
      "with": 6609,
      "wood": 6610,
      "Ġaug": 6611,
      "ini": 6612,
      "erry": 6613,
      "Ġcere": 6614,
      "itute": 6615,
      "ening": 6616,
      "Ġfits": 6617,
      "Ġmood": 6618,
      "Ġborrow": 6619,
      "Ġinherent": 6620,
      "Ġlose": 6621,
      "Ġrent": 6622,
      "eting": 6623,
      "Ġisland": 6624,
      "ellect": 6625,
      "child": 6626,
      "chron": 6627,
      "chuck": 6628,
      "gend": 6629,
      "ckl": 6630,
      "Ġneut": 6631,
      "Ġ\"\"\"": 6632,
      "Ġround": 6633,
      "ĠMus": 6634,
      "ĠMachine": 6635,
      "ocial": 6636,
      "udd": 6637,
      "Ġintake": 6638,
      "ĠDem": 6639,
      "ĠEas": 6640,
      "ĠRPG": 6641,
      "ĠĠĠĠĠĠĠĠĠĠĠĠĠ": 6642,
      "ĠLight": 6643,
      "Ġunne": 6644,
      "ĠNote": 6645,
      "Ġjump": 6646,
      "appe": 6647,
      "Ġtheme": 6648,
      "Ġemp": 6649,
      "Ġapplying": 6650,
      "Ġnumer": 6651,
      "Ġ||": 6652,
      "Ġformation": 6653,
      "Ġadvoc": 6654,
      "Ġpossibilities": 6655,
      "Ġdistances": 6656,
      "Ġfilters": 6657,
      "Ġ2022": 6658,
      "Ġartist": 6659,
      "Ġarticles": 6660,
      "Ġbelong": 6661,
      "Ġlettuce": 6662,
      "Ġsurve": 6663,
      "Ġ64": 6664,
      "Ġconfidence": 6665,
      "ĠProcess": 6666,
      "Ġprotot": 6667,
      "Ġboost": 6668,
      "ĠDepend": 6669,
      "Ġpassing": 6670,
      "Ġbasics": 6671,
      "Ġelimin": 6672,
      "Ġprints": 6673,
      "Ġtells": 6674,
      "Ġawait": 6675,
      "ĠShakespeare": 6676,
      "Ġmechanism": 6677,
      "Ġexplores": 6678,
      "Ġloops": 6679,
      "Additionally": 6680,
      "Ġstaying": 6681,
      "Ġcalls": 6682,
      "ĠTrue": 6683,
      "Ġsorted": 6684,
      "ĠMySQL": 6685,
      "Ġpredictions": 6686,
      "Ġphotos": 6687,
      "Comp": 6688,
      "Ġcores": 6689,
      "ipped": 6690,
      "Ġremoving": 6691,
      "Ġweapon": 6692,
      "Ġhunting": 6693,
      "Ġscenarios": 6694,
      "Ġturning": 6695,
      "Ġhypothet": 6696,
      "ĠDiscord": 6697,
      "Ġpollution": 6698,
      "Ġinstrument": 6699,
      "Ġocean": 6700,
      "Ġcubic": 6701,
      "agonist": 6702,
      "27": 6703,
      "App": 6704,
      "ALL": 6705,
      "Bl": 6706,
      "Che": 6707,
      "Col": 6708,
      "EM": 6709,
      "LP": 6710,
      "PS": 6711,
      "Res": 6712,
      "Using": 6713,
      "bor": 6714,
      "gue": 6715,
      "gener": 6716,
      "mber": 6717,
      "sers": 6718,
      "tes": 6719,
      "worth": 6720,
      "Ñģ": 6721,
      "Ġ]": 6722,
      "attle": 6723,
      "Ġsight": 6724,
      "Ġsix": 6725,
      "Ġwish": 6726,
      "Ġpure": 6727,
      "Ġfa": 6728,
      "Ġfont": 6729,
      "Ġmouse": 6730,
      "Ġbaby": 6731,
      "Ġthr": 6732,
      "Ġlon": 6733,
      "Ġlen": 6734,
      "Ġlens": 6735,
      "Ġisn": 6736,
      "ilies": 6737,
      "Ġgap": 6738,
      "ament": 6739,
      "chill": 6740,
      "raction": 6741,
      "urd": 6742,
      "ĠAb": 6743,
      "Ġexhib": 6744,
      "ĠCat": 6745,
      "ria": 6746,
      "cker": 6747,
      "ĠPark": 6748,
      "agement": 6749,
      "Ġnotation": 6750,
      "ĠDrag": 6751,
      "ĠBle": 6752,
      "ĠRome": 6753,
      "ĠGal": 6754,
      "agers": 6755,
      "Ġtech": 6756,
      "ĠOF": 6757,
      "Ġclone": 6758,
      "igned": 6759,
      "iented": 6760,
      "Ġdisappe": 6761,
      "lose": 6762,
      "aria": 6763,
      "Ġtherefore": 6764,
      "Ġspent": 6765,
      "Ġapolog": 6766,
      "chnology": 6767,
      "Ġexperim": 6768,
      "Ġchest": 6769,
      "Ġbuildings": 6770,
      "Ġdecentral": 6771,
      "Ġexpansion": 6772,
      "Ġextreme": 6773,
      "Ġrealized": 6774,
      "Ġoperate": 6775,
      "Ġfocuses": 6776,
      "Ġsuggested": 6777,
      "ĠWhich": 6778,
      "Ġincent": 6779,
      "Ġinvestors": 6780,
      "Ġsquared": 6781,
      "Ġremaining": 6782,
      "Ġglad": 6783,
      "fortunately": 6784,
      "Ġbroken": 6785,
      "Ġ:=": 6786,
      "Ġpreviously": 6787,
      "Ġactively": 6788,
      "Ġintroduction": 6789,
      "Ġsnack": 6790,
      "Ġultimate": 6791,
      "Ġmonitoring": 6792,
      "Ġlinked": 6793,
      "ĠGitHub": 6794,
      "Ġwalls": 6795,
      "Ġvacc": 6796,
      "Ġfrequent": 6797,
      "Ġpromoting": 6798,
      "Ġclaims": 6799,
      "Ġmissing": 6800,
      "controll": 6801,
      "Ġelectronic": 6802,
      "Ġdelivery": 6803,
      "........": 6804,
      "Ġinterpretation": 6805,
      "Ġchoices": 6806,
      "ĠSSD": 6807,
      "Ġdiction": 6808,
      "Ġsocieties": 6809,
      "ĠAfrica": 6810,
      "Ġastron": 6811,
      "Ġescape": 6812,
      "Ġdesktop": 6813,
      "ĠUniversity": 6814,
      "Ġprofessionals": 6815,
      "Ġtitles": 6816,
      "Ġuncertain": 6817,
      "Ġunpredict": 6818,
      "Ġtongue": 6819,
      "AB": 6820,
      "EC": 6821,
      "Each": 6822,
      "GI": 6823,
      "Path": 6824,
      "brid": 6825,
      "mp": 6826,
      "mal": 6827,
      "natural": 6828,
      "ool": 6829,
      "under": 6830,
      "vised": 6831,
      "yd": 6832,
      "});": 6833,
      "ĠÃ": 6834,
      "Ġ```": 6835,
      "Ġsays": 6836,
      "Ġslic": 6837,
      "Ġsister": 6838,
      "Ġcaught": 6839,
      "orge": 6840,
      "ancy": 6841,
      "esh": 6842,
      "iter": 6843,
      "Ġpix": 6844,
      "Ġdro": 6845,
      "Ġdru": 6846,
      "Ġhi": 6847,
      "Ġht": 6848,
      "Ġlies": 6849,
      "Ġrect": 6850,
      "Ġrely": 6851,
      "Ġrecur": 6852,
      "ĠTre": 6853,
      "ĠTop": 6854,
      "uts": 6855,
      "Ġstone": 6856,
      "iforn": 6857,
      "Ġalthough": 6858,
      "ĠCSV": 6859,
      "ĠPost": 6860,
      "Ġshopping": 6861,
      "Ġintu": 6862,
      "ĠEst": 6863,
      "ĠEvery": 6864,
      "Ġweigh": 6865,
      "ĠGr": 6866,
      "ĠGold": 6867,
      "cessary": 6868,
      "Ġscope": 6869,
      "Ġ21": 6870,
      "ĠNFT": 6871,
      "acent": 6872,
      "Ġperm": 6873,
      "Ġdesp": 6874,
      "version": 6875,
      "Ġobj": 6876,
      "cret": 6877,
      "Ġexplicit": 6878,
      "Ġcomputation": 6879,
      "Ġbackup": 6880,
      "Ġlightning": 6881,
      "Ġdecades": 6882,
      "Ġfinish": 6883,
      "Ġoperator": 6884,
      "Ġdirected": 6885,
      "Ġlesson": 6886,
      "Ġencoura": 6887,
      "Therefore": 6888,
      "Ġlegacy": 6889,
      "backs": 6890,
      "Ġimmune": 6891,
      "Ġrobust": 6892,
      "âĶĢâĶĢâĶĢâĶĢâĶĢâĶĢâĶĢâĶĢâĶĢâĶĢâĶĢâĶĢâĶĢâĶĢâĶĢâĶĢ": 6893,
      "ĠBlue": 6894,
      "Ġdefinitive": 6895,
      "Ġmeeting": 6896,
      "Ġholid": 6897,
      "Ġstruggle": 6898,
      "Ġhabits": 6899,
      "objects": 6900,
      "Client": 6901,
      "Ġgods": 6902,
      "Ġvulnerabilities": 6903,
      "Ġmelody": 6904,
      "ĠWebSocket": 6905,
      "Ġharvest": 6906,
      "Assistant": 6907,
      "shell": 6908,
      "Ġinequality": 6909,
      "abetes": 6910,
      "Ġvibrant": 6911,
      "Ġmedicine": 6912,
      "ĠMarty": 6913,
      "Ġconventions": 6914,
      "Ġvehicles": 6915,
      "Ġgradient": 6916,
      "Ġcarrots": 6917,
      "Ġinsects": 6918,
      "Ġbridge": 6919,
      "Ġdialogue": 6920,
      "Ġnutrients": 6921,
      "ellectual": 6922,
      "ifornia": 6923,
      "68": 6924,
      "API": 6925,
      "Def": 6926,
      "Despite": 6927,
      "Hw": 6928,
      "Man": 6929,
      "Ns": 6930,
      "RO": 6931,
      "`:": 6932,
      "awn": 6933,
      "bage": 6934,
      "bru": 6935,
      "cular": 6936,
      "fare": 6937,
      "float": 6938,
      "gers": 6939,
      "gredients": 6940,
      "mand": 6941,
      "nal": 6942,
      "sigma": 6943,
      "wall": 6944,
      "works": 6945,
      "||": 6946,
      "Ã¶": 6947,
      "Ð¸": 6948,
      "ãĢ": 6949,
      "Ġ@": 6950,
      "Ġtort": 6951,
      "Ġtiss": 6952,
      "aten": 6953,
      "atus": 6954,
      "orking": 6955,
      "annotation": 6956,
      "itical": 6957,
      "Ġmale": 6958,
      "Ġbaking": 6959,
      "Ġinner": 6960,
      "Ġdol": 6961,
      "icism": 6962,
      "aser": 6963,
      "omes": 6964,
      "omial": 6965,
      "Ġlib": 6966,
      "Ġnic": 6967,
      "Ġnone": 6968,
      "Ġnative": 6969,
      "Ġnorm": 6970,
      "oles": 6971,
      "igen": 6972,
      "Ġonions": 6973,
      "security": 6974,
      "Ġhes": 6975,
      "Ġheap": 6976,
      "quest": 6977,
      "Ġdeals": 6978,
      "ĠCre": 6979,
      "ĠCir": 6980,
      "osph": 6981,
      "ĠMorty": 6982,
      "Ġmeow": 6983,
      "Ġmaps": 6984,
      "Ġintelligent": 6985,
      "ĠWest": 6986,
      "ĠBi": 6987,
      "ĠBecause": 6988,
      "ĠRaspberry": 6989,
      "forward": 6990,
      "ĠGre": 6991,
      "ĠLike": 6992,
      "agine": 6993,
      "anged": 6994,
      "Ġmodules": 6995,
      "ĠNight": 6996,
      "Ġaccommod": 6997,
      "ĠUk": 6998,
      "Ġdisrupt": 6999,
      "config": 7000,
      "Ġ300": 7001,
      "Ġgenerates": 7002,
      "Ġnumpy": 7003,
      "Ġraised": 7004,
      "-----": 7005,
      "next": 7006,
      "aka": 7007,
      "Ġdefend": 7008,
      "Ġleaders": 7009,
      "Ġperforming": 7010,
      "Ġeveryday": 7011,
      "Ġfinance": 7012,
      "Ġconsideration": 7013,
      "âĸĵ": 7014,
      "Ġprotagonist": 7015,
      "Ġbelieves": 7016,
      "Ġmuse": 7017,
      "scrib": 7018,
      "ĠAsia": 7019,
      "ĠExper": 7020,
      "Ġchecking": 7021,
      "ameters": 7022,
      "ĠEns": 7023,
      "Ġtrial": 7024,
      "Ġdescribes": 7025,
      "ĠDoes": 7026,
      "Ġsalad": 7027,
      "Ġpasta": 7028,
      "Ġaccounts": 7029,
      "Ġrecognized": 7030,
      "Ġcompetitive": 7031,
      "Ġslower": 7032,
      "Ġreasoning": 7033,
      "Ġpanel": 7034,
      "Ġcolumns": 7035,
      "Ġadventures": 7036,
      "Ġreligion": 7037,
      "Ġcutting": 7038,
      "^^^^^^^^": 7039,
      "Ġintegrated": 7040,
      "Ġvacuum": 7041,
      "SCII": 7042,
      "Ġtomato": 7043,
      "ĠKingdom": 7044,
      "Ġincoming": 7045,
      "Ġspiritual": 7046,
      "Ġtrouble": 7047,
      "ĠUpdate": 7048,
      "Ġsavings": 7049,
      "etermine": 7050,
      "Ġcryptocurrency": 7051,
      "solving": 7052,
      "Ġversatile": 7053,
      "Ġaffordable": 7054,
      "Ġliquid": 7055,
      "ĠIdentify": 7056,
      "Ġcaffeine": 7057,
      "Ġfabric": 7058,
      "Ġunnecessary": 7059,
      "Ġhypothetical": 7060,
      "Ġdecentralized": 7061,
      "01": 7062,
      "33": 7063,
      "Event": 7064,
      "IBase": 7065,
      "WS": 7066,
      "css": 7067,
      "hid": 7068,
      "kit": 7069,
      "lor": 7070,
      "melon": 7071,
      "oj": 7072,
      "pes": 7073,
      "rine": 7074,
      "rition": 7075,
      "Ð½": 7076,
      "inity": 7077,
      "atur": 7078,
      "Ġsed": 7079,
      "Ġcable": 7080,
      "Ġwis": 7081,
      "ename": 7082,
      "Ġolive": 7083,
      "Ġfats": 7084,
      "Ġmission": 7085,
      "Ġbac": 7086,
      "Ġtom": 7087,
      "Ġduration": 7088,
      "Ġdoll": 7089,
      "roph": 7090,
      "Ġease": 7091,
      "Ġreven": 7092,
      "images": 7093,
      "Ġgun": 7094,
      "ollow": 7095,
      "ifact": 7096,
      "Ġcanvas": 7097,
      "ĠAR": 7098,
      "ĠASCII": 7099,
      "sequ": 7100,
      "ĠSometimes": 7101,
      "ĠCity": 7102,
      "abling": 7103,
      "ĠTheir": 7104,
      "Ġneigh": 7105,
      "Ġrul": 7106,
      "Ġchron": 7107,
      "Ġintric": 7108,
      "ĠBack": 7109,
      "ĠFire": 7110,
      "ĠRL": 7111,
      "ĠLandroid": 7112,
      "ĠLarge": 7113,
      "Ġscar": 7114,
      "Ġquiet": 7115,
      "ĠNext": 7116,
      "Ġjud": 7117,
      "ressing": 7118,
      "Ġroles": 7119,
      "Ġpred": 7120,
      "ensus": 7121,
      "ftware": 7122,
      "Ġemb": 7123,
      "Ġwhose": 7124,
      "ĠState": 7125,
      "Ġraises": 7126,
      "tainer": 7127,
      "Ġexplo": 7128,
      "plicity": 7129,
      "Ġmostly": 7130,
      "Ġpointer": 7131,
      "Ġtransformation": 7132,
      "Ġcalories": 7133,
      "Ġinfections": 7134,
      "Ġpossess": 7135,
      "Ġcarbohydrates": 7136,
      "Ġartifact": 7137,
      "odynam": 7138,
      "Ġengines": 7139,
      "Ġequations": 7140,
      "Ġwriter": 7141,
      "Ġdiscovery": 7142,
      "Ġvegan": 7143,
      "scill": 7144,
      "property": 7145,
      "Ġcustomize": 7146,
      "Ġinches": 7147,
      "Ġzone": 7148,
      "Ġhydr": 7149,
      "Ġcontributing": 7150,
      "Ġdeeply": 7151,
      "Ġclearly": 7152,
      "Ġrepresented": 7153,
      "Ġlabeled": 7154,
      "Ġradar": 7155,
      "Ġautomate": 7156,
      "Ġcycl": 7157,
      "Ġsensory": 7158,
      "Ġconversational": 7159,
      "Ġrobots": 7160,
      "Ġalternatives": 7161,
      "faction": 7162,
      "Ġdescriptions": 7163,
      "steroid": 7164,
      "Ġsteel": 7165,
      "Ġwonder": 7166,
      "????": 7167,
      "Ġillust": 7168,
      "Ġincorporate": 7169,
      "Ġmountains": 7170,
      "Ġauthentic": 7171,
      "Ġchannels": 7172,
      "Ġmitigate": 7173,
      "Ġopinion": 7174,
      "return": 7175,
      "ĠVisual": 7176,
      "connected": 7177,
      "Ġelectrons": 7178,
      "ĠComputer": 7179,
      "Ġiconic": 7180,
      "Ã¼r": 7181,
      "Ġmillions": 7182,
      "ĠPeople": 7183,
      "Ġpublished": 7184,
      "Ġestimated": 7185,
      "haust": 7186,
      "clusive": 7187,
      "Ġpicture": 7188,
      "ĠKorea": 7189,
      "Ġcalendar": 7190,
      "ĠJewish": 7191,
      "Value": 7192,
      "Ġdespite": 7193,
      "hidl": 7194,
      "29": 7195,
      "74": 7196,
      "Dr": 7197,
      "Go": 7198,
      "Good": 7199,
      "Hand": 7200,
      "ION": 7201,
      "Me": 7202,
      "Options": 7203,
      "Te": 7204,
      "_{": 7205,
      "fil": 7206,
      "lang": 7207,
      "mu": 7208,
      "rich": 7209,
      "sudo": 7210,
      "then": 7211,
      "uation": 7212,
      "uge": 7213,
      "zure": 7214,
      "};": 7215,
      "Ġ)": 7216,
      "Ġtension": 7217,
      "Ġtiny": 7218,
      "Ġasteroid": 7219,
      "hether": 7220,
      "onomy": 7221,
      "ato": 7222,
      "Ġsoph": 7223,
      "Ġcrow": 7224,
      "Ġcoun": 7225,
      "Ġcodes": 7226,
      "ora": 7227,
      "orus": 7228,
      "itely": 7229,
      "Ġwing": 7230,
      "Ġoscill": 7231,
      "Ġbass": 7232,
      "Ġdot": 7233,
      "Ġdram": 7234,
      "Ġhttp": 7235,
      "istical": 7236,
      "ĠTur": 7237,
      "Ġorb": 7238,
      "ĠAge": 7239,
      "Ġcomedy": 7240,
      "umes": 7241,
      "uming": 7242,
      "ĠSch": 7243,
      "query": 7244,
      "ĠCa": 7245,
      "opy": 7246,
      "opol": 7247,
      "ements": 7248,
      "ĠPot": 7249,
      "ĠPick": 7250,
      "Ġlean": 7251,
      "Ġcha": 7252,
      "rome": 7253,
      "Ġplaced": 7254,
      "Ġintent": 7255,
      "ĠWould": 7256,
      "ĠWord": 7257,
      "ĠDAN": 7258,
      "ĠEdit": 7259,
      "ĠBen": 7260,
      "ĠRAM": 7261,
      "Ġcompass": 7262,
      "Ġcompression": 7263,
      "Ġcomposition": 7264,
      "ĠLim": 7265,
      "Ġotherwise": 7266,
      "Ġunw": 7267,
      "Ġgobl": 7268,
      "asters": 7269,
      "Ġmanually": 7270,
      "Ġsole": 7271,
      "Ġanywhere": 7272,
      "Ġarms": 7273,
      "Ġupper": 7274,
      "Ġrogue": 7275,
      "Ġdiss": 7276,
      "Ġdisadvantages": 7277,
      "Ġfung": 7278,
      "ĠIncre": 7279,
      "consc": 7280,
      "Ġintersection": 7281,
      "Ġamaz": 7282,
      "fully": 7283,
      "ĠSte": 7284,
      "Ġbund": 7285,
      "âĶĢâĶĢâĶĢ": 7286,
      "oves": 7287,
      "Ġwhereas": 7288,
      "()`": 7289,
      "Ġflash": 7290,
      "Ġreferences": 7291,
      "Ġdesigning": 7292,
      "Ġcorpor": 7293,
      "Ġfinite": 7294,
      "luc": 7295,
      "Ġ$\\": 7296,
      "Ġ});": 7297,
      "ĠProt": 7298,
      "Ġmarked": 7299,
      "ĠExample": 7300,
      "ĠExamples": 7301,
      "Ġfamilies": 7302,
      "Ġ70": 7303,
      "Ġportion": 7304,
      "Ġcrim": 7305,
      "Ġinteraction": 7306,
      "author": 7307,
      "ĠSpain": 7308,
      "Ġengineer": 7309,
      "Ġresponsibility": 7310,
      "Ġcardio": 7311,
      "Ġtraveling": 7312,
      "ĠSecurity": 7313,
      "Ġaudiences": 7314,
      "Ġimmers": 7315,
      "Ġtracking": 7316,
      "Ġsensor": 7317,
      "Ġexpectations": 7318,
      "Ġcontinuous": 7319,
      "Ġwoodchuck": 7320,
      "ĠCalifornia": 7321,
      "Ġ>=": 7322,
      "Ġsnipp": 7323,
      "Ġaims": 7324,
      "Ġshaping": 7325,
      "Ġmixed": 7326,
      "Ġmatching": 7327,
      "Ġdragon": 7328,
      "Ġholds": 7329,
      "Ġkilometers": 7330,
      "Ġbreathing": 7331,
      "ĠRussian": 7332,
      "________": 7333,
      "Ġfingers": 7334,
      "cosystem": 7335,
      "Ġinventory": 7336,
      "Ġpadding": 7337,
      "Ġcosm": 7338,
      "Ġblend": 7339,
      "Ġcompatible": 7340,
      "Ġdefeat": 7341,
      "directory": 7342,
      "Ġ!=": 7343,
      "ĠDiffusion": 7344,
      "urthermore": 7345,
      "ĠFluffball": 7346,
      "conscious": 7347,
      "94": 7348,
      "Aut": 7349,
      "Fi": 7350,
      "GO": 7351,
      "PL": 7352,
      "Par": 7353,
      "Sim": 7354,
      "Sum": 7355,
      "Title": 7356,
      "fol": 7357,
      "group": 7358,
      "lier": 7359,
      "sl": 7360,
      "vable": 7361,
      "Î¹": 7362,
      "Ġtorch": 7363,
      "onal": 7364,
      "Ġsin": 7365,
      "Ġske": 7366,
      "Ġsac": 7367,
      "Ġsaving": 7368,
      "oral": 7369,
      "esc": 7370,
      "iture": 7371,
      "Ġpine": 7372,
      "Ġfusion": 7373,
      "Ġmir": 7374,
      "Ġbatch": 7375,
      "Ġdaughter": 7376,
      "ederal": 7377,
      "rote": 7378,
      "Ġhole": 7379,
      "Ġecosystem": 7380,
      "Ġyes": 7381,
      "Ġlie": 7382,
      "eling": 7383,
      "ama": 7384,
      "ĠIron": 7385,
      "iform": 7386,
      "Ġasyn": 7387,
      "urs": 7388,
      "ĠAB": 7389,
      "ĠAM": 7390,
      "Ġexchange": 7391,
      "ĠSam": 7392,
      "pling": 7393,
      "plied": 7394,
      "cks": 7395,
      "mented": 7396,
      "ighter": 7397,
      "ĠPerson": 7398,
      "ĠPeter": 7399,
      "Ġ\"<": 7400,
      "ĠMad": 7401,
      "Ġmeals": 7402,
      "Ġship": 7403,
      "active": 7404,
      "ĠEt": 7405,
      "ĠBu": 7406,
      "ĠBar": 7407,
      "ella": 7408,
      "Ġatomic": 7409,
      "Ġcontem": 7410,
      "area": 7411,
      "Then": 7412,
      "Ġresolution": 7413,
      "duc": 7414,
      "Ġjum": 7415,
      "aph": 7416,
      "Ġdataframe": 7417,
      "Ġconsensus": 7418,
      "Ġperception": 7419,
      "ĠInclude": 7420,
      "Ġspark": 7421,
      "comp": 7422,
      "Ġformed": 7423,
      "Ġleadership": 7424,
      "iano": 7425,
      "Ġartistic": 7426,
      "Ġwatermelon": 7427,
      "Ġpromin": 7428,
      "vention": 7429,
      "Ġeffectiveness": 7430,
      "Ġensures": 7431,
      "Ġends": 7432,
      "ĠRec": 7433,
      "Ġedges": 7434,
      "Ġmetrics": 7435,
      "Ġmultiplication": 7436,
      "Ġelab": 7437,
      "Ġeconomics": 7438,
      "valuate": 7439,
      "ynomial": 7440,
      "Ġorganized": 7441,
      "insp": 7442,
      "Ġportal": 7443,
      "Ġstrategic": 7444,
      "Ġcontexts": 7445,
      "Ġbegins": 7446,
      "ĠEngland": 7447,
      "ĠImport": 7448,
      "Ġgenres": 7449,
      "Ġmeasured": 7450,
      "Ġdanger": 7451,
      "Ġdangers": 7452,
      "Ġutility": 7453,
      "Ġpanels": 7454,
      "Ġdivision": 7455,
      "Ġincorrect": 7456,
      "Ġdiscussion": 7457,
      "umbbell": 7458,
      "ipping": 7459,
      "Ġchatbot": 7460,
      "Ġkilogram": 7461,
      "Ġbanking": 7462,
      "Ġsecrets": 7463,
      "ĠDesign": 7464,
      "Ġpipeline": 7465,
      "ugging": 7466,
      "Ġdoub": 7467,
      "Ġtrigger": 7468,
      "Ġrestaurant": 7469,
      "ĠExplore": 7470,
      "Ġcontroversial": 7471,
      "Ġconvey": 7472,
      "Ġfertil": 7473,
      "Ġdwarves": 7474,
      "Ġjuice": 7475,
      "Ġsharp": 7476,
      "Ġcylinder": 7477,
      "Ġneutral": 7478,
      "ĠEastern": 7479,
      "Ġapologize": 7480,
      "bruary": 7481,
      "'.": 7482,
      ")/": 7483,
      "110": 7484,
      "86": 7485,
      "89": 7486,
      "CC": 7487,
      "DP": 7488,
      "Does": 7489,
      "EO": 7490,
      "KEY": 7491,
      "SL": 7492,
      "bin": 7493,
      "bur": 7494,
      "begin": 7495,
      "draw": 7496,
      "fn": 7497,
      "fess": 7498,
      "fix": 7499,
      "lay": 7500,
      "men": 7501,
      "max": 7502,
      "names": 7503,
      "padd": 7504,
      "ui": 7505,
      "vious": 7506,
      "wide": 7507,
      "Ġ~": 7508,
      "reak": 7509,
      "Ġtherapy": 7510,
      "Ġsan": 7511,
      "Ġcuis": 7512,
      "enn": 7513,
      "Ġpd": 7514,
      "Ġpul": 7515,
      "Ġpark": 7516,
      "Ġfurn": 7517,
      "Ġbill": 7518,
      "Ġbind": 7519,
      "Ġboo": 7520,
      "Ġtokens": 7521,
      "Ġdied": 7522,
      "Ġecho": 7523,
      "omething": 7524,
      "Ġlock": 7525,
      "Ġreject": 7526,
      "Ġnginx": 7527,
      "Ġgave": 7528,
      "state": 7529,
      "Ġforget": 7530,
      "olt": 7531,
      "ĠTO": 7532,
      "ĠTun": 7533,
      "raine": 7534,
      "racy": 7535,
      "ifts": 7536,
      "oded": 7537,
      "url": 7538,
      "Ġexhaust": 7539,
      "ĠSie": 7540,
      "Ġalert": 7541,
      "Ġhex": 7542,
      "ĠCustom": 7543,
      "Ġhaven": 7544,
      "Ġsuited": 7545,
      "ptim": 7546,
      "ĠPresident": 7547,
      "Ġride": 7548,
      "Ġ(-": 7549,
      "ĠHand": 7550,
      "ĠMc": 7551,
      "Ġenables": 7552,
      "Ġplacing": 7553,
      "Ġintellectual": 7554,
      "ĠWater": 7555,
      "ĠDocker": 7556,
      "ĠBERT": 7557,
      "close": 7558,
      "ĠGl": 7559,
      "Ġcompiled": 7560,
      "Ġcomparing": 7561,
      "ĠLond": 7562,
      "Ġunus": 7563,
      "Ġscra": 7564,
      "Ġcluster": 7565,
      "acle": 7566,
      "ipher": 7567,
      "Ġ32": 7568,
      "Ġserved": 7569,
      "Ġinterval": 7570,
      "Ġamet": 7571,
      "Ġembed": 7572,
      "Ġprogression": 7573,
      "Ġthanks": 7574,
      "Ġtwist": 7575,
      "Ġproduces": 7576,
      "aker": 7577,
      "Ġregist": 7578,
      "Ġtransactions": 7579,
      "Ġcompleted": 7580,
      "Ġcovers": 7581,
      "Ġcoverage": 7582,
      "Ġsolved": 7583,
      "Ġpolynomial": 7584,
      "Ġinflation": 7585,
      "Ġ<=": 7586,
      "Ġtexts": 7587,
      "Ġrecording": 7588,
      "Ġrefine": 7589,
      "Ġdependencies": 7590,
      "Ġminor": 7591,
      "Ġprovider": 7592,
      "Ġenth": 7593,
      "onda": 7594,
      "Ġdiabetes": 7595,
      "Ġconfident": 7596,
      "Ġreaders": 7597,
      "Ġmeanings": 7598,
      "Ġconsiderations": 7599,
      "ĠConsole": 7600,
      "rencies": 7601,
      "Ġstreet": 7602,
      "eady": 7603,
      "ĠAlthough": 7604,
      "Ġsucceed": 7605,
      "Ġuniversity": 7606,
      "oxide": 7607,
      "ffective": 7608,
      "Ġbatt": 7609,
      "Ġdigest": 7610,
      "Ġsearching": 7611,
      "ometric": 7612,
      "Ġpaintings": 7613,
      "Ġ90": 7614,
      "Ġscreens": 7615,
      "Ġoccurred": 7616,
      "Ġcleaning": 7617,
      "Ġconsumer": 7618,
      "Ġconsumers": 7619,
      "AME": 7620,
      "Ġphoto": 7621,
      "Ġmaximize": 7622,
      "Ġsymbols": 7623,
      "ĠPrint": 7624,
      "ĠDevelopment": 7625,
      "Ġtimeline": 7626,
      "Ġheavily": 7627,
      "Ġemphasis": 7628,
      "Ġvegetable": 7629,
      "Ġcommitment": 7630,
      "Ġevolving": 7631,
      "Ġmutual": 7632,
      "Ġholding": 7633,
      "Ġsusp": 7634,
      "Ġvulnerable": 7635,
      "Ġencrypted": 7636,
      "Ġmistakes": 7637,
      "Ġoccup": 7638,
      "Ġchoosing": 7639,
      "ĠMathemat": 7640,
      "Ġincredibly": 7641,
      "ypes": 7642,
      "Ġdecrease": 7643,
      "Ġdinosaur": 7644,
      "Ġclarify": 7645,
      "Ġsummarize": 7646,
      "Ġprotocols": 7647,
      "Ġdistractions": 7648,
      "ĠAustralia": 7649,
      "Ġkitchen": 7650,
      "ĠInitialize": 7651,
      "Ġconvenient": 7652,
      "Ġunpredictable": 7653,
      "ĠLondon": 7654,
      "\"?": 7655,
      "'(": 7656,
      "AG": 7657,
      "Code": 7658,
      "Frame": 7659,
      "Key": 7660,
      "Su": 7661,
      "]:": 7662,
      "aul": 7663,
      "iest": 7664,
      "javascript": 7665,
      "layer": 7666,
      "microsoft": 7667,
      "tent": 7668,
      "table": 7669,
      "tune": 7670,
      "vision": 7671,
      "Ġich": 7672,
      "Ġtrib": 7673,
      "orian": 7674,
      "itance": 7675,
      "Ġwindows": 7676,
      "Ġwrap": 7677,
      "Ġwrote": 7678,
      "Ġpound": 7679,
      "Ġflying": 7680,
      "Ġfrag": 7681,
      "Ġmerg": 7682,
      "Ġtox": 7683,
      "Ġdiced": 7684,
      "Ġthin": 7685,
      "Ġlinks": 7686,
      "Ġgro": 7687,
      "Ġglow": 7688,
      "std": 7689,
      "iden": 7690,
      "Ġforums": 7691,
      "otes": 7692,
      "otics": 7693,
      "igating": 7694,
      "rays": 7695,
      "Ġconcrete": 7696,
      "Ġorange": 7697,
      "iratory": 7698,
      "Ġcompl": 7699,
      "ado": 7700,
      "ĠSal": 7701,
      "Ġwhis": 7702,
      "ĠCode": 7703,
      "ĠCook": 7704,
      "tering": 7705,
      "ablish": 7706,
      "hern": 7707,
      "Ġhaz": 7708,
      "estamp": 7709,
      "ptember": 7710,
      "Ġrub": 7711,
      "Ġ()": 7712,
      "plete": 7713,
      "Ġseven": 7714,
      "Ġnotice": 7715,
      "ourced": 7716,
      "Ġintention": 7717,
      "ĠDep": 7718,
      "ĠBob": 7719,
      "Ġwearing": 7720,
      "Ġatoms": 7721,
      "Ġresid": 7722,
      "Ġhello": 7723,
      "Ġ23": 7724,
      "ĠOd": 7725,
      "Ġdates": 7726,
      "Ġclock": 7727,
      "Ġfeat": 7728,
      "ĠNetwork": 7729,
      "Ġdiffusion": 7730,
      "Ġdisorders": 7731,
      "Ġprem": 7732,
      "ountain": 7733,
      "Ġspo": 7734,
      "comfort": 7735,
      "Ġinterrupt": 7736,
      "Inf": 7737,
      "Ġindeed": 7738,
      "Ġhumor": 7739,
      "Ġprison": 7740,
      "Ġgenerations": 7741,
      "cury": 7742,
      "aked": 7743,
      "Ġpoison": 7744,
      "blems": 7745,
      "Ġlists": 7746,
      "Ġpollen": 7747,
      "Ġgameplay": 7748,
      "Ġinfection": 7749,
      "iances": 7750,
      "Ġcorner": 7751,
      "Ġcorrupt": 7752,
      "Ġblog": 7753,
      "Ġaccident": 7754,
      "Ġsupported": 7755,
      "Ġimprovements": 7756,
      "ÂłÂłÂł": 7757,
      "Ġmemories": 7758,
      "oteException": 7759,
      "ĠProblem": 7760,
      "ĠExcel": 7761,
      "Ġsummer": 7762,
      "Ġbike": 7763,
      "Ġachieving": 7764,
      "parameters": 7765,
      "Ġinstalling": 7766,
      "Ġcalculus": 7767,
      "Ġchecks": 7768,
      "Ġwarfare": 7769,
      "Ġpreventing": 7770,
      "ĠShould": 7771,
      "shape": 7772,
      "Ġearlier": 7773,
      "ĠEnter": 7774,
      "Ġpreference": 7775,
      "Ġforever": 7776,
      "Ġsupercon": 7777,
      "Ġvalidate": 7778,
      "Ġpresident": 7779,
      "Ġexcited": 7780,
      "Process": 7781,
      "ĠHTTP": 7782,
      "Ġstatistics": 7783,
      "ĠClick": 7784,
      "Ġmajority": 7785,
      "reshold": 7786,
      "Ġrespectively": 7787,
      "Ġputting": 7788,
      "Ġdiscussions": 7789,
      "Ġderived": 7790,
      "Ġassistants": 7791,
      "Ġdomain": 7792,
      "Ġaimed": 7793,
      "Ġnutrition": 7794,
      "Ġmotivations": 7795,
      "Ġdistributions": 7796,
      "Ġreferred": 7797,
      "ĠBritain": 7798,
      "Ġflexibility": 7799,
      "Ġthreats": 7800,
      "Ġtheoretical": 7801,
      "Ġrewarding": 7802,
      "Ġgrams": 7803,
      "Ġurban": 7804,
      "Ġsatisfaction": 7805,
      "Ġscalable": 7806,
      "Ġattributes": 7807,
      "Content": 7808,
      "ĠInternet": 7809,
      "Ġsocietal": 7810,
      "Ġorders": 7811,
      "plotlib": 7812,
      "ĠArtificial": 7813,
      "Ġsports": 7814,
      "Ġrestaurants": 7815,
      "Ġcredentials": 7816,
      "cending": 7817,
      "ĠRepublic": 7818,
      "Ġthoroughly": 7819,
      "Ġweeks": 7820,
      "Ġintricate": 7821,
      "lucose": 7822,
      "Ġcriminal": 7823,
      "Ġelaborate": 7824,
      "*.": 7825,
      "02": 7826,
      "Binder": 7827,
      "DC": 7828,
      "Em": 7829,
      "Py": 7830,
      "TX": 7831,
      "Window": 7832,
      "bly": 7833,
      "cil": 7834,
      "dat": 7835,
      "gl": 7836,
      "gely": 7837,
      "gov": 7838,
      "kg": 7839,
      "lers": 7840,
      "mm": 7841,
      "rout": 7842,
      "uct": 7843,
      "wik": 7844,
      "Ġera": 7845,
      "Ġtu": 7846,
      "Ġtick": 7847,
      "Ġath": 7848,
      "inate": 7849,
      "oned": 7850,
      "onym": 7851,
      "erts": 7852,
      "Ġsought": 7853,
      "oust": 7854,
      "Ġwake": 7855,
      "Ġpap": 7856,
      "Ġpages": 7857,
      "Ġmol": 7858,
      "Ġbodies": 7859,
      "alian": 7860,
      "usi": 7861,
      "Ġhorm": 7862,
      "Ġreform": 7863,
      "Ġnation": 7864,
      "Ġnose": 7865,
      "ilot": 7866,
      "Ġglucose": 7867,
      "ifically": 7868,
      "Ġassem": 7869,
      "seg": 7870,
      "Ġexit": 7871,
      "ĠSir": 7872,
      "ĠSave": 7873,
      "Ġvirt": 7874,
      "Ġvaries": 7875,
      "username": 7876,
      "Ġimper": 7877,
      "ĠMet": 7878,
      "ivate": 7879,
      "Ġintense": 7880,
      "ĠWild": 7881,
      "ĠWatch": 7882,
      "ĠEp": 7883,
      "ĠBo": 7884,
      "ĠBas": 7885,
      "ĠBro": 7886,
      "arts": 7887,
      "ĠRest": 7888,
      "icha": 7889,
      "ĠGive": 7890,
      "Ġkm": 7891,
      "Ġkill": 7892,
      "ĠLiam": 7893,
      "ago": 7894,
      "agram": 7895,
      "anger": 7896,
      "They": 7897,
      "ieval": 7898,
      "Ġscroll": 7899,
      "Ġ2000": 7900,
      "Ġdatetime": 7901,
      "apse": 7902,
      "apple": 7903,
      "Ġarise": 7904,
      "Ġmyst": 7905,
      "Ġdishes": 7906,
      "Ġpercept": 7907,
      "conf": 7908,
      "Ġoverfitting": 7909,
      "Ġsimulate": 7910,
      "Ġsimplicity": 7911,
      "Ġacting": 7912,
      "Ġinvention": 7913,
      "Ġprocessor": 7914,
      "Ġoffered": 7915,
      "Ġtransparent": 7916,
      "Ġcurves": 7917,
      "Ġcoins": 7918,
      "Ġlargely": 7919,
      "Ġremind": 7920,
      "Ġskillet": 7921,
      "ĠĠĠĠĠĠĠĠĠĠĠĠĠĠĠĠĠ": 7922,
      "Ġ2020": 7923,
      "ĠAdv": 7924,
      "Ġinvolving": 7925,
      "Ġendurance": 7926,
      "Ġfeels": 7927,
      "Ġmush": 7928,
      "Ġcontainers": 7929,
      "airs": 7930,
      "prov": 7931,
      "ashion": 7932,
      "poons": 7933,
      "elsius": 7934,
      "loads": 7935,
      "ĠThrough": 7936,
      "ĠThank": 7937,
      "auth": 7938,
      "shot": 7939,
      "Ġstructured": 7940,
      "ĠUSA": 7941,
      "Ġexplored": 7942,
      "ĠSeptember": 7943,
      "Ġradiation": 7944,
      "Ġautomation": 7945,
      "Ġprinter": 7946,
      "Ġfalls": 7947,
      "Ġframeworks": 7948,
      "Ġnegot": 7949,
      "Choose": 7950,
      "Ġconversations": 7951,
      "Ġstatistical": 7952,
      "Ġconcerned": 7953,
      "Ġobserved": 7954,
      "ĉĉĉ": 7955,
      "ĠInteg": 7956,
      "Ġcivilizations": 7957,
      "Ġanalyzing": 7958,
      "Ġnearby": 7959,
      "Ġsynthesis": 7960,
      "Ġauthorities": 7961,
      "Ġreferring": 7962,
      "Ġinjuries": 7963,
      "ĠModel": 7964,
      "URL": 7965,
      "Ġtrusted": 7966,
      "!!!!": 7967,
      "Ġinformed": 7968,
      "Ġrepeat": 7969,
      "Ġteaching": 7970,
      "Ġdemonstrates": 7971,
      "ĠValue": 7972,
      "Ġapartment": 7973,
      "ĠFlask": 7974,
      "ĠVisit": 7975,
      "ĠRemove": 7976,
      "ASA": 7977,
      "Ġroughly": 7978,
      "Ġepis": 7979,
      "Ġsuffering": 7980,
      "Ġadults": 7981,
      "ĠGeorge": 7982,
      "ĠPortug": 7983,
      "Ġproportion": 7984,
      "Ġphilosophers": 7985,
      "Ġloyalty": 7986,
      "cklaces": 7987,
      "Ġprototype": 7988,
      "ĠUkraine": 7989,
      "Ġcuisine": 7990,
      "\").": 7991,
      "37": 7992,
      "66": 7993,
      "87": 7994,
      "CO": 7995,
      "Lab": 7996,
      "Landroid": 7997,
      "NAME": 7998,
      "Other": 7999
    },
    "merges": [
      [
        "Ġ",
        "t"
      ],
      [
        "Ġ",
        "a"
      ],
      [
        "i",
        "n"
      ],
      [
        "č",
        "Ċ"
      ],
      [
        "h",
        "e"
      ],
      [
        "r",
        "e"
      ],
      [
        "o",
        "n"
      ],
      [
        "e",
        "r"
      ],
      [
        "Ġt",
        "he"
      ],
      [
        "a",
        "t"
      ],
      [
        "Ġ",
        "s"
      ],
      [
        "Ġ",
        "c"
      ],
      [
        "n",
        "d"
      ],
      [
        "o",
        "r"
      ],
      [
        "i",
        "s"
      ],
      [
        "a",
        "n"
      ],
      [
        "o",
        "u"
      ],
      [
        "e",
        "s"
      ],
      [
        "i",
        "t"
      ],
      [
        "Ġ",
        "Ġ"
      ],
      [
        "Ġ",
        "w"
      ],
      [
        "e",
        "n"
      ],
      [
        "Ġ",
        "p"
      ],
      [
        "in",
        "g"
      ],
      [
        "Ġ",
        "o"
      ],
      [
        "Ġ",
        "f"
      ],
      [
        "Ġ",
        "m"
      ],
      [
        "Ġa",
        "nd"
      ],
      [
        "Ġ",
        "b"
      ],
      [
        "a",
        "l"
      ],
      [
        "Ġt",
        "o"
      ],
      [
        "Ġ",
        "in"
      ],
      [
        "l",
        "e"
      ],
      [
        "Ġ",
        "d"
      ],
      [
        "a",
        "r"
      ],
      [
        "Ġo",
        "f"
      ],
      [
        "e",
        "d"
      ],
      [
        "i",
        "on"
      ],
      [
        "i",
        "c"
      ],
      [
        "a",
        "s"
      ],
      [
        "r",
        "o"
      ],
      [
        "u",
        "s"
      ],
      [
        "Ġ",
        "h"
      ],
      [
        "Ġt",
        "h"
      ],
      [
        "Ġ",
        "e"
      ],
      [
        "c",
        "t"
      ],
      [
        "Ġ",
        "y"
      ],
      [
        "o",
        "m"
      ],
      [
        "Ġ",
        "l"
      ],
      [
        "en",
        "t"
      ],
      [
        "Ġy",
        "ou"
      ],
      [
        "Ġ",
        "re"
      ],
      [
        "v",
        "e"
      ],
      [
        "Ġ",
        "n"
      ],
      [
        "e",
        "t"
      ],
      [
        "Ġ",
        "is"
      ],
      [
        "<",
        "|"
      ],
      [
        "|",
        ">"
      ],
      [
        "i",
        "l"
      ],
      [
        "i",
        "m"
      ],
      [
        "Ġ",
        "g"
      ],
      [
        "o",
        "w"
      ],
      [
        "e",
        "l"
      ],
      [
        "ĠĠ",
        "ĠĠ"
      ],
      [
        "a",
        "m"
      ],
      [
        "is",
        "t"
      ],
      [
        "s",
        "t"
      ],
      [
        "c",
        "e"
      ],
      [
        "c",
        "h"
      ],
      [
        "i",
        "d"
      ],
      [
        "Ġf",
        "or"
      ],
      [
        "Ġth",
        "at"
      ],
      [
        "an",
        "t"
      ],
      [
        "Ġb",
        "e"
      ],
      [
        "at",
        "ion"
      ],
      [
        "o",
        "l"
      ],
      [
        "Ġ",
        "T"
      ],
      [
        "u",
        "t"
      ],
      [
        "o",
        "t"
      ],
      [
        "Ġ",
        "I"
      ],
      [
        "i",
        "g"
      ],
      [
        "r",
        "a"
      ],
      [
        "Ġs",
        "t"
      ],
      [
        "l",
        "y"
      ],
      [
        "Ġ",
        "on"
      ],
      [
        "i",
        "f"
      ],
      [
        "it",
        "h"
      ],
      [
        "Ġp",
        "ro"
      ],
      [
        "Ġ",
        "it"
      ],
      [
        "o",
        "d"
      ],
      [
        "v",
        "er"
      ],
      [
        "Ġa",
        "s"
      ],
      [
        "a",
        "y"
      ],
      [
        "u",
        "l"
      ],
      [
        "Ġc",
        "on"
      ],
      [
        "Ġc",
        "an"
      ],
      [
        "u",
        "n"
      ],
      [
        "u",
        "r"
      ],
      [
        "Ġa",
        "n"
      ],
      [
        "Ġw",
        "ith"
      ],
      [
        "Ġ",
        "or"
      ],
      [
        "Ġ",
        "A"
      ],
      [
        "Ġa",
        "re"
      ],
      [
        "as",
        "s"
      ],
      [
        "s",
        "e"
      ],
      [
        "g",
        "e"
      ],
      [
        "i",
        "r"
      ],
      [
        "Ġ",
        "us"
      ],
      [
        "at",
        "e"
      ],
      [
        "p",
        "e"
      ],
      [
        "Ġc",
        "om"
      ],
      [
        "Ġe",
        "x"
      ],
      [
        "l",
        "d"
      ],
      [
        "a",
        "d"
      ],
      [
        "u",
        "m"
      ],
      [
        "k",
        "e"
      ],
      [
        "Ġ",
        "S"
      ],
      [
        "Ġa",
        "l"
      ],
      [
        "er",
        "s"
      ],
      [
        "Ġw",
        "h"
      ],
      [
        "Ġ",
        "he"
      ],
      [
        "q",
        "u"
      ],
      [
        "ĠĠ",
        "Ġ"
      ],
      [
        "u",
        "re"
      ],
      [
        "es",
        "s"
      ],
      [
        "Ġyou",
        "r"
      ],
      [
        "Ġ",
        "v"
      ],
      [
        "Ġd",
        "e"
      ],
      [
        "ist",
        "ant"
      ],
      [
        "Ġ",
        "C"
      ],
      [
        "t",
        "er"
      ],
      [
        "r",
        "i"
      ],
      [
        "a",
        "b"
      ],
      [
        "e",
        "nd"
      ],
      [
        "us",
        "er"
      ],
      [
        "he",
        "r"
      ],
      [
        "ass",
        "istant"
      ],
      [
        "e",
        "re"
      ],
      [
        "o",
        "re"
      ],
      [
        "Ġh",
        "a"
      ],
      [
        "o",
        "p"
      ],
      [
        "p",
        "l"
      ],
      [
        "ĠT",
        "he"
      ],
      [
        "e",
        "m"
      ],
      [
        "ou",
        "t"
      ],
      [
        "'",
        "s"
      ],
      [
        "it",
        "y"
      ],
      [
        "c",
        "k"
      ],
      [
        "Ġs",
        "u"
      ],
      [
        "or",
        "t"
      ],
      [
        "es",
        "t"
      ],
      [
        "p",
        "t"
      ],
      [
        "ou",
        "ld"
      ],
      [
        "m",
        "ent"
      ],
      [
        "a",
        "in"
      ],
      [
        "Ġn",
        "e"
      ],
      [
        "ig",
        "h"
      ],
      [
        "il",
        "l"
      ],
      [
        "i",
        "ve"
      ],
      [
        "t",
        "h"
      ],
      [
        "e",
        "ct"
      ],
      [
        "o",
        "s"
      ],
      [
        "Ġ",
        "P"
      ],
      [
        "Ġ",
        "im"
      ],
      [
        "i",
        "es"
      ],
      [
        "Ġ",
        "\""
      ],
      [
        "Ġ",
        "r"
      ],
      [
        "Ġ",
        "le"
      ],
      [
        "Ġc",
        "h"
      ],
      [
        "n",
        "t"
      ],
      [
        "Ġ",
        "("
      ],
      [
        "Ġ",
        "H"
      ],
      [
        "a",
        "ge"
      ],
      [
        "p",
        "le"
      ],
      [
        "Ġ",
        "M"
      ],
      [
        "om",
        "e"
      ],
      [
        "i",
        "z"
      ],
      [
        "ro",
        "m"
      ],
      [
        "Ġb",
        "y"
      ],
      [
        "ion",
        "s"
      ],
      [
        "in",
        "e"
      ],
      [
        "igh",
        "t"
      ],
      [
        "Ġha",
        "ve"
      ],
      [
        "i",
        "v"
      ],
      [
        "Ġm",
        "e"
      ],
      [
        "Ġ",
        "en"
      ],
      [
        "i",
        "al"
      ],
      [
        "p",
        "er"
      ],
      [
        "Ġs",
        "e"
      ],
      [
        "Ġm",
        "a"
      ],
      [
        "o",
        "c"
      ],
      [
        "Ġp",
        "l"
      ],
      [
        "a",
        "nd"
      ],
      [
        "Ġn",
        "ot"
      ],
      [
        "Ġs",
        "h"
      ],
      [
        "re",
        "s"
      ],
      [
        "Ġw",
        "or"
      ],
      [
        "ic",
        "al"
      ],
      [
        "id",
        "e"
      ],
      [
        "am",
        "e"
      ],
      [
        "p",
        "p"
      ],
      [
        "u",
        "d"
      ],
      [
        "ou",
        "r"
      ],
      [
        "Ġ",
        "1"
      ],
      [
        "al",
        "l"
      ],
      [
        "Ġ",
        "u"
      ],
      [
        "Ġin",
        "t"
      ],
      [
        "Ġf",
        "rom"
      ],
      [
        "a",
        "ct"
      ],
      [
        "Ġ",
        "W"
      ],
      [
        "Ġ",
        "D"
      ],
      [
        "Ġ",
        "E"
      ],
      [
        "Ġ",
        "B"
      ],
      [
        "Ġa",
        "b"
      ],
      [
        "ar",
        "t"
      ],
      [
        "Ġ",
        "="
      ],
      [
        "el",
        "l"
      ],
      [
        "t",
        "her"
      ],
      [
        "Ġ",
        "F"
      ],
      [
        "o",
        "g"
      ],
      [
        "i",
        "le"
      ],
      [
        "Ġw",
        "e"
      ],
      [
        "Ġ",
        "R"
      ],
      [
        "Ġa",
        "d"
      ],
      [
        "`",
        "`"
      ],
      [
        "f",
        "or"
      ],
      [
        "us",
        "t"
      ],
      [
        "ĠĠĠĠ",
        "ĠĠĠĠ"
      ],
      [
        "c",
        "l"
      ],
      [
        "Ġa",
        "t"
      ],
      [
        "ic",
        "h"
      ],
      [
        "Ġim",
        "p"
      ],
      [
        "Ġ",
        "G"
      ],
      [
        "Ġcon",
        "t"
      ],
      [
        "Ġcom",
        "p"
      ],
      [
        "ab",
        "le"
      ],
      [
        "a",
        "re"
      ],
      [
        "h",
        "is"
      ],
      [
        "ul",
        "t"
      ],
      [
        "Ġth",
        "is"
      ],
      [
        "Ġd",
        "o"
      ],
      [
        "Ġ",
        "k"
      ],
      [
        "Ġ",
        "L"
      ],
      [
        "r",
        "ou"
      ],
      [
        "Ġm",
        "ore"
      ],
      [
        "ar",
        "d"
      ],
      [
        "i",
        "b"
      ],
      [
        "a",
        "g"
      ],
      [
        "ation",
        "s"
      ],
      [
        "for",
        "m"
      ],
      [
        "-",
        "-"
      ],
      [
        "an",
        "g"
      ],
      [
        "Ġthe",
        "ir"
      ],
      [
        "Ġo",
        "ther"
      ],
      [
        "in",
        "d"
      ],
      [
        "T",
        "he"
      ],
      [
        "e",
        "p"
      ],
      [
        "c",
        "ess"
      ],
      [
        "r",
        "y"
      ],
      [
        "u",
        "e"
      ],
      [
        "ct",
        "ion"
      ],
      [
        "ve",
        "l"
      ],
      [
        "Ġre",
        "s"
      ],
      [
        "Ġc",
        "re"
      ],
      [
        "an",
        "ce"
      ],
      [
        "i",
        "e"
      ],
      [
        "f",
        "f"
      ],
      [
        "Ġt",
        "e"
      ],
      [
        "l",
        "ow"
      ],
      [
        "k",
        "ing"
      ],
      [
        "Ġ",
        "un"
      ],
      [
        "Ġw",
        "ill"
      ],
      [
        "i",
        "re"
      ],
      [
        "Ġwh",
        "ich"
      ],
      [
        "d",
        "u"
      ],
      [
        "a",
        "ck"
      ],
      [
        "Ġw",
        "as"
      ],
      [
        "Ġs",
        "ome"
      ],
      [
        "s",
        "o"
      ],
      [
        "g",
        "h"
      ],
      [
        "an",
        "s"
      ],
      [
        "en",
        "ce"
      ],
      [
        "as",
        "e"
      ],
      [
        "Ġs",
        "c"
      ],
      [
        "Ġw",
        "he"
      ],
      [
        "c",
        "es"
      ],
      [
        "Ġhe",
        "l"
      ],
      [
        "Ġus",
        "e"
      ],
      [
        "Ġ",
        "2"
      ],
      [
        "Ġ",
        "qu"
      ],
      [
        "o",
        "st"
      ],
      [
        "Ġs",
        "pe"
      ],
      [
        "im",
        "e"
      ],
      [
        "ĠT",
        "his"
      ],
      [
        "Ġg",
        "o"
      ],
      [
        "Ġsu",
        "ch"
      ],
      [
        "Ġhel",
        "p"
      ],
      [
        "at",
        "ed"
      ],
      [
        "Ġ",
        "-"
      ],
      [
        "it",
        "e"
      ],
      [
        "Ġm",
        "od"
      ],
      [
        "Ġl",
        "i"
      ],
      [
        "ou",
        "s"
      ],
      [
        "if",
        "f"
      ],
      [
        "Ġ",
        "O"
      ],
      [
        "as",
        "t"
      ],
      [
        "a",
        "ch"
      ],
      [
        "Ġd",
        "at"
      ],
      [
        "Ġm",
        "an"
      ],
      [
        "Ġh",
        "as"
      ],
      [
        "Ġc",
        "l"
      ],
      [
        "o",
        "o"
      ],
      [
        "Ġb",
        "ut"
      ],
      [
        "Ġt",
        "ra"
      ],
      [
        "Ġs",
        "y"
      ],
      [
        "Ġf",
        "e"
      ],
      [
        "or",
        "y"
      ],
      [
        "ig",
        "n"
      ],
      [
        "on",
        "g"
      ],
      [
        "Ġ",
        "N"
      ],
      [
        "k",
        "s"
      ],
      [
        "Ġs",
        "o"
      ],
      [
        "h",
        "at"
      ],
      [
        "Ġ",
        "j"
      ],
      [
        "a",
        "p"
      ],
      [
        "ic",
        "e"
      ],
      [
        "if",
        "ic"
      ],
      [
        "x",
        "t"
      ],
      [
        "a",
        "v"
      ],
      [
        "Ġa",
        "c"
      ],
      [
        "Ġ",
        "if"
      ],
      [
        "Ġd",
        "iff"
      ],
      [
        "Ġthe",
        "y"
      ],
      [
        "Ġw",
        "ould"
      ],
      [
        "cl",
        "ud"
      ],
      [
        "a",
        "ce"
      ],
      [
        "Ġ",
        "U"
      ],
      [
        "Ġal",
        "so"
      ],
      [
        "Ġan",
        "y"
      ],
      [
        "Ġm",
        "ay"
      ],
      [
        "ar",
        "y"
      ],
      [
        "it",
        "ion"
      ],
      [
        "u",
        "al"
      ],
      [
        "a",
        "c"
      ],
      [
        "Ġa",
        "r"
      ],
      [
        "Ġcom",
        "m"
      ],
      [
        "j",
        "ect"
      ],
      [
        "Ġne",
        "ed"
      ],
      [
        "Ġab",
        "out"
      ],
      [
        "i",
        "p"
      ],
      [
        "in",
        "t"
      ],
      [
        "od",
        "e"
      ],
      [
        "Ġ",
        "out"
      ],
      [
        "n",
        "ow"
      ],
      [
        "Ġu",
        "p"
      ],
      [
        "Ġin",
        "clud"
      ],
      [
        "0",
        "0"
      ],
      [
        "r",
        "u"
      ],
      [
        "res",
        "s"
      ],
      [
        "Ġ",
        "ro"
      ],
      [
        "Ġm",
        "y"
      ],
      [
        "st",
        "em"
      ],
      [
        "Ġe",
        "v"
      ],
      [
        "ĠI",
        "t"
      ],
      [
        "i",
        "ent"
      ],
      [
        "ĠĠĠĠ",
        "ĠĠĠ"
      ],
      [
        "Ġli",
        "ke"
      ],
      [
        "on",
        "e"
      ],
      [
        "Ġd",
        "is"
      ],
      [
        "Ġdat",
        "a"
      ],
      [
        "Ġcon",
        "s"
      ],
      [
        "or",
        "s"
      ],
      [
        "Ġp",
        "er"
      ],
      [
        "Ġit",
        "s"
      ],
      [
        "Ġp",
        "re"
      ],
      [
        "en",
        "s"
      ],
      [
        "Ġh",
        "ow"
      ],
      [
        "nd",
        "er"
      ],
      [
        "Ġf",
        "un"
      ],
      [
        "Ġthe",
        "m"
      ],
      [
        "Ġpro",
        "v"
      ],
      [
        "Ġus",
        "ed"
      ],
      [
        "l",
        "o"
      ],
      [
        "Ġ",
        "Y"
      ],
      [
        "Ġt",
        "ime"
      ],
      [
        "Ġspe",
        "c"
      ],
      [
        "ĠI",
        "n"
      ],
      [
        "Ġus",
        "ing"
      ],
      [
        "Ġex",
        "am"
      ],
      [
        "b",
        "er"
      ],
      [
        "n",
        "ing"
      ],
      [
        "Ġal",
        "l"
      ],
      [
        "Ġd",
        "es"
      ],
      [
        "et",
        "w"
      ],
      [
        "Ġc",
        "ould"
      ],
      [
        "Ġon",
        "e"
      ],
      [
        "c",
        "on"
      ],
      [
        "``",
        "`"
      ],
      [
        "Ġk",
        "now"
      ],
      [
        "Ġsy",
        "stem"
      ],
      [
        "Ġt",
        "a"
      ],
      [
        "ar",
        "i"
      ],
      [
        "Ġt",
        "r"
      ],
      [
        "at",
        "ing"
      ],
      [
        "p",
        "ut"
      ],
      [
        "r",
        "am"
      ],
      [
        "Ġo",
        "ver"
      ],
      [
        "ou",
        "nt"
      ],
      [
        "el",
        "y"
      ],
      [
        "Ġdiff",
        "ere"
      ],
      [
        "at",
        "er"
      ],
      [
        "Ġint",
        "o"
      ],
      [
        "Ġthe",
        "re"
      ],
      [
        "Ġs",
        "p"
      ],
      [
        "Ġ",
        "J"
      ],
      [
        "Ġimp",
        "ort"
      ],
      [
        "ic",
        "s"
      ],
      [
        "ul",
        "ar"
      ],
      [
        "en",
        "er"
      ],
      [
        "le",
        "d"
      ],
      [
        "f",
        "t"
      ],
      [
        "Ġne",
        "w"
      ],
      [
        "Ġc",
        "ol"
      ],
      [
        "Ġma",
        "ke"
      ],
      [
        "il",
        "d"
      ],
      [
        "Ġ",
        "3"
      ],
      [
        "a",
        "il"
      ],
      [
        "Ġs",
        "er"
      ],
      [
        "iz",
        "e"
      ],
      [
        "ang",
        "u"
      ],
      [
        "c",
        "om"
      ],
      [
        "Ġc",
        "ode"
      ],
      [
        "ing",
        "s"
      ],
      [
        "Ġmod",
        "el"
      ],
      [
        "Ġin",
        "ter"
      ],
      [
        "vel",
        "op"
      ],
      [
        "u",
        "b"
      ],
      [
        "Ġa",
        "m"
      ],
      [
        "I",
        "n"
      ],
      [
        "or",
        "d"
      ],
      [
        "Ġh",
        "is"
      ],
      [
        "Ġ",
        "ke"
      ],
      [
        "â",
        "Ķ"
      ],
      [
        "at",
        "ure"
      ],
      [
        "ib",
        "le"
      ],
      [
        "Ġwh",
        "at"
      ],
      [
        "f",
        "ul"
      ],
      [
        "Ġl",
        "angu"
      ],
      [
        "Ġs",
        "et"
      ],
      [
        "Ġw",
        "ay"
      ],
      [
        "Ġp",
        "os"
      ],
      [
        "Ġu",
        "nder"
      ],
      [
        "âĶ",
        "Ģ"
      ],
      [
        "Ġad",
        "d"
      ],
      [
        "o",
        "ve"
      ],
      [
        "at",
        "es"
      ],
      [
        "Ġv",
        "al"
      ],
      [
        "â",
        "Ģ"
      ],
      [
        "Ġe",
        "m"
      ],
      [
        "p",
        "en"
      ],
      [
        "Ġa",
        "p"
      ],
      [
        "m",
        "s"
      ],
      [
        "Ġpro",
        "g"
      ],
      [
        "ment",
        "s"
      ],
      [
        "Ġa",
        "pp"
      ],
      [
        "Ġthe",
        "se"
      ],
      [
        "as",
        "ed"
      ],
      [
        "Ġwh",
        "o"
      ],
      [
        "ver",
        "y"
      ],
      [
        "a",
        "us"
      ],
      [
        "al",
        "ly"
      ],
      [
        "ic",
        "k"
      ],
      [
        "Ġsh",
        "ould"
      ],
      [
        "Ġin",
        "d"
      ],
      [
        "Ġwor",
        "k"
      ],
      [
        "el",
        "f"
      ],
      [
        "ver",
        "s"
      ],
      [
        "Ġp",
        "art"
      ],
      [
        "Ġh",
        "um"
      ],
      [
        "re",
        "e"
      ],
      [
        "Ġexam",
        "ple"
      ],
      [
        "il",
        "ity"
      ],
      [
        "ol",
        "og"
      ],
      [
        "Ġs",
        "im"
      ],
      [
        "ent",
        "s"
      ],
      [
        "et",
        "h"
      ],
      [
        "ow",
        "er"
      ],
      [
        "Ġp",
        "r"
      ],
      [
        "Ġre",
        "l"
      ],
      [
        "Ġt",
        "y"
      ],
      [
        "is",
        "h"
      ],
      [
        "Ġe",
        "ff"
      ],
      [
        "Ġle",
        "ar"
      ],
      [
        "Ġ",
        "čĊ"
      ],
      [
        "on",
        "s"
      ],
      [
        "ĠS",
        "t"
      ],
      [
        "ri",
        "b"
      ],
      [
        "Ġp",
        "h"
      ],
      [
        "it",
        "ies"
      ],
      [
        "Ġo",
        "b"
      ],
      [
        "Ġg",
        "ener"
      ],
      [
        "Ġn",
        "um"
      ],
      [
        "Ġde",
        "velop"
      ],
      [
        "Ġfun",
        "ction"
      ],
      [
        "Ġe",
        "ach"
      ],
      [
        "g",
        "et"
      ],
      [
        "Ġdiffere",
        "nt"
      ],
      [
        "Ġp",
        "e"
      ],
      [
        "Ġb",
        "u"
      ],
      [
        "Ġpl",
        "ay"
      ],
      [
        "c",
        "re"
      ],
      [
        "Ġre",
        "qu"
      ],
      [
        "'",
        "t"
      ],
      [
        "l",
        "l"
      ],
      [
        "Ġman",
        "y"
      ],
      [
        "ro",
        "w"
      ],
      [
        "rou",
        "gh"
      ],
      [
        "Ġf",
        "ol"
      ],
      [
        "Ġa",
        "ct"
      ],
      [
        "ĠY",
        "ou"
      ],
      [
        "i",
        "a"
      ],
      [
        "âĶĢ",
        "âĶĢ"
      ],
      [
        "l",
        "es"
      ],
      [
        "Ġin",
        "v"
      ],
      [
        "Ġg",
        "et"
      ],
      [
        "r",
        "it"
      ],
      [
        "Ġ",
        "|"
      ],
      [
        "Ġwhe",
        "n"
      ],
      [
        "p",
        "h"
      ],
      [
        "ar",
        "k"
      ],
      [
        "Ġin",
        "st"
      ],
      [
        "Ġ",
        "ra"
      ],
      [
        "Ġ",
        "{"
      ],
      [
        "o",
        "v"
      ],
      [
        "Ġst",
        "r"
      ],
      [
        "Ġp",
        "ers"
      ],
      [
        "Ġcre",
        "ate"
      ],
      [
        "o",
        "se"
      ],
      [
        "ou",
        "nd"
      ],
      [
        "y",
        "s"
      ],
      [
        "ĠA",
        "I"
      ],
      [
        "Ġimport",
        "ant"
      ],
      [
        "Ġs",
        "m"
      ],
      [
        "Ġpro",
        "cess"
      ],
      [
        "an",
        "ge"
      ],
      [
        "t",
        "ain"
      ],
      [
        "le",
        "ct"
      ],
      [
        "Ġv",
        "ari"
      ],
      [
        "ou",
        "gh"
      ],
      [
        "al",
        "s"
      ],
      [
        "ri",
        "pt"
      ],
      [
        "--",
        "--"
      ],
      [
        "e",
        "en"
      ],
      [
        "e",
        "ver"
      ],
      [
        "Ġex",
        "pl"
      ],
      [
        "Ġwor",
        "ld"
      ],
      [
        "at",
        "h"
      ],
      [
        "rou",
        "nd"
      ],
      [
        "ĠH",
        "ow"
      ],
      [
        "Ġth",
        "an"
      ],
      [
        "ch",
        "n"
      ],
      [
        "e",
        "ar"
      ],
      [
        "at",
        "ive"
      ],
      [
        "Ġw",
        "ant"
      ],
      [
        "ic",
        "t"
      ],
      [
        "Ġlangu",
        "age"
      ],
      [
        "Ġfol",
        "low"
      ],
      [
        "o",
        "od"
      ],
      [
        "pe",
        "nd"
      ],
      [
        "Ġprog",
        "ram"
      ],
      [
        "etw",
        "een"
      ],
      [
        "n",
        "e"
      ],
      [
        "Ġt",
        "w"
      ],
      [
        "Ġex",
        "per"
      ],
      [
        "Ġb",
        "etween"
      ],
      [
        "Ġpro",
        "du"
      ],
      [
        "ur",
        "n"
      ],
      [
        "c",
        "ur"
      ],
      [
        "t",
        "e"
      ],
      [
        "W",
        "hat"
      ],
      [
        "a",
        "k"
      ],
      [
        "Ġd",
        "et"
      ],
      [
        "Ġwhe",
        "re"
      ],
      [
        "op",
        "le"
      ],
      [
        "ĠI",
        "f"
      ],
      [
        "Ġth",
        "rough"
      ],
      [
        "Ġas",
        "s"
      ],
      [
        "pl",
        "ic"
      ],
      [
        "i",
        "ence"
      ],
      [
        "er",
        "m"
      ],
      [
        "is",
        "e"
      ],
      [
        "ag",
        "es"
      ],
      [
        "(",
        ")"
      ],
      [
        "c",
        "ed"
      ],
      [
        "w",
        "n"
      ],
      [
        "Ġ",
        "V"
      ],
      [
        "Ġm",
        "ost"
      ],
      [
        "ow",
        "n"
      ],
      [
        "ra",
        "ct"
      ],
      [
        "p",
        "s"
      ],
      [
        "form",
        "ation"
      ],
      [
        "st",
        "and"
      ],
      [
        "t",
        "en"
      ],
      [
        "oo",
        "k"
      ],
      [
        "Ġte",
        "chn"
      ],
      [
        "Ġp",
        "o"
      ],
      [
        "s",
        "s"
      ],
      [
        "ot",
        "h"
      ],
      [
        "e",
        "f"
      ],
      [
        "Ġwh",
        "ile"
      ],
      [
        "Ġre",
        "g"
      ],
      [
        "ent",
        "ial"
      ],
      [
        "ir",
        "st"
      ],
      [
        "g",
        "g"
      ],
      [
        "Ġof",
        "f"
      ],
      [
        "i",
        "ous"
      ],
      [
        "ic",
        "es"
      ],
      [
        "Ġfor",
        "m"
      ],
      [
        "o",
        "b"
      ],
      [
        "Ġcomp",
        "ut"
      ],
      [
        "t",
        "ing"
      ],
      [
        "y",
        "th"
      ],
      [
        "Ġat",
        "t"
      ],
      [
        "it",
        "s"
      ],
      [
        "Ġbe",
        "en"
      ],
      [
        "Ġpe",
        "ople"
      ],
      [
        "ter",
        "n"
      ],
      [
[...]
